#version: 0.2
á »
á º
Ġ t
n g
Ġ c
Ġ Ä
n h
Ã ł
ĠÄ ĳ
Ġt h
Æ °
Ġ Ġ
Ġ v
Ġ l
Ã ¡
Ġ h
č Ċ
i á»
Ġ b
Ġ m
Ġc h
Ġ s
Ġt r
Æ° á»
Ġ k
áº ¿
Ġ n
á» Ļ
Ġ d
Ġ p
Ġ nh
áº ¡
Ã ³
Ã ¢
Ã ª
Ġ g
Ã ´
iá» ĩ
Ġ T
á» ĳ
Ġk h
áº £
Ġ ng
Ġp h
ĠĠ ĠĠ
Ã¡ c
Ġv Ãł
Ġ N
a n
á» §
áº ¥
Ġ r
Ãª n
i n
u y
o n
e r
Æ ¡
Ã´ ng
Ġ q
Ã¢ n
á» ĭ
Ġl Ãł
áº Ń
i áº¿
Ã Ń
= =
Ġ C
Ã ¬
a m
Æ°á» £
e n
Ġc á»§
Ġt á»
áº §
Ġq u
Ġcá»§ a
Ġ a
Æ°á» Ŀ
Ä ĥ
Ġv á»
Ġth á»
t i
Ġc Ã¡c
ĠÄĳ á»
Ġ V
o ng
áº¡ i
Ġ H
á»Ļ t
Ľ i
e s
Ġ x
c h
o r
Ġc Ã³
Ġh á»
Ġg i
Ġth e
i s
Ã £
áº¥ t
Æ°á»£ c
Ġ (
iá»ĩ t
Ġ M
iá» ģ
Ġ 1
áº ¯
a l
Ã ²
a r
Ã º
ĠÄĳ Æ°á»£c
Ġ o
Ġm á»Ļt
á» ±
ĠÄ Ĳ
á» ¯
e d
á» Ł
ĠN am
Ġ B
ĠT h
Ã¬ nh
á» ©
Ġ in
Ġ L
a t
a y
Ġtr ong
Ã ¹
uy á»
i nh
áº ·
iáº¿ n
Æ°á» Ľ
i Ãªn
ĠV iá»ĩt
á» ¥
Æ° Æ¡
Ãł y
Ãł nh
Æ°Æ¡ ng
Ġo f
Ġ an
ĠT r
Æ°á»Ŀ i
Ġ P
i t
áº§ n
ÃŃ nh
Æ°á»Ŀ ng
a s
Ġvá» Ľi
Ġ f
Äĥ m
a u
iá»ģ u
Ġch o
Ġkh Ã´ng
r o
á»Ļ ng
r e
Ġ S
Ġng h
a i
iá»ĩ n
Ġng Æ°á»Ŀi
Ġ w
Ġt o
á» ĵ
u ng
e l
ĠĠĠĠ ĠĠĠĠ
ĠÄĳ Ã£
u á»ĳ
Æ°á»Ľ c
iá» ĥ
i c
Ġh o
a ng
Ġnh Æ°
á»¯ ng
Ġhá» į
áº£ i
á» į
Ã¢ y
ĠN g
áº¿ t
áºŃ t
ti on
Ġan d
á» ĩ
á»Ļ c
Ġ 2
Ġ Q
Ġ D
Å ©
Ġthá» ĥ
á» ķ
Ġn Äĥm
áº£ n
a o
áº§ u
a nh
á» Ń
á»Ļ i
Ġr a
ĠC h
Ġnh á»¯ng
Ãł i
Ãł ng
ĠĠ Ġ
áº¿ n
Ã¹ ng
Ġ á»Ł
Ġ ==
i ng
Ġ A
ĠP h
l e
Ġtá» «
á»ĳ ng
Ġ K
Ãł n
áº ±
Ã¡ t
Ŀ i
ĠÄĳá» ĥ
e c
o m
Ã¡ nh
áºŃ n
Ġ G
Ã¡ ng
ĠÄĳ Ã³
Ġg iá»
. .
Æ¡ n
Ġl á»
u s
ĠvÃł o
Ġn Ãły
e m
áº· c
á» ¹
á»ĳ i
t h
Ä ©
Ġth u
Ã¡ i
Ġ "
Ġqu Ã¢n
áºŃ p
Ġth Ãłnh
i Ãª
i a
0 0
Ã ©
iá»ĩ u
Ã ½
Ġl o
i d
Ġs á»±
Ġ1 9
ĠÄĳ áº¿n
Ã¡ p
ģ n
en t
áº± ng
ħ n
Äĥ n
i m
áº¯ c
Ġkh i
Ġvá» ģ
Ġhá»į c
o s
ĠÄĳ á»ĭ
Ġn Ã³
Ġs á»ĳ
ĠN h
Äĥ ng
uy Ãªn
u r
Ãł o
Ġb á»ĭ
Ġch ÃŃnh
Ġc on
a c
Ġn Æ°á»Ľc
áº ©
á»© c
Ġch iáº¿n
Ã¡ o
Å© ng
iá»ģ n
iáº¿ t
á» ī
Ã¡ n
Ġc Ã´ng
Ġl áº¡i
u l
o l
Æ°á»£ ng
- -
Ã² n
á»± c
Ġ is
áº¡ o
e t
Ġd Ã¢n
ĠM á»¹
ĠlÃł m
Ġd á»¥
Ġnh iá»ģu
ĠÄĳ áº§u
Ġc Å©ng
áº¡ n
± c
uyá» ģn
Ġm Ãł
Ġm á»
áº¥ y
u n
Ã´ i
Ġnh Ãł
Ġkh Ã¡c
Ġc áº£
Ġ e
Ã² a
Ã¢ u
ĠQ u
Ãº c
Ġd o
l y
Ã¢ m
áº£ ng
o d
ÃŃ ch
Ġtr Ãªn
uá»ĳ c
Ġqu an
u t
Ġt áº¡i
á» ı
a tion
á»ĩ nh
i l
) ,
áº «
á»ĭ ch
Ġthá» Ŀi
ĠÄĳ á»Ļng
iá»ĩ c
v e
Ġs á»Ń
Ġh iá»ĩn
Ġnh Ã¢n
it h
ĥ n
Ġt iáº¿
ĠĠĠĠ ĠĠĠ
uyá» ħn
i r
Ġch á»ī
áº¯ t
Ġh Ã²a
Ã³ a
u m
áº· t
ĠÄĳá»ĭ nh
Ġ y
áº¡ ng
áº£ o
u á»Ļc
Ġnh áº¥t
Ġch á»§
Ġdá»¥ ng
Ġs au
á»¥ c
ĠC á»Ļng
áº ½
ĠÄĳá» ĵ
o p
Ġ I
á»ĳ c
Ġc Ã²n
Ġw ith
áº¡ t
) .
â Ģ
Ġthá» ©
Ġv iá»ĩc
Ã² ng
ĠcÃ¡c h
Ġthá» ±c
Ġh Æ¡n
Ãº ng
e v
l o
Ġc Æ¡
Ã´ n
Ġho áº·c
Ġph áº£i
áº¥ p
Ġth á»ĳng
Ġth Ã¬
Ġng Ãły
Ġh Ã¬nh
ĠÄĳá» ģ
t er
uy áº¿t
Ġth Æ°á»Ŀng
iá»ĥ n
ĠTr ung
Æ° a
ĠQ uá»ĳc
Ġlá» Ľ
áº« n
Ġlo áº¡i
== =
ĠÄĳ o
áº¡ c
ĠNg uyá»ħn
Ġthe o
áº¥ u
i g
Ġl Æ°á»£ng
a d
á»© ng
Ġth Ã¡ng
Ġk á»
Ġm iá»ģn
Ġ 3
Ġth áº¿
á»į i
iÃª u
Ġh Ã³a
Ġ== =
s t
á» «
iá»ĥ u
ĠK h
Ġf or
Ġb áº±ng
Ġa s
Ġkh o
.. .
Ã¡c h
Ġph Ã¡t
Ġb e
áº¥ n
£ p
ĠG i
u áº¥t
Ġh ai
Ġb á»ĩnh
Ġ R
iá»ĥ m
Ġtá» ķ
Ġ X
Ġs inh
Ġl á»±c
i f
Ġgi a
Ġhá» £p
iá»ĩ p
Ã ¨
Ġt ÃŃnh
Æ°á» Ł
Ġ or
Ġl Ãªn
á»ķ i
t r
Ġtr anh
áº¿ u
Ġh Ãłnh
Ġ2 0
c e
T h
Ã³ ng
Æ°á»Ł ng
Ġ -
Ġb á»Ļ
Ġh á»Ļi
ĠH o
ĠnhÆ° ng
uyá» ĩ
á» £
Ġc uá»Ļc
Ġ =
Ġlá»Ľ n
Ġtr á»ĭ
Ġa re
Ġt áº¿
o t
Ġtá» ±
Æ¡ i
ĠÄĳ i
ĠÄĳ iá»ģu
Ġthu áºŃt
e as
Ġd is
ĠÄĳ á»ĳi
Ġt áº¡o
es s
Ġl áºŃp
Ġs áº£n
Ä© a
Ġs áº½
Ġv áºŃt
Ġk áº¿t
ĠTh e
Ġm Ã¡
iá»ĩ m
i on
Ġx uáº¥t
e p
Ġc Ã¹ng
er s
Ġgiá» ¯
ĠÄĳ Æ°á»Ŀng
Ġ Ã´ng
ĠĠ čĊ
h i
á»ĵ ng
Ġv Äĥn
r y
Ġp ro
ĠÄĳá»ĵ ng
Æ°á»Ľ ng
t s
Ġ Ã
i ti
Ġtr Ã¬nh
áº¡ ch
âĢ ĵ
áº© m
Ġtá» Ń
a in
Ä Ĳ
Ġb áº£n
á»ĵ i
Ġc á»©
Ġ 5
ĠPh Ã¡p
Ġtiáº¿ p
Ġv á»ĭ
Ġl Ã½
Æ° ng
en d
Ġt Ã¡c
Ġa l
Ġhá» ĩ
ĠÄĳ á»Ļ
# #
Ġph áº§n
y p
Ġph Æ°Æ¡ng
ĉ ĉ
ĠÄĳ áº¡i
Ġd á»±
Ġmá» Ľi
ĠÄĳ Ã¡nh
Ġ 4
Ġb iáº¿n
f ec
Ġng o
Ġtr Æ°á»Ŀng
uyá»ĩ n
o c
áº »
Ġn Ãªn
Ġch áº¥t
Ġg á»įi
Ġth á»ĭ
ĠÄ ĥn
ĠnÃ³ i
a g
Ġgiá» Ľi
Ġl iá»ĩu
ĠB áº¯c
Ġng uyÃªn
Ġc ao
Ġqu a
áº¡ nh
Ġd Ã¹ng
Ġ U
in e
a p
a ti
Ġngh Ä©a
l u
Ġnh áºŃn
u a
Ġtr Æ°á»Ľc
Ġr áº±ng
Ġth Ã´ng
Ġc an
Ġr áº¥t
Ġ W
á» Ĺ
á»Ł i
Ġh Ãłng
N g
Ġkh u
Ġch á»©c
Ġtr uyá»ģn
Ġ on
ĠÄĳ á»Ļi
Ġnh au
iá» ħn
ar ry
Ġh ay
Ãº t
Ġv Ã¬
ĠM inh
Ġqu á»ĳc
áº¯ ng
iÃª m
Ġch Ãºng
ĠÄĳá» ķ
at e
Ġq uyá»ģn
-- --
T r
Ġph Ã¢n
Æ° u
u p
a b
áº¯ n
Ġtr á»Ł
uá»ĳ i
áºŃ u
Ġ E
ĠC Ã¡c
Ġth áº¥y
Ġthá»© c
Ãª m
Ġn Äĥng
áº© n
ĠQu Ã¢n
Ġt iáº¿n
á»ĵ m
Ġto Ãłn
Ġph á»§
ĠÄĳ áº·c
i z
Ġt a
á»į ng
Ġd á»ĭch
Ġch áº¿
1 9
Ġdis eas
áº ¹
Ġt iÃªu
h o
Ġm áº·t
Ġm ay
Ġgi áº£
Ġt u
Ġb y
Ġl iÃªn
ro m
e ar
ÃŃ a
Ġb Ã¡nh
Ġc o
Ġnh iÃªn
uyá» ĥn
Ġtá» Ľi
Ġs t
Ã¡ m
ĠÄĳ iá»ĥm
Ġg á»ĵm
Ġtr iá»ĥn
Ġthu á»Ļc
ti c
m ent
Ġc om
Ġl u
at ed
ĠT Ã¢y
ĠĠĠĠĠĠĠĠ ĠĠĠ
s e
ĠV Äĥn
Ġd i
áºŃ y
Ġ F
el l
á»Ń a
Ġgi an
er e
Ġb áº¯t
Ġx Ã£
Ġm Ã¬nh
Ġtá» ¥
áº§ y
th er
Ġv áº«n
Ġs o
Ġk inh
e x
u c
Ġtr ung
á» Ľ
Ġt á»ĳ
ĠÄĳ áº¥t
Ã µ
Ġth at
ĠÄĲ áº¡i
Ġb Ãªn
áº¥ m
e f
q u
Ġngh á»ĩ
Ġb ao
Ġt áºŃp
Ã© p
Ġs y
ĠÄĲ Ã´ng
Ġin c
áº ³
Ġc Ã¡i
Ġb iá»ĩt
áº§ m
Ġt Äĥng
Æ°á» Ľi
ĠÄĳá»ĭ a
d i
Ġn Ãło
" .
Ġ us
Ã© t
u g
Ġe x
ĠÄĳá»ģ u
Ġ 6
is t
it y
Ġdiseas e
ic al
uá»ĳ ng
Ġch iáº¿
Ġtr á»įng
00 0
Ġth á»§
Ġs Ä©
Ġph Ã³ng
Ġs á»ĳng
e at
Ġc áº¥p
ĠÄĳ Ã¢y
Ġgiá»¯ a
ĠmÃ¡ y
áº£ nh
ĠH Ãł
Ġph áº©m
Ġc áº§u
ĠI n
Ġv Ã¹ng
uá»ĳ n
Ġa c
ig h
Ġr es
ĠS Æ¡n
v er
Ġh a
ĠÄĳá»ķ i
Ġqu áº£
ĠÄĳ ang
Ġtiáº¿ ng
Ġb iáº¿t
Ġká» ³
Ġph á»ĳ
Ġh iá»ĩu
áº¯ m
á»ķ ng
á» ģ
Ġcá»© u
Ġ Ã½
á»ĵ n
ĠTr ong
á»į c
Ġl áº§n
ĠH arry
Ġgi áº£i
Ġngo Ãłi
áº³ ng
o g
Ġt in
Ġt Ã¬nh
ĠÄĳo Ãłn
Ġ19 7
á»¯ a
ĠD Ã¢n
Ġv iÃªn
áº± m
Ġkho áº£ng
áº¡ m
Ġph ÃŃa
iti s
Ã³ n
Ġr á»ĵi
an t
ī nh
Ġg Ã¢y
Ġp r
Ġ J
Ġ 7
Ġgi Ã¡o
Ġt Æ°Æ¡ng
Ġch á»ĳng
p t
Ġph Ã¡p
Ġt ÃŃch
Ġs Ã¡ch
or e
Ġ âĢĵ
áº£ y
Ġy áº¿u
Ġt Ãªn
Ġt á»Ļc
Ġ1 0
C h
Ġ20 1
Ġth iáº¿t
Ġ á»©ng
Ġt iÃªn
t ed
Ġth Æ°
Ġqu Ã¡
Ġph Ã²ng
Ġb áº£o
Ġch á»©ng
Ġb Ã¬nh
Ä© nh
Ġth Ãªm
Ãª u
Ġph ong
Ġq uyáº¿t
ĠA n
Ġb a
Ġd iá»ħn
r i
Ġ im
Ġt Ã¢m
Ġ .
Ġngh iá»ĩp
á» Ŀi
Ġnh á»ı
u ch
Ã¬ n
ĠL Ãª
un d
Ġd Ãłi
Ġvá» ¥
Ġv iá»ĩn
Ġtr ang
Ġf rom
Ġc á»ĳ
an d
Ġnh áº¡c
Ġc áº§n
e o
Ġth áº§n
Ġtá»ķ ng
Ġb á»ĳ
Ġhá» ĵ
Ġgi Ã¡
p h
á» Ŀ
ĠÄĳ áº¡o
er m
Ġm Ã´
Ġ *
á»į n
Ġs Æ°
Ġn ay
el f
u Ã¢n
Ġth ay
Ġn Æ¡i
Ġha ve
Ġkh ÃŃ
Ġ O
Ġtr á»£
ĠGi áº£i
Ġho áº¡t
Ġch u
Ġ áº£nh
Ġb á»Łi
ac k
Ġ1 8
or m
il l
Ġvá» ±c
es t
Ã¬ m
Ġtá» īnh
Ġa t
Ã© o
Ġv i
á»ĭ nh
" ,
ĠÄĳ Æ°a
Ġ 9
ĠL iÃªn
Ġ2 00
Ġ 8
Ãº p
Ġ it
Ġb inh
ĠM á»Ļt
en ce
Ã¹ a
Ġs Ã¡ng
ex t
uy áº¿n
ĠH á»ĵ
Ġn ot
L Ãłng
Ġn á»ķi
ÃŃ t
Ġ Ã¢m
Ġg Ã¬
iáº¿ u
Ġth Æ°Æ¡ng
Ġkh á»ı
Ġch uyá»ĥn
u re
N h
á»« ng
ĠTr áº§n
ar y
p l
Ġt ay
Ġd Æ°á»Ľi
Ġl á»ĭch
an s
Ġm áº¡nh
al ly
Ġd áº¡ng
o w
Ġl Ã£
t e
en s
Ġtr iá»ĩu
Ġlá» £
« a
Ġm Ã³n
Ġc au
ĠÄĳ á»Ļc
Ġm áº¡ng
Ġch ÃŃ
ĠB á»Ļ
u á»ĵn
Ġgiáº£ m
Ġg en
Ġ Y
Ġb iá»ĥu
Ġb Ã¡o
ĠĠĠĠ čĊ
Ġd áº«n
ĠCh ÃŃnh
ĠÄĳ iá»ĩn
ĠT á»ķng
ĠD Æ°Æ¡ng
Ġdá»± ng
á» ħ
Ġtr áºŃn
Ġh áº¿t
á» ģn
Ġtá»¥ c
Ġv Å©
al l
Ġb á»ı
iÃª ng
Ġw hi
e op
Ġgiá» Ŀ
Ġc uá»ĳi
i es
Ġx Ã¡c
Ãº a
Ġb Ãłi
Ġb áº¥t
Ġs ang
Ġv ua
ev el
Ġt Ãłi
ĠÄĳ áº¥u
iá» ħ
ĠHo a
Ġ Ã¡p
ĠÄĳ Æ¡n
u b
Ġth o
s o
os e
Ġc á»ķ
Ġs p
ĠÄĳo áº¡n
ĠÄĳ Ã¬nh
Ġth am
ĠÄĳá» ©
Ġch Æ°a
Ġv áºŃy
áº· ng
Ã¨ o
Ġm á»¥c
Ġs á»Ł
Ġ {
s s
Ġgi ao
a k
Ã´ m
Ã³ c
Ġm ang
re as
ĠĠĠĠĠĠĠĠ čĊ
Ġgi Ãºp
Ġt Æ°á»Ľng
ti ng
Ã£ i
Ġc á»Ļng
eop le
2 0
i b
Ġph áº£n
Ĺ i
Ġt Ã¬m
Ġ /
Ġho Ãłn
ar d
ĠN á»Ļi
Ġt Ã´i
á» ³
Ġin fec
Ġngh iÃªn
u e
Ġ19 6
Ãł m
## #
O f
Ġk á»¹
m pt
T ext
om e
Ġc a
end Of
endOf Text
n e
f fec
Ġs á»©c
Ġph á»¥c
ir us
Ġk áº¿
Ġg áº§n
' s
mpt om
Ġth Æ¡
os t
ĠNg uyÃªn
ĠB Ã¬nh
Ġx Ã¢y
Ã³ m
g n
ĠÄĳá» Ŀi
Ġm áº¥t
Ġth ÃŃch
Ġq uy
Ġ em
áº¯ p
áº· p
or y
Ġká» ·
Ġk iáº¿n
Ġl Ãºc
Ġt Æ°
Ġt Æ°á»£ng
Ġm á»Ł
---- ----
Ġ 0
Ġc Ã¢y
Ġv áº¥n
h e
Ġd á»¯
ĠL ong
Ġc á»¥
ĠT uy
ĠĠĠĠ ĠĠčĊ
p ro
Ġx uá»ĳng
Ġp ar
áº¡ y
Ġth uyáº¿t
Ġh á»Ļ
ĠÄĳ áº·t
Ġ19 5
a ch
g e
Ġb Ãło
Ġm inh
t o
Ġtr ÃŃ
Ġb lo
m on
Ġp eople
Ġb an
Ġth Ã¢n
Æ°á»£ u
Ġa d
ĠNh Ãł
Ġtá»« ng
Ġch ung
Ġt im
Ġr ec
ation s
ĠmÃł u
e w
Ġn áº¿u
Ġkho a
lu d
ĠH u
od el
Ġ ÃŃt
Ġh áº¡n
Ġnh Ã¬n
Ġr á»Ļng
Ġl áº¥y
Ġr e
ĠmÃ¡ u
Ġl Ã¡
Ġtr iá»ģu
Ġcáº£ m
Ġlá»£ i
Ġm en
o us
Ġd iá»ĩn
Ġkhá»ı i
== ==
Ġd Ã¹
Ġwhi ch
on e
áº µ
Ġch á»¯
Ġsy mptom
ev er
Ġph á»ķ
á» ĥ
Ġthá»ĭ t
or t
Ġw as
Ġng uá»ĵn
Ġc ung
Ġng á»¯
b er
eat ment
Ġc ell
) ;
i al
am p
Ġk Ã½
Ġal so
iá»ħ m
ac t
Ġv Ã´
Ġp re
ĠĠĠĠĠĠĠĠ ĠĠčĊ
Ġph Ã¡
Ġm uá»ĳn
ı i
Ġchiáº¿ m
ĠA nh
ĠQu áº£ng
ĠÃ ģ
áº¡ p
Ġv iáº¿t
Ġs elf
Ġph Ã©p
Ġh Æ°á»Łng
Ã£ o
Ġs Ã¡t
Ġlá» ħ
Ġh Æ°á»Ľng
Ġ á»§
Ġc á»Ń
os is
Ġa b
P h
Ġk iá»ĩn
tion s
Ġc Ã¡
Ġh as
o ut
Ġth áº¯ng
Ġmá» Ĺi
a v
Ġt inh
or s
Ķ ng
Ġn á»¯a
Ġkh áº£
ĠS au
y ro
Ġh Ã¡t
Ġk iá»ĥm
in t
is k
i v
Ġlá» Ŀi
Ġc á»Ńa
Ġm á»įi
Ġt áº¥t
Ġph á»¥
Ġ1 2
Ġa nh
y s
ĠTh Ã¡i
Ġ1 5
Ġt iá»ģn
Ġblo od
ug h
ĠL Ã½
Ġinc lud
Ġsymptom s
Ġc Ãłng
Ġtr á»±c
Ġtr Ã²
Ġth Ã¡i
ĠTh Ãłnh
ĠNh á»¯ng
Ġs Ã´ng
Ġtr Ãºc
f f
ĠNg h
ĠC Ã´ng
Ġto Ã¡n
Ġr Æ°á»£u
Ġnh iá»ħm
o Ãłi
Ġ á»
Ġ if
Ġk ÃŃch
Ġl Æ°á»£c
Ġm áº¡ch
ĠCh ÃŃ
Ġh uyáº¿t
Ġw h
ĉĉ čĊ
ĉĉ ĉ
Ġn á»Ļi
ĉĉĉ čĊ
s er
Ġvá» «a
ĠlÃ£ nh
Ġr Ãºt
Ġtr eatment
ĠÄĳ a
Ġch i
Ġn á»ģn
Ġw e
Ä ĳ
Ġc Ã¢u
Ġt áº¥n
ĠHo Ãłng
Ġc áº£i
Ġt yp
Ġth áº¥t
áº¿ p
at h
Ġ čĊ
ĠÄĳ á»§
ti ve
v id
Ġl á»ĩ
Ġho a
Ġch Ã¢u
Ġs ao
Ġch ia
Ã¹ y
Ġv irus
Ġd anh
Ġr isk
ĠÄĳÃ³ ng
l as
Ġngh iá»ĩm
ĠNg Ã´
Ġb Ãłn
Ġb iÃªn
Ġr Ãµ
ĠTh anh
ĠÄĲ Ã¬nh
á»ĳ n
ĠÄĲ Ãł
ĠK á»³
Ġv iÃªm
Ġh yp
áºŃ m
ĠÄĳ áº£o
Ġth uá»ĳc
Ġ== ==
il d
Ġl Æ°u
Ġká» ĥ
Ġth an
Ġngh á»ĭ
Ġy Ãªu
C Ã¡c
ĠlÃł ng
Ġs áº¯c
ent s
Ġin f
yro id
Ġ el
Ġm ore
ĠN Ã³
Ãº i
r on
Ġb ay
Ġkh iáº¿n
Ġcáº£ nh
Ġtr áº¡ng
Ġc ar
Ġlá»Ľ p
Ġh uy
c ur
Tr ong
el y
Ġch Ã¢n
Ġch á»ĭ
ti m
or d
Ġkh Ã³
Ġh áº¡t
Ġd ia
ĠÄĳ á»Ļt
Ġl Ã²ng
at es
á»Ĺ i
Ġch áº¿t
Ġx em
Ġth i
Ġvá» ĩ
o th
Ġco i
. <
Ġgi ai
m un
ĠĠĠĠĠĠĠĠ ĠĠĠĠĠĠĠ
Ġh áºŃu
ĠCh iáº¿n
á»£ i
Ġr iÃªng
i k
Ġ1 7
Ġtr Æ°á»Łng
Ġc as
Ġn Ã´ng
Ġnh Ã³m
Ġt uyáº¿n
ĠN inh
á»© t
Ġt Æ°á»Łng
) :
k in
ĠH á»Ļi
Ġng ay
Ġ/ /
i p
iz e
o v
Ġa r
Ġkh ai
Ġt uyÃªn
Ġb áº¡n
Ġn am
Ġc áº¥u
Ġkh Ã¡ng
į ng
Ġp er
ĠNh áºŃt
ĠÃ Ķng
Ġan ti
iáº¿ ng
Ġch á»©
ĠH iá»ĩp
Ġc Ã´
ĠÄĳ Ã¡
Ġl Ã¢u
ul ar
ĠH Ã¡n
Ġtá» ĵ
Ġngo áº¡i
Ġ un
ĠH áº£i
Ġph Ãª
Ġqu áº£n
Ġth is
ĠT á»«
Ġbe en
ic e
Ġ1 1
Ġg áº·p
Ġth anh
Th e
Ġcon t
ĠS t
Ġtu á»ķi
Ġf o
Ġm á»©c
ig n
M á»Ļt
Ġcom mon
en c
áº£ m
Ġh igh
Ġinc reas
Ġs ai
Ġb Ãł
an ce
Ġx anh
Ġtá»ĳ t
ag e
ĠX uÃ¢n
Ġh uyá»ĩn
Ġs uch
Ġa p
Ġn e
Ġ +
Ġng uy
Ġth áº§y
ĠN Äĥm
Ġc Ãł
ĠNh Ã¢n
Ġm áº¯t
ĠCh Ã¢u
Ġtá» ©
id e
lo w
Ġn iÃªn
Æ°á» ¡
ĠThe o
g r
ĠÄĳ em
Ġchu áº©n
Ġd u
Ġb ut
Ġnh iá»ĩm
Ġo ther
es e
Ġnh anh
ĠkhÃ¡c h
igh t
ģ m
Ġx áº£y
evel op
Ġnh áº±m
áº¹ p
Ġ Ã¡o
e ad
in d
Ġl ÃŃnh
Ġp l
v en
Ġb áº¡i
ĠT Ã´ng
ic k
ĠA ss
N Äĥm
ol og
á»Ļ n
Ãł u
Ġlu áºŃn
Ġo c
Ġth iáº¿u
o u
Ġn áº±m
Ġd ef
ĠX Ã´
en ti
ĠG Ã²n
ĠÄĳá»© ng
Ġch Æ°Æ¡ng
Ġngh e
ĠÄĳ áº¡t
á»« a
Ġnh áºŃp
is m
ĠQu ang
ĠÄĲ áº£ng
Ġtá»ĵ n
Ġm ed
ion e
ul t
Ġcau s
Ġ19 9
Ġt áº£
ĠvÃł ng
Ã© m
Ġg Ã³
Ġt iáº¿t
Ġb Ã¡n
iáº¿ m
Ġa i
á»ĳ t
Ġn áº·ng
Ġ '
Ġm odel
Ġd evelop
ĠA l
Ġmá» ģm
i ve
u d
erm ione
Ġtr áº»
Ġb iá»ĥn
if f
e al
Ġ1 4
Ġchá»ĭ u
á» Ľi
áº« u
Ġt iá»ĥu
Ġus ed
ter n
te in
ĠKh i
l am
Ġng Ãłnh
Ġx e
s y
Ġ19 4
ac ter
Ġtá» ·
Ġl Ä©nh
u al
p er
Ġch uyÃªn
ĠS Ãłi
m er
áº© u
ĠÄĳ Ã´
Ġch áº¡y
ay s
Ġb u
Ġm ost
Ġ áº¥y
Ġd uy
an c
t en
ĳ ng
Ng Ãły
lo at
Ã¨ n
Ġm áº¯m
Ġr au
Ġso Ã¡t
Ġhá» ıi
Ġm Ã£
Ġcas es
Ġ ung
Ġch uyá»ĩn
Ġc Äĥn
Ġ j
ĠÄĳ Ã´ng
Ġhá» Ĺ
Ġthá»§ y
1 0
l d
Æ°á»£ t
am in
Ġng Ã´i
Ġas s
ar g
Ġg hi
Ġ3 0
Ġm Ã¹a
Ġcom p
ĠÄĲ á»©c
Ġs uy
Ġr u
Ġtr á»¯
Ã¹ i
Ġ19 8
Ġb Æ°á»Ľc
ist ant
Ġc uá»ĳn
á»§ y
o id
Ġl á»ĩnh
Ġk Ã©o
Ġh áº§u
Ġkh á»Łi
k s
Ġho áº¡ch
ĠTh u
Ġs ho
Ġch á»įn
Ġtá»© c
ĠNg oÃłi
K h
w e
ĠP ar
Ġm an
Ġoc cur
Ġs h
Ġx Ã©t
Ġv ai
ĠT áº¿t
Ġo ut
Ġgiá» ĳng
Ġn Ã£o
Ġm áºŃt
ab le
Ġd á»ħ
Ġs c
Ġx a
ur n
ĠÄĳ Ãło
Ġd iá»ĩt
ĠÄĳ Ã¡ng
ĠTr Æ°á»Ŀng
Ġdá»± a
Ġr ed
Ġg á»ĳc
ĠÄĲ á»ĭnh
Ġ #
Ġ1 6
Ġch áº³ng
ear t
Ġv áºŃn
Æ°á»¡ ng
Ġh Æ°Æ¡ng
Ġch Ã¡
i le
r en
Ġtr áº£
ĠM al
H arry
c on
Ġd e
Ġnh iá»ĩt
Ġe ffec
is s
ĠÃ Ĥ
Ġt á»ĳi
ĠR on
Ġc á»±c
Ġch Ãº
ĠC Ã³
Ġng Ã´n
á»ĳ m
Ġd a
Ġc áº¡nh
I V
ĠNh Æ°ng
uá»ĳ t
Ġb á»Ļt
ĠU ser
if ic
Ġ uá»ĳng
ĠAss istant
Ġtr Ãło
I n
ĠvÃł i
ĠÄĲ á»ĵng
¯ u
Ġtr Æ°ng
Ġch áº¥m
á»ĭ p
ĠÄĳo Ã¡n
ÃŃ n
Ġch ild
ec t
Ġá»§ ng
Ġkh á»ĳi
ĠU n
Ġpro tein
ti s
Ġn á»¯
1 8
Ġl ao
oc i
Ġn o
Ġin t
Ġv ong
Ġs Ã¢u
Ġy ear
Ġth áº¥p
. "
Ġc Ã¡o
ĠL Æ°u
Ġcau se
Ġs ome
as t
Ġhá»ĵ i
Ġd áº§n
Ġqu anh
áº© y
un c
ĠÄĳ Ã¢u
Ġh áº¡
on d
Ġx á»Ń
Ġinfec tion
Ġph Ã¡o
ap e
ĠÄĳ áº§y
Ġm e
c er
Ġk iá»ĥu
Ġb uá»Ļc
ĠÄĲ iá»ģu
Ġs á»©
st em
ĠĠĠĠĠĠĠĠ ĠĠĠĠĠĠĠĠ
Ġinclud e
Ġc Å©
Ġb et
áº· n
is e
ĠV Æ°Æ¡ng
d uc
ĠÄĳá» ı
ĠD iá»ĩm
Ġs e
Ġhá» ¯u
at er
Ġthá» ķ
ĠM áº·t
m a
Ġd iff
ĠÄĳ Ã´i
Ġtr Ã¬
ĠB áº£n
ĠY Ãªn
ĠC Ã¡ch
Ġus e
n ow
Ġn iá»ĩm
Ġph Ã¹
Ġth ose
ĠÄĳ áºŃu
Ġkh áº£o
Ġkh áº¯c
2 00
Ġgi Ãłnh
Ġth Ãºc
uyá»ĩ t
Ġl iá»ĩt
Ġa ffec
Ġw ho
Ġh áº¡i
Ġa g
Ġr el
Ġv Ã²ng
Ġqu áº§n
ĠÄĳ Ãłn
Ġch áº¥p
Ġr ep
ı ng
Ġg áº¡o
Ã² i
Ġdia gn
ĠĠĠĠ Ġ
ĠÄĳ iá»ĥn
ĠPh Ãº
Ġ i
Ġn Ãºi
Ġh eart
Ġm a
áºµ n
o h
Ġho Ãłng
uch ia
amp uchia
or ch
Ġh iá»ĩp
ĠHu áº¿
i o
ĠD o
Ġ Æ°á»Ľc
Ġpr es
ĠNg Æ°á»Ŀi
ut e
r ain
Ġ Ã¡nh
Ġm áº¯c
Ġ Ã¡n
Ġtr Ã¡i
ĠÄĳ áº¿
l er
ĠTr á»ĭnh
am e
Ġm Ã´i
lam m
y le
Ġtr ans
Ġh iá»ĥu
Ġd Ã²ng
Ġth iÃªn
ti v
Ġv u
Ng uyá»ħn
Ġd ung
Ġph i
-------- --------
ĠC ampuchia
Ã£ y
Ġm Ã¬
Ġch Æ¡i
ĠKh o
i as
áºµ ng
Ġc áº¯t
re e
ac c
Ġlo w
á»± a
c ess
r itis
Ġl Ã¢m
ul d
ĠN áºµng
Ġlo Ãłi
ĠKh Ã´ng
Ġc ol
ĠPh Ãºc
r ess
Ġt Ã¡i
ĠNg Ãły
ĠH Ã²a
p os
Ġm áº·c
Ġx Ãºc
b ack
Ġo ver
Ġlu áºŃt
Ġco un
iá»ģ m
Ġph Ã¡i
Ġ{ \
ĠÄĳ Ãºng
ĠV Å©
ir st
Ġl evel
Ġn um
ĠH ermione
ĠI t
ĠT o
Ġdá»¥ c
p ec
ĠK inh
Ã¨ m
d is
it e
l es
Ġth áºŃp
n d
Ġc l
Ġt uyá»ĥn
ĠÄĳ au
Ġthe ir
Ġl áº¡c
ĠCh á»ī
ĠTh á»ĭ
ĠG ia
Ġw or
ĠCh á»§
Ġkh áº©u
s ize
ar i
N A
Ġ en
1 2
Ġtr áº¯ng
an n
eal th
G i
Ġs áºµn
ati ve
m e
Ġs up
Ġlo áº¡n
Ġn áº¥u
is h
ĠC ao
Ġ und
di tion
Ġá» ŀ
1 6
Ġlu Ã´n
er y
Ġt Ã´n
Ġch á»Ĺ
ĠÄĲ Ã¢y
Ġ am
Ġdo anh
Ġth áºŃt
Ġm á»ĳi
Ġn on
ap y
ĠT iÃªn
ic ations
ro p
Ġchiáº¿ c
Ġr et
Ġe p
Ġx Ã¢m
it ed
u ally
Ġk Ãª
Ġsy stem
ĠC on
Ġtr a
Ġs tr
Ġim mun
ĠH IV
Ġl á»ĳi
Ġsp ec
Ġs ur
om m
Ġt Ã´m
Ġg o
ĠTh is
Ġc Æ°á»Ŀng
Ġof ten
Ġcon s
ur ing
Ġ [
Ġg iáº¿t
r ed
Ġd ec
Ġ es
Ġs Ã¢n
ı a
Ġd áºŃy
Ġg á»ĳm
Ġh Ãłm
p ort
Ġ1 00
Ġt á»ĭch
v al
p ar
Ġf irst
Ġchild ren
er n
ati ng
á»Ľ p
Ġw ere
now n
Ġs kin
er t
Ġcell s
Ġb Ã¡c
r ic
c ul
oci ated
Ġtr á»Ŀi
ĠN áº¿u
Ġc Ã¡nh
Ġon e
ĠGi ang
s elf
Ġb om
ur es
o x
Ġtr á»«
Ġph ÃŃ
ĠÄĲ áº¿
Ġqu áºŃn
Ġg h
Ġthá» Ŀ
Ġgi Ã¡m
Ġb ec
Ġph im
Ġ Æ°Æ¡ng
Ġph áº¡m
ical ly
Ġthá» Ń
Ġch iá»ģu
á»į t
in al
Ġn á»ĳi
Ġng áº¯n
Ġfor m
S au
á» ¡
Ġkh Ã´
Ġx áº¿p
Ġf loat
Ġt uy
Ġm uá»ĳi
iáº¿ p
w ard
Ġp ain
Ġkhu áº©n
- >
Ġp ers
k e
Ġg an
ĠH Æ°Æ¡ng
i x
5 0
at ory
od y
á» µ
ĠÃĤ u
Ġth Ã´n
ĠĠĠĠĠĠĠĠ ĠĠĠĠčĊ
f ter
ĠK iá»ģu
Ġph Ã¡n
Ġ5 0
Ġd áº¥u
Ġx ung
Ġin v
omm end
Ġtr Ã¡nh
Ġ }
ĠT Ã¹y
eat h
g en
ĠNgh á»ĩ
Ġl á»¥c
Ġal l
Ġch Ãºa
ic i
em ent
Ġv áº»
ĠÄĳ áº£m
pl ay
Ġp os
Ġtr Ãł
Ġ1 3
Ġs ign
Ġwh en
ĠH á»ĵng
yp e
Ġr á»ĳi
Ġt ai
ar t
Ġs Ãłng
Ġkh Ã¡
Ġqu ay
á»Ľ t
Ġngh á»ģ
Ġchá»© a
p le
ĠK im
ĠHu á»ĩ
Ġs Æ¡
Ġp ol
Ġkh Äĥn
unc tion
Ġm Ã´n
Ġf ai
áº§ ng
Ġrec ommend
ĠTh áº¿
orm al
Ġm áº¹
Ġth yroid
Ġass ociated
Ġ up
Ġtu áº§n
Ġ20 2
Ġanti b
ĠH ai
, ...
Ġth iá»ĩn
Ġg r
Ġph á»Ł
st yle
las s
at ch
á»ĩ t
ĠB a
r es
Ġh áº¥p
Ġhá»į a
o k
Ġgi Ã¡p
Ġb Ã©o
Ġt áº¯c
Ã¢ ng
ĠÄĳ Ã¡p
1 7
Ġb áº¯c
Ġs ub
Ġd ue
Ġnh u
Ġng Äĥn
Ġv Æ°Æ¡ng
Ġt w
in es
ne um
Ġs uá»ĳt
ĠTh iÃªn
Ġ â
ĠÄĳ Ãªm
ul ts
Ãº n
Ġb á»©c
ĠT Ã¢n
ĠB an
Ġ âĢ
Ġd Ã¢y
dis play
ati c
Ġqu Ã¡n
display style
Q u
Ġt áº¡p
Æ°Æ¡ i
ĠL up
ĠÄĲ Æ°á»Ŀng
Ġc Æ°
Ġv Æ°á»£t
Ġm iá»ħn
Ġd á»©t
Ġ áº
Ġcoun tr
Ġthu áºŃn
op h
ĠL Ãło
á»Ľ m
n ess
Ġs uáº¥t
Ġt á»ĳc
Ġf act
ĠPh áº¡m
th ritis
ĠÄĳ u
Ġngh Ä©
Ġinf lamm
Ġv ÃŃ
Ã£ n
o b
c t
Ġtr Ã¹ng
Ġgi Ã¡c
ĠÄĳ ÃŃch
tic s
ĠÄĳ Ãłm
Ġnh á»Ľ
Ġth er
Ġtr á»Ļn
Ġth ere
ach ine
o ther
y l
ĠGi ao
lu re
Ã³ i
Ġt iá»ĩn
ĠS á»±
Ġh y
lo b
i e
p ut
o ur
Ġt áº¥m
we en
Ġh áº£i
ĠPh an
i um
Ġs ong
ĠQu an
Ġb rain
Ġl Ã²
am s
Th eo
ĠV Ã¢n
Ġngh iÃªm
ĠV iá»ĩc
Ġm al
ĠLup in
Ġth áº³ng
ĠnÃ³ ng
ĠÄĲ iá»ĩn
Ġ197 5
Ġund er
Ġvá» įng
Ġh Æ¡i
Ġm ua
Ġx in
ĠTr iá»ĩu
Ġk Ã¨m
Ġx o
Ġd es
s on
a w
Ġr Ãłng
Ġtr e
Ġk nown
Ġo p
Ġl Æ°Æ¡ng
y c
c al
i et
as s
ĠA r
Ġd eath
ĠPar is
ĠgÃ³ p
Ġm áº¥y
Ġthe y
d er
Ġl ead
Ġin ter
Ġ Æ°u
I D
Ġl y
ĠU S
ĠM achine
b et
á»Ń i
Ġb acter
Ġp ati
ĠĠĠĠĠĠĠĠ Ġ
Ġpers on
Ġt áº§ng
s or
o ugh
l ack
ĠÄĳ iá»ĩu
Ġs Ã³ng
ĠÄĳ en
ati tis
Ġn á»Ńa
Ġthá» «a
Ġb ÃŃ
ul ation
f ig
Ġch áº¯c
ĠTh am
ĠD u
Ġa fter
ĠcÆ¡ m
Ġl an
Ġret urn
Ġl ong
Ġd r
b le
r an
Ġyear s
Ġth áº£o
ai l
Ġb áº¯n
Ġch Ã¹a
Ġchiáº¿ u
Ġtim e
Ġp op
Ġin to
ac e
ĠL Ã¢m
Ġtr uyá»ĩn
ĠT á»ķ
Ġkh áº¯p
ĠPh ong
Ġab out
Ġth ro
Ġb Ã²
Ġpl ay
ĠB Ãł
Ġthá» ¥
Ġph a
Ġch Ã³ng
Ġc áºŃn
ĠM áº¡c
ĠG en
Ġx Æ°a
Ġlevel s
ĠÄĳ áº©y
« ng
Ġtá»ķ n
ron ic
Ġin d
ĠW ay
iz ed
vid ence
ĠH á»į
Ġc Ã¢n
Ġk áº»
Ġgi áº£n
ĠL an
Ġt Ãłu
Ġch Ãºt
Ġkh iá»ĥn
Ġr á»«ng
Ġc á»¥c
Ġch áº·t
it al
Ġbet ween
Ġs ev
Ġincreas ed
ĠWay back
Ġvá» ı
Ġs á»Ľm
Ġng á»ĵi
Ġfai lure
į c
1 4
ĠB áº£o
B Ã¡nh
t on
Ġt Ãłn
19 7
Ġv acc
Ġs m
Ġph áºŃn
Ġp o
Ġr em
Ġf ol
Ġg ro
Ġc áºŃp
Ġth Äĥm
Ġl áº«n
Ġchá»ī nh
Ġl á»Ńa
Ġe ar
ĠGi Ã¡o
Ġph á»ĳi
Ġtá»¥ i
Ġ áº©m
er al
Ġh el
Ġngh i
olog y
n am
Ã³ t
w ever
Ġn áº¯m
Ġon ly
Ġth ese
Ġb Ã©
ĠĠĠĠĠĠĠĠ ĠĠĠĠĠ
ĠchÃŃ n
Ġb áº§u
Ġph Æ°á»Ŀng
Ġqu Ãª
ĠB iÃªn
Ġt an
ĠthÆ¡ m
Ġc á»±
Ġho Ã¡
w n
Ġb á»ķ
Ġk iáº¿m
ĠPh á»§
ion s
) )
á» ·
Ġres p
m odel
Ġm áº«u
ti l
ĠÄĳ Ã²i
ĠÄĲ á»ĥ
as e
ev ice
Ġt ÃŃn
Ġk im
3 0
ar e
om en
us t
iá»ĩ ng
Ġt es
Ġ á»ķ
ĠB Ã¡t
k h
l ed
Ġqu á»µ
em ia
Ġfo und
ĠÄĳ Ãłi
Ġl á»Ļ
ĠÄĳá» ¡
Ġx Æ°Æ¡ng
Ġd Ãły
in s
d en
r id
ĠÄĳ áº¹p
i an
el s
Ġc áº§m
Ġth Ã´i
ĠÄĳá» £
Ġph á»©c
it amin
Ġt y
Ġn á»ķ
Æ°á»Ľ p
Ġe vidence
Ġk ia
Ġt Ã¹y
Ġ Z
Ġin s
Ġh á»§y
Ġtw o
Ġx Ã´i
ut ri
Ġnum ber
ĠC Æ¡
Ġre g
Ġl Ã¢y
Ġr ang
ĠL am
Ġs á»£
Ġtyp e
re ad
Ġv á»ĳn
Ġnh áº¹
Ġ2 5
ĠPh áºŃt
ĠN ew
on ia
il ity
Ġh ealth
Ġd áº§u
it s
t ype
ul ti
ro l
Ġ u
Ġ2 4
1 1
i ch
ĠÄĳá» įc
ĠH Ã³a
ĠNg á»įc
ation al
a z
Ġm Ãłng
Ġd á»ĭ
Ġdiff er
ĠV T
ĠNh iá»ģu
y t
Ġk m
Ġth iá»ĩp
ĠH Æ°ng
ĠÄĲ áº¿n
Ġl áº½
ĠPh Ã²ng
Ġk ÃŃnh
Ġn Ã©m
Ġb Ãły
m s
Ġth áºŃn
ĠT áº¡i
Ġb Ã³ng
Ġt orch
Ġhá»ĵ ng
ĠTh iá»ĩu
Ġsá»ĳ t
ol v
Ġsá»Ń a
ic ro
Ġtr ai
Ġd ep
Ġp neum
ĠTr Ãłng
ick le
Ġ `
Ġth Æ°á»Łng
Ġng Å©
Ġch a
Ġtr áº¥n
Ġlo ss
Ġkhá»ı e
ec k
Ġb ody
ĠĠĠĠĠĠĠĠ ĠĠĠĠĠĠĠĠĠĠĠ
Ã© n
Ġs á»£i
á»¯ u
b e
Ġmen ing
yroid ism
} }
Ġx áº¡
ĠI I
Ġn Æ°á»Ľng
Ġpro duc
ĠÄĳ Æ°Æ¡ng
ĠT u
x y
Ġtr uy
Ġg á»Ńi
Ġt Ã¡n
Ġl iá»ģn
Ġd et
Ġb iá»ĩn
Ġhyp oth
Ġ4 0
Nh á»¯ng
Ġs a
Ġs iÃªu
Ġt Ã¢y
Ġgi áº¥y
V iá»ĩt
ĠÄĳ áº£ng
ĠV Ã¬
ĠB lack
Ġx u
Ġth iá»ĩt
Ġd Ãłnh
Ġm iá»ĩng
al ity
Ġim pro
g an
Ġc á»©ng
Ġus ually
i ed
Ġvu i
Ġc ai
Ġg Ã¡i
o áº¡i
Ġh áº¡ng
1 5
Ġng ang
Ġph Ã¬
ĠS n
ĠA s
ĠK á»¹
g s
ĠchÃ¡ y
u ce
ĠUn ited
or n
Ġtr ao
Ġac id
c ular
Ãµ i
Ġ <
Nh Ãł
c ri
Ġd uring
Ġng on
Ġgiá» įng
Ġh iá»ĥm
Ġ Ã¡c
Ġ ur
Ġru á»Ļng
Ġnh á»Ŀ
Ġsev ere
Ġm on
Ġng á»«ng
Ã¡ u
c om
Ġm ai
ĠPh Æ°Æ¡ng
ĠÄĳ áº¡n
Ġl if
Ġtr Ã¡ch
enc y
Ġs áº¯p
Ġbu á»ķi
Ġman y
N D
Ġs Ãºng
Ġtr á»¥
Ġit s
Ġap p
Ġcá»ĳ t
Ġther apy
Ġtr á»ĳng
Ġgen e
ĠÃģ nh
Å© i
bet es
Ġt Æ°Æ¡i
Ġsho uld
ĠH áº¡
l and
Ġn áº¿p
em b
Ġx uyÃªn
Ġ ul
oh n
Ġg áº¯n
à ¸
ĠĠĠĠĠĠĠĠ ĠĠĠĠĠĠčĊ
Ġh áº¯n
Ġng á»«a
Ġdiagn osis
Ġ end
Ġdiseas es
f orm
Ġre qu
Ġap pro
Ġd Æ°á»¡ng
ic ation
ĠKho a
Ġl uyá»ĩn
iti es
Ġinfec tions
ĠTh Ã´ng
Ġbá»ĳ n
Ã£ ng
Ġb áº¡c
o y
ĠchÃ¡ u
o Ãłn
Ġv áº¡n
Æ°á»Ŀ n
ĠM ar
( )
? "
_ {
Ġqu ang
á»¥ p
ĠH á»¯u
ĠL áº¡t
Ġ6 0
Ġs er
ĠT á»Ń
ĠTh Æ°á»£ng
Ġs ec
Ġk Ãªu
ĠT Æ°
ĠS a
ĠD uy
ĠH á»įc
st r
Ġt Ã¡ch
Ġch Ã¨o
Ġkh Ãºc
Ġtr áº£i
ĠB Ã¡nh
Ġg á»Ĺ
Ġkh á»Ľp
Ġpr ess
Ġa ge
lo g
Ġred uc
Ġb á»įn
iti ve
Ġpre v
Ġcountr ies
mer ic
d ia
u di
Ġ ÃŃch
Ġth uyá»ģn
Ġk á»ĭch
Ġchá»§ ng
lu c
r it
Ġáº ¤
Ġm Ãºa
Ġch áº£y
Ġb as
ĠB áº±ng
Ġcaus ed
Ġth Æ°á»Ľc
at a
Ġin di
Ġc ent
Ġm áº¡i
Ġhel p
Ġpro gr
s p
Ġth áºŃm
ĠgÃ³ i
i tion
Ġc Ã¡n
Ġr o
Ġtho Ã¡t
Ġb Ã¡t
Ġch ronic
Ġf unction
utri tion
o un
Ġs ever
Ġng Æ°á»£c
au se
ep s
Ġl ik
Ġth Ã¹
Ġg áº¯ng
Ġc or
Ġtr Æ°Æ¡ng
Ġt Ã¹
Ġx á»©
C Ã³
Ġt um
ĠJ ohn
Ġthro ugh
ĠÄĳá»ĭ ch
ib le
Ġtr Ã²n
Ġt áº§m
Ġs im
Ġinclud ing
ĠlÃ£ o
Ġx uÃ¢n
Ġpres ent
ĠÄĳá» ģn
Ġc anh
ĠTr iá»ģu
Ġcaus es
Ġj o
Ġo b
i us
ĠL á»ĭch
le ar
in ical
Ġho Ãł
e e
o od
Ġth Ãº
Ġn ew
iz ation
Ġ id
Ġa ut
ias is
Ġm ain
Ġm Æ°u
ĠCh Ãº
Ġl Ã¢n
s h
Ġch Ã¨
Ġdec reas
Ġpress ure
âĢ Ŀ
Ġá»§ y
V á»ģ
Ġlá»£ n
Ġd inh
Ġtá» ı
Ġpneum onia
ro und
c k
Ġm od
as h
ĠÄĳ Ã¡m
Ġb Ãºn
ear ch
ne y
in ation
ĠÄĳá»© a
Ã¡ y
Ġ Ã©p
ĠT á»±
Ġh Ã¹ng
¦ y
ĠN Ã´m
Ġ Ã´
Ġch ua
Ġch áº£
19 6
Ġs ung
ĠL a
á»¥ ng
h y
1 3
Ġv itamin
Ġ |
Ġrecommend ed
ĠT uyÃªn
im er
ĠÄĳ Ãºc
ĠCh Ãºa
Ġac tiv
Ġch Ã³
Ġt á»Ļi
ĠKh u
r ent
oc k
Ġph ys
Ġcan cer
Ġ &
Ġth Ã¡c
i ous
Ġt uyá»ĩt
Ġd áº¡y
Ġc áº¥m
ĠT Ã´i
ĠI S
Ġres ult
Ġaffec ted
Ġne ed
Ġc á»Ŀ
vid ual
ad e
ĠThu áºŃn
Ġfol low
Ġph iÃªn
ĠPh i
Ġr ate
19 5
ĠSn ape
Ġl ess
Ġk Ã©m
Ġd Æ°Æ¡ng
Ġhá» ©
ĠÄĲ Ãłi
ĠL á»ħ
Ġs ickle
Ġtr Ã´ng
Ġg Ãł
Ġinflamm ation
ĠV Ãµ
Ġf lu
r al
Ġr á»Ŀi
Ġc Æ°á»Ŀi
au l
ill ion
Ġá» ¦y
am et
Ġtr Äĥm
ĠH ag
ĠÄĳ iÃªu
Ġkh Ã¡i
ĠCh Ãºng
B N
Ġb en
Ġimmun e
s et
Ġ á»ĳng
Ġb oth
Ġp sor
Ġvá» ¯
ĠCh u
Ġhypoth yroidism
Ġth ang
ĠMal ays
Ġkh uyáº¿n
Ġwor ld
Ġeffec tive
K hi
á»§ ng
á»¥ i
Ġh ad
n um
u le
Ãº y
ĠSt ates
ol ver
Ġwh ere
Ġh u
f er
Ġt áº£i
Ġt áºŃn
Ġch á»¯a
ĠTh á»Ŀi
Ġl inh
Ġch á»ĵng
ĠA meric
Ġá»ķ n
ĠHag rid
ĠM iá»ģn
Ġl á»įc
ile p
3 2
Ġhá»į p
he imer
ak e
ou th
Ġtr á»ĵng
as cular
ĠNh áº¡c
ol d
Ġdia betes
p or
Ġl am
Ġl áº¡nh
i ver
Ġng Ã¢m
ĠL ao
Ġf re
2 5
i er
ĠP ro
áº¹ n
Ġch áº·n
ĠH Ãłn
u ff
amp le
le y
ĠÄĳ Ã¨n
Ġs in
Ġw omen
nd rom
ĠV Ä©nh
Ġthu áº¿
Ġw ill
at t
ac qu
Ġdr ug
Ġru á»Ļt
Ġph Ãºt
n ing
Ġpati ents
Ġv al
ĠÄĳ á»ĳc
Ġkh á»ķ
Ġindi vidual
z heimer
ĠT á»ĳng
ĠV Ãło
oc oc
Ġm ong
Ġinv olv
Ġsy ndrom
ĠT am
áºŃ c
ĠV á»Ľi
Ġb i
Ġr ef
Ġqu Ã½
Ġac c
Ġch Ã©p
Ġmá» ¡
Ng Æ°á»Ŀi
ĠT iáº¿n
iet nam
Ġh Ãło
Ġs ug
Ġg luc
Ġ áº©n
ĠV Ãł
Ġh um
Ġo xy
in k
ĠUS D
Ġvá» £
a e
Ġgr ad
Ġ2 3
Ġlo g
Ġlu i
Ġch áº©n
Ġb á»ĵ
á»Ń u
T á»«
Ġb áºŃc
ĠD NA
Ġh Ãºt
Ġm Æ°a
ist ory
l n
Ãª nh
Ġmá» ıng
Ġng á»§
ĠN S
ul in
B á»ĩnh
ĠâĢ ľ
Ġn áº¡n
ĠV á»ģ
Ġlif e
Ġlo áº¡t
ĠF or
f t
iá»ħ u
Ġch Æ°ng
e an
Ġc á»Ļt
á» £p
Ġs á»¯a
Ġd á»įc
c l
en ing
Ġapp ear
Ġa v
ĠM áº·c
ĠB ÃŃ
or k
N S
ĠQu Ã½
Ġtr Ã¡ng
" )
ens ion
re ak
Ġl ang
ĠTr Ã£i
um b
on es
' ,
Ġkh áº³ng
ĠTh Ã¡nh
ĠIS BN
Ġl e
Ġch Äĥm
Ġg re
con fig
ĠH áºŃu
Ġm ulti
Ġn á»Ĺ
i re
Ġch á»£
Ġch áº¯n
Ġkhu Ã´n
_ _
enti f
Ġn inh
Ġ201 5
19 9
R on
er c
T áº¡i
Ġv áº½
Ġng á»įt
b um
Ġn ormal
Ġkh áº¥u
Ġm et
Ġwhi le
m ed
Ġch ang
Ġkh Ã³a
ĠM áºŃu
ly c
ub l
iss ion
Ġsm all
t iáº¿ng
u ro
Ġr Ã£i
Ġl ep
Ġcon dition
Ġfact ors
ĠC Ã¡i
ĠQ uy
á»Ĺ ng
ĠX em
Ġel se
Ġw ell
ĠÄĳ Ä©a
Ġlá» Ĺi
ĠÄĳu á»ķi
ĠĠĠĠĠĠĠĠ ĠĠĠĠĠĠĠĠčĊ
Th Ã¡ng
Ġfo od
Ġc lass
ur al
Ġph á»ķi
ĠV iá»ĩn
em ic
Ġl áº¯m
Ġx ong
if t
Ġ inh
ĠV ÃŃ
Ġac ute
ĠAl zheimer
Ġ )
Ġ2 8
C on
ĠÄĲ Ãło
ĠTr Æ°á»Ľc
ĠÄĲ á»ĳi
Ġb á»Ŀ
Ġkh Ã¡m
Ġng á»Ŀ
Ġt iÃªm
ĠÄĳÃ³ n
2 4
ur s
á»© a
ĠS c
Ġse iz
on s
ĠÄĲ á»Ļ
th ough
Ġ201 0
Ġn á»Ĺi
ĠTh Äĥng
all ed
Ġt Ä©nh
Ġf ever
Ġtho áº¡i
Ġn Ã©t
Ġincreas e
Ġb á»ģ
ĠC om
f ric
Ġng á»¥c
ĠTh á»§
om a
Ġcon tr
ĠGi Ã¡m
Ġnh áº£y
---------------- ----------------
ĠP et
ĠÄĲ inh
Ġch á»ķi
ec tion
Ġvá»¯ ng
Ġgi Ã³
ĠTh Ã¡ng
... "
ĠÄĳ Äĥng
in c
os s
ĠnÃ³ n
Ġm u
Ġnh áº¯c
Ġ9 0
he ad
Ġv ang
á» ŀ
á»¥ y
Ġhigh er
i od
Ġth Ã¡o
Ġnh á»©t
ar k
Kh Ã´ng
Ġtyp ically
ĠC á»ķ
Ġdis ord
Ġ8 0
Ġ196 8
Ġmed ications
Ġantib io
Ġsyndrom e
o und
Ġl uá»Ļc
Ġd á»ĭp
ti g
Ġpop ulation
ir al
l ine
Ġth iá»ĥu
Ġm áº½
an o
ĠTh ere
Ġpsor iasis
Ġ196 0
Ġc am
Ġc Æ°á»Ľp
ĠL Æ°Æ¡ng
Ġpr im
Ġ195 4
Ġl ai
Ġd Æ°
Ġs Ã³c
Ġt áº¡m
Ġt Ãłng
Ġm illion
ĠTh ese
r is
Ġth ree
Ġtr á»©ng
ĠlÃł nh
Ġtr Ã¹
ĠTr á»įng
ven tion
Ġm Å©i
Ġph Ã³
iv ers
( "
u Ã´i
Ġt Ã¢n
qu ent
Ġsp read
ĠL á»Ļc
Ng h
Ġh Ã´m
Ġm Ã¢y
Ġch á»ĳi
ĠB á»ĩnh
ĠG iá»
t al
ĠNh Æ°
Ġm Æ°á»Ŀi
6 0
l or
b ed
Ġt áº¯t
Ġph Ãº
i or
Ġg áº¥p
ĠmÃ£ n
Ġk á»ī
ĠM Ã£
ĠTr á»ĭ
ĠA d
ĠA fric
Ġpar t
Ġin iti
ĠH uy
Ġc Ãº
er ed
ĠL á»£i
ĠE x
Ġs w
Ġ2 7
Ġoccur s
acqu ou
Ġs áº¯t
I I
p ress
Ġan y
Ġbe ing
áº³ n
d r
Ġm á»Ļ
ĠHo wever
Ġ194 5
Ġdiagn os
f loat
Ġt Ã´
Ġs áº¡ch
ur y
Ġt iss
ĠÄĲ Ã´
Ġ á»Ľt
Ġt e
ĠL áº¡c
! "
a h
Ġv ar
Ġv Ã¢y
% .
ĠNh a
2 2
b s
x in
Ġ áº¥n
Ġch ar
Ġqu en
Ġcom pl
gn osis
Ġear ly
Ġt Ã¡
Ġc alled
ĠTh áº§y
Ch iáº¿n
Ġdo es
Ġme th
Ġrep or
ĠC á»Ńu
Ġar thritis
Ġm Ã¹i
ĠH á»ĩ
p re
Ġb el
ĠNh Æ¡n
Ġkho áº£n
Ġc Æ¡n
f ore
g i
Ġm á»Ļc
Ġd Ãłng
in ed
ĠTh á»§y
Ġep ilep
Ġ Ã¡m
Ġs ize
Ġpro ble
ic t
j or
Ġch uyáº¿n
Ġgi Ãł
Ġgi áº£ng
ens or
er v
or ld
ĠKh Ã¡nh
Ġtho áº¯t
ĠMalays ia
Ġl ung
Ġn Ãłng
Ġim port
Ġt erm
Ġv ari
ĠS á»Ń
re ct
ĠCh Ã¢n
Ġim p
od e
ĠL y
em ory
Ġad ults
Ġh áº³n
Ġhá» ģ
g es
an ts
im mun
Ġso áº¡n
Ġ197 2
Ġspec ific
ĠT iá»ģn
ĠS ir
Ġy Ãªn
Ġr á»ĵng
Ġk á»ĭp
ĠB Ãªn
2 7
Ġt Ã²a
Ġch á»Ŀ
ĠH á»£p
Ġsur g
Ġâ Ī
a x
ĠÄĲ oÃłn
Ġcommon ly
ĠÄĲ áº·c
ain ing
Ġtá» Ŀ
Ġinfec ted
Ġcar e
Ġth ÃŃ
Ġag ain
r ac
Ġsho w
o an
19 8
od ies
Ġth ao
Ġm in
ĠC uá»Ļc
i ly
in it
ĠC ro
ĠTh Ã¢n
at s
Ġel ec
Ġcont rol
Ġdi et
Ġtrans m
in a
Ġ2 6
Ġes tim
Ġpos s
v ing
Ġs Ã¡nh
Ġ20 19
Ġdes cri
L á»ħ
Ġm iáº¿ng
ĠTr Ãªn
Ġ2 2
ĠD i
ĠA c
4 0
ir on
Ġat t
d e
ĠA D
ul l
Ġl Æ°ng
Ġ195 5
Ġc al
Ġtr á»ĳn
udi es
C Æ¡
Ġg Ã³c
ab an
Ġflu id
tr on
Ġl á»±a
Ġh ead
Ġr Æ¡i
il ar
Ġtu á»ĵng
ĠJ acquou
e y
p r
Ġal bum
Ġb áºŃt
ĠKh mer
ĠÄĳá»£ t
áº¥ c
Ġgluc ose
Ġl Æ°á»£t
ar ge
m in
Ġc Äĥng
Ġtr Äĥng
Tr ung
Ġb Ã¢y
Ġ197 3
us ion
o i
Ġd áº¡
Ġ19 3
âĢ ¦
Ġcar di
Ġ ,
Ġth en
ĠA z
Ġben ef
Ġm á»ĩnh
al s
Ġma jor
ĠÄĳá»ĵ n
ĠO ther
ip p
u rop
Ġn Ã¢ng
H ermione
Th áº§y
Ġex pos
S á»±
Ġngh á»ī
Ġpr int
Ġb ia
Ġx áº¥u
Ġgen er
Ġk id
up us
áº¹ o
Ġpre gn
v ed
á»Ļ m
Ġthá» £
ĠX Ã£
ann els
ĠH iá»ĩn
ia tion
Ġcho ler
r ap
nh Æ°
Ġnh áºŃt
ĠS w
il le
Ġc Ãºng
ĠÄĳá» īnh
Ġchu á»Ĺi
Ġpar tic
Ġtá» ī
di tions
Ġ \
ĠT iá»ĥu
Ġ7 0
Ġid entif
Ġm eas
cul osis
á»ĭ a
ov ascular
enti al
Ġmening itis
Ġch áº¡m
ID S
Ġ2 1
ĠI f
f oy
Ġthá» ıa
ĠL inh
ro sy
Ġ. "
ĠSir ius
at ely
us e
Ġdis c
o immun
Ġng Ãłn
ĠV ietnam
Ġ201 2
Ġt Æ°á»Ŀng
Ġb Ãºt
Å© a
Ġkh ÃŃch
ag es
Ġtu ber
Ġb ang
Ġlá» ıng
Ġtr ÃŃch
Ġb á»¯a
Ġm áº¡c
Ġg u
ro ke
ph a
u tion
Â °
Ġng uyá»ĩn
Ġr Ã£
in ts
Ġprogr ess
o ver
Ġl Ã¡t
eas t
Ġd am
ĠM c
et y
ain s
Ġst ate
Ġsec ond
Ġwe e
Ġv áº¿t
ith er
qu e
Ġvacc ine
Ġlow er
A n
ĠM ai
Ġdeath s
Ġn á»ģ
le x
Ġmed ical
Ġam ong
l ay
ĠÄĲ áº¡o
ing s
ĠTh áº¡ch
ert ension
c ent
Ġl áº¡
Ġtr i
## ##
Ġt est
Ġb Ã£i
á»§ i
ĠC Ã´
Ġáº¤ n
ar r
ter oid
Ng oÃłi
n ay
Ġch á»«ng
Ġw ater
Ġpro vid
to k
ĠC ol
ĠTr uyá»ģn
Ġn em
Ġp at
ow s
ĠÄĳ an
Ġv Ãµ
á»į a
ol f
á»³ nh
olog ical
Ġkh á»§ng
id den
enc es
Ġh orm
ĠT áº¥t
Ġthá» Ł
ĠÄĳá»© c
Ġred uce
ish ed
Ġl a
Ġcon ditions
Ġcl inical
Ġhu áº¥n
± ng
Ġh Ã´n
ur rent
Ġpr ed
Ġbu Ã´n
ĠTo Ãłn
Ġprev ent
ĠÄĳ áº³ng
ir ed
Ġb áº¡ch
Ġn uÃ´i
Ġd evice
ĠH Ã¹ng
Ġ Ãł
ur ther
I A
Ġex per
ĠlÃł n
ĠS á»ĳ
ĠÄĳ á»ĳt
Ġl upus
Ġr ev
Ġbas ed
Ġ uy
Ġh Ãłi
Ġm m
ad d
Ġthá»ĭ nh
d ro
p s
Ġ %
Ġ Î
Ġv iá»ħn
ep t
. ,
Ġm áº¡n
Ġtr áº§m
ĠS inh
Ġbec ause
ar m
ĠÄĲ áº·ng
Ġdevelop ing
e ed
f ul
á»ī nh
ĠÄĳá» Ĺ
Ġb áº¡o
Ġm á»±c
th s
Ġad v
anc y
Ġsign ific
ĠVT V
Ġindividual s
h en
Ġhá» ıa
Ġres ults
Ã Ķng
Ġl á»¥
Ġgro up
P T
i ew
am es
Ġx Ãło
Ġch áºŃm
p tion
Ġl im
Ġare as
Ġdiffer ent
Ġe ach
Ġn Ãªu
Ġd á»ĩt
ĠB Ã¹i
Ġthu a
Ġcons id
Ġind ic
Ġs en
Ġd Æ°a
Ġvá» ¡
0 2
Ġc Æ°á»Ľi
Ġv en
Ġh iáº¿m
Ġt áº£ng
Ġl áº»
Ġeffec ts
z y
Ġrepor ted
Ġt iá»ģm
ĠÄĳ Å©a
Ġr ock
Ġex t
Ġ18 8
Ġagain st
Ġe v
Ġ z
Ġd á»«a
Ġcon f
ĠB á»ĵ
ĠW orld
ber t
ĠG e
ĠT Ã´n
Ġper iod
Ġbacter ia
x im
ĠC áº§n
uc le
i ev
á»Ļ p
Ġ198 9
ĠÄĲ Ã³
et s
l en
Ġd Ãµi
Ġp ot
Ġ200 5
Ġcol itis
Ġsignific ant
ĠM ed
ĠSw ift
Ġc áº·p
Ġm us
Ġs Ã´i
Ġhá»ĵ n
Ġ197 4
Ġ200 7
is ts
ĠM an
ĠTh á»į
oimmun e
Ġgi Ãłu
7 8
Ġa round
Ġinh ib
b on
Ġth ai
Ġb áº¥y
Ġng áº¡i
ÄĲ áº¡i
in u
er g
ĠC uá»ĳi
á»± u
Ġl Å©
Ġl Äĥng
ĠD is
p u
Ġ ed
ĠT ÃŃnh
tim e
Ġc Æ°Æ¡ng
Ġ201 4
Ġ201 6
L E
h an
+ +
eas e
Ġdevelop ment
ĠkÃª nh
o le
Ġth Äĥng
Ġb ack
ic s
Ġr áº¯n
2 1
Ġb áº£ng
Ġcáº£ ng
Ġtes ts
Ġcardi ovascular
b reak
Ġgi Ã²
Ġth iá»ĩu
Ġs ex
Ġwith out
Ġm icro
ĠMal foy
Ġk Ã¬
Ġb Ã¨n
ic ult
ĠG r
Ġres earch
at ure
9 0
C D
ĠÄĲ áº¥t
ĠCh iÃªm
4 5
ti t
Ġwe ight
ĠM Ã´ng
ud a
Ġins ulin
Ġc ong
Ġb re
ĠL á»¥c
Ġthu áº«n
á»ı i
0 8
Ġv Ä©
Ġmá» «ng
ĠW ar
Ġ195 6
h ay
m á»Ļt
ĠNg a
ĠIn tern
Ġ196 5
k y
is ter
Ġul cer
Ġepilep sy
Ġsim ilar
Ġc áº©m
Ġh Ã£y
Ġb Äĥng
Ġk iÃªn
Ġn ano
Ġ201 3
ub in
Ġelec tron
l oss
Ġcom b
n ormal
o ch
Ġch inh
Ġcá»± u
Ġh áº§m
Ġe ither
Ġchar acter
Ġg Æ°Æ¡ng
T uy
Ġl ay
ĠC Ã²n
Ġwith in
Ġst udies
Ġ200 8
he um
i ology
ĠÄĳá» ±ng
ĠP ol
ĠÄĳ Ã¡o
Ġb á»ģn
Ġin j
Ġor gan
ik a
Ġhá»Ĺ n
Ġv Æ°á»Ŀn
Ġ201 1
Ġtá» ĩ
ch an
ĠB r
ĠD umb
ind ows
Ġtuber culosis
Ġl áº¯ng
Ġh ang
yp h
led ore
Ġantibio tics
Ġth áº£
Ġd ays
Ġhá» ķ
Ġh áº¹p
2 3
om in
Ġvá» Ł
it ch
il ir
Ġpo or
ĠDumb ledore
ilir ubin
C N
H o
N G
S H
ĠTh á»±c
Ġ200 9
m an
Ġch e
Ġtr Ãº
ĠS á»Ł
Ġus ing
gr ad
p o
Ġm á»¹
Ġngh Ã¨o
Ġc u
Ġ2 9
og lyc
Ġdam age
Ġx Æ°ng
Ġ195 0
Ġv e
f or
Ã¨ ve
ĠGen Ã¨ve
Ã ģ
Ġad dition
Ġth Æ°á»£ng
Ġb á»ĳi
Ġm Ãły
Ġph e
ĠTh Æ°á»Ŀng
ch annels
ar thritis
ĠÄĲ á»Ļng
Ġ197 9
c us
ĠÄĳ e
Ġd á»įa
ĠC Å©ng
al e
ar ed
ple ment
ail able
âĢ Ķ
ĠIn d
Ġ200 6
Ġc á»¡
Ġl iver
ĠM á»Ĺi
ĠTr Ãł
amet ers
Ġp ubl
Ġwor k
Ġ201 7
Ġ199 0
Ġ ent
ĠÄĲ á»ı
Ġs Ã¡u
ĠTr Æ°Æ¡ng
Ġgen eral
Ġhyp ertension
i ally
Ġth áº£m
Ġho áº£ng
c in
Ġv áº£i
Ġm Ã£i
Ġvá»ĭ nh
Ġ198 0
Ġchang es
Ġch uá»ĳi
ert ain
n utrition
Ġo ld
ĠPh Ã³
om as
Ġaut oimmune
i ence
Ġch áº½
ĠT áº¥n
ĠL á»±c
oc iation
Ġhum an
i ent
v es
ĠÄĳ iá»ģn
ĠÄĳá» ĩ
Ġx ÃŃ
ĠÄĳá»ĵ i
d evice
Ġd erm
Ġb Ã¡
ab ility
ĠNgh á»ĭ
E S
ĠTr Æ°ng
Th Ãłnh
ĠS Æ°
Ġout break
Ġd ai
re w
ĠK iáº¿n
C uá»Ļc
k aban
Ġn á»ĵi
ĠGi Ã¡p
Ġphys ical
ĠAz kaban
Ġs ing
am pl
ici ency
Ġ áº¥p
Ġs á»ķ
id d
st eo
Ġtiss ue
Ġt am
ÄĲ á»ĥ
Ġtho ugh
Ġsever al
ivers ity
w ar
Ġb Ã³
Ġb uá»ĵn
Ġtyp es
ĠC an
B áº¯c
Ġd Æ°á»£c
Ġr ates
ĠV ua
par ams
ĠTr Ã¡i
re g
Ġ197 0
Ġhorm one
k v
2 6
V iÃªm
ĠC áº£
Ġgi áºŃn
ĠE urop
Q uÃ¢n
Ġng á»±a
iáº¿ c
ĠL u
ro w
ai r
Ġseiz ures
V iá»ĩc
Ġsh ort
ĠAmeric an
b ers
Ġt ia
ĠTh á»ĳng
Ġho ang
ul es
Ġbe fore
Ġn áº¥m
Ġn iá»ģm
ĠH Ãłnh
ell a
uc t
Ġestim ated
Ġh ep
Ġb Ã´ng
ĠB Ã¡
Ġlá» Ĺ
Ġpro cess
Ġlep rosy
Ġs ame
Ġd uyÃªn
ĠL áº¡p
re at
ad er
Ġh and
ĠS y
" "
e b
Ġ ill
Ġl áº·p
Ġngh Ã¬n
Ġwe b
Ġne uro
Ġsign s
Ġjo int
Ġdrug s
yph il
į t
th e
Ġ ion
ĠT Ã´
re am
á»ı ng
Ġvu Ã´ng
Ġgene tic
Ġng u
ĠPh Ã¢n
Ġchu á»Ļt
Ġcholer a
A R
Ġv áº¯c
Ġph u
ac ts
ho áº·c
kh Ã´ng
Ġcompl ications
v iron
Ġnh uyá»ħn
on se
ĠS h
Ġ20 20
Ġpro t
2 8
b o
Ġf l
Ġ7 5
T V
ĠÄĳ Ã¡i
Ġthe m
Ġs Ã³t
re l
ĠD ia
Ġlá»¥ a
ĠC l
ĠTh á»«a
ĠNg ay
Ġ201 8
Ġm Ãłn
ĠA i
ag ement
og rap
ĠNgh Ä©a
ĠÄĳá»£ i
n orm
r ab
ĠL Ãºc
Ġof f
Ġfollow ing
V Ãło
ĠNg oáº¡i
0 5
ĠCh Ã¨o
Ġb áº£y
ĠC áº§u
Ġtre ated
g in
in f
Ġl áº§m
Ġf am
Ġtr áº§n
ĠC D
it er
ĠCh Äĥm
Ġta k
ud y
Ġfre quent
o ve
Ġs et
Ġng á»įn
he a
Ġc áº£n
Ġh istory
Ġho wever
Ġsurg ery
Ġwee ks
Ġ >
ĠB áº¡ch
Ġor ig
Ġst ep
Ġres ul
C P
Ġc á»ı
Ġg lob
en e
ĠL ai
Ġ2 000
C O
Ġb all
Ġnh á»ĭp
ik e
steo arthritis
Ġn Ã¢u
Ġph Ãºc
Ġgi Ã¡n
ter m
Ġc Ã¡t
ĠT Ã¡c
á»ĭ t
Ġin tr
ĠS ome
Ġmá» Ŀi
uc k
ĠAfric a
Ġinhib it
Ġg et
Ġgi Æ°á»Ŀng
at al
ĠP re
ĠS Ä©
Ġng á»Ļt
ĠÃ ļ
other apy
c um
Ġc ua
Ġm Ã¨o
ĠT Æ°Æ¡ng
Ġt áºŃt
Ġ197 8
Ġde fec
Ġproble ms
Ġl áº·ng
ĠH iáº¿n
is ed
ĠÄĲ a
Ġlik ely
^ {
Ġs á»¥p
ĠÄĳá» ¥
Ġho sp
ĠK áº¿t
igh ts
ort ality
Ġbacter ial
ĠVT C
Ġdet erm
Ġtum ors
Ġm Ã¡i
Ġk ÃŃn
ch ed
ĠÄĲ Äĥng
Ġgi am
r a
Ġb á»Ľt
Ġd em
Ġnh áº¥n
Ġr un
ĠÄĲ á»ĭa
og lob
Ġproduc tion
Ġl arge
Ġkh Ã´i
Ġ18 6
Ġ :
Ġr áº½
ĠPh áº§n
áº« m
Ġmon ths
ĠGe or
Ġ á»©c
ĠE n
Ġiniti al
t á»©c
ĠC ar
ĠNh o
Ġ5 00
yphil is
5 00
Ġm áº·n
tern al
pec ially
viron ment
u es
Ġl Ãºa
Ġd Ã¢ng
p id
Ġph Æ¡i
Ġimpro ve
V N
Ġb Ã¹ng
ĠCh iÃªu
Ġly m
Ġresp onse
Ġhosp ital
ĠCh áº¿
Gi Ã¡o
Ġdep end
Ġprim ary
S t
c Ã³
tim es
ĠZ ika
l ad
Ġv á»Ļi
Æ°á»Ľ t
ĠG ry
ff ind
Ġpol o
Ġkid ney
ĠGry ffind
C Ã´ng
Ġt Ã³c
Æ°á»¡ i
v ÃŃ
Ġ ?
Ġt ÃŃ
Ġch im
ĠN Æ°á»Ľc
% ,
Ġs us
Ġh Ã´
Ġnh Ã¡nh
ĠĠĠĠĠĠĠĠĠĠĠĠĠĠĠĠ Ġ
Ġpol y
oun t
ĠGryffind or
ĠÄĳ áºŃm
Ġng Ã¢n
Ġx ay
ch n
Ġgi Ã£
ic a
ĠK iá»ĥm
ĠW indows
Tr Æ°á»Ľc
d im
Ġv ery
Ġs Æ¡n
c op
Ġm Ã©t
o ung
Ġb Ã¡ch
ĠN one
Ġgi Ã²n
ĠB ÃŃnh
ĠĠĠĠĠĠĠĠ ĠĠĠĠĠĠĠĠĠĠčĊ
ĠY ork
ici ent
5 2
ro s
Ġxo ay
Ġh Ãł
ti al
ĠH Ãłng
ĠM áº¡ng
au nd
Ġ3 1
Ġfact or
Ġh iá»ĥn
ĠCh o
áº» o
yt es
ĠCh i
ĠG o
Ġfo ur
Ġantib odies
Ġinflamm atory
Ġmeth od
Ġc m
Ġch á»¥c
Ġto tal
Ġcá»§ ng
Ġf urther
ol ic
ag ing
Ġtu á»ĩ
Nh Æ°ng
Ġ áº¥m
Ġr á»Ńa
Ġlo Ã©t
ĠU N
V á»Ľi
Ġl east
Ġh em
Ġk Ä©
em a
Th á»Ŀi
ho id
Ġdevelop ed
aund ice
H O
Ġd el
Æ°á»Ł i
Ġtes ting
m emory
Ġ ...
Ġh e
ys is
Ġbec ome
Ġrequ ire
d a
l ing
Ġv iral
Ġd Ã¡ng
ĠT B
ĠG u
ĠGi ai
Ġtum or
A T
Ġgro w
Ġ( "
Ġtá»ĳ n
kin son
o ol
o ks
Ġng á»£i
ĠPh il
ĠE ng
Ch ÃŃnh
3 5
Ġt Ãºi
Ġph á»ıng
en ic
Ġf ive
Ġab normal
Ġtreatment s
Ġsug ges
Ġt Æ¡
Ġc ertain
Ġtr eo
Ġn á»ĵng
Ġd ao
Ġa x
ĠH ealth
ĠTh áº§n
ĠS outh
iv ing
Ġrep l
Ġen zy
Ġconsid ered
Ġc Ã£i
.. ..
Ġal though
Tr áº§n
Ġcont act
0 1
ÄĲ á»ĳi
oc ial
Ġpre val
d om
or r
og n
Ġhyp oglyc
Ġpartic ular
Ġth áº¯t
2 9
l a
ĠC Ã¡t
ate g
ĠO r
ĠTu á»ĵng
Ġhá»© ng
c ell
Ġ Æ¡n
Ġd Ã£
Ġd Æ°á»Ŀng
ĠP D
Ġ200 4
aul t
Ġav ailable
n er
ĠT Ãłi
in ary
ĠÄĲ Ãłng
ĠÃ Ķ
ron ch
Ġt ung
Ġc áº¥t
Ġn á»Ļp
ĠH y
re t
ur g
um e
Ġd áº¡i
Ġqu Ã¡t
Ġgi ang
Ġst udy
pro j
m m
Ġm Æ¡
Ġm ortality
Ġme chan
Ġdiff icult
Ġexpos ure
Ġm Ã¡t
Ġph áº«u
ĠV áº¡n
at or
Ġ3 00
Ġ196 9
ĠL áº¡ng
ĠL Ã£o
ic ial
ĠCh Æ°Æ¡ng
tr ans
i el
Ġs u
Ġd áº¹p
Ġph áº¿
C R
Ġb ilirubin
Ġd Ã²
ĠT Ä©nh
ĠTh iáº¿u
Ġex erc
sy ch
8 5
Ġng Ã³n
me an
A l
ist ance
Ġ202 1
Ġ å
Ġ Æ°a
ĠÄĳ áº¥y
Ġg áº¡ch
ĠÃĤ m
' )
Ġc áºŃu
ti tis
ĠKh Ãª
Ġsho wn
Ġpati ent
Ġp ass
ĠÄĲ á»ģ
n Äĥm
Ġr Ã¡n
ĠÄĲ áº§u
ens ive
ĠÃļ c
n o
r ate
Ġt áº·ng
ĠTh Æ°
Ġe ff
Ng uyÃªn
Ġdi rect
Ġgre ater
3 7
Ġs ide
am ine
heum at
ĠR A
ĠR es
į a
ĠT CN
Ġng Ã³
ĠB á»Ļi
ĠUn iversity
Ġd Ã£y
ĠP ot
las ma
N áº¿u
v ers
Ġt arg
Ġch á»¥p
Ġd á»«ng
Ġto p
Ġe ven
ly ing
Ġmed ication
Ġen vironment
Ġactiv ity
Ġgener ally
Æ°á»£ n
es is
ef ul
Ġ áº£o
Ġch Ãłng
ĠT iÃªu
ap p
ix on
Ġmus c
P M
Ġc á»ĳi
Ġs áº»
Ġtr Ãłng
Ġr Äĥng
ĠR o
Ġex p
Ġposs ible
Ġp anc
ĠN e
ĠN ixon
ĠKho áº£ng
Ġulcer ative
t orch
Ġc ult
om y
Ġt Æ°á»Ľc
Ġh áº¡nh
ĠL oan
Ġho áº¡i
ĠNg Å©
ĠD Ã¹
Ġfor ward
we ight
til l
Ġm áº£nh
er o
Ġx Ã³a
em ber
Ġac ts
ill i
Ġjo ints
Ġsin ce
ĠNS ND
Ġm ade
Ġsup port
Ġhy dro
Ġl áº¥n
le c
Ġref er
Ġn ec
Ġblo ck
ĠMc G
3 8
Ġl Æ°á»Ľi
Ġb Ã³c
Ġm Ã²n
ĠS Ã¡ch
Ġtrá»« u
Ġh Ã¨
Ġb á»įc
Ġn á»Ł
iv ed
Ġth Ã¡p
Ġb Ã¹
iz es
Ġaffec ts
Ġrang e
l i
if ied
d Ã¢n
Ġl Ã´ng
Ġm ild
Ġnh o
ĠTr eatment
ĠS LE
ĠPh Æ°á»Ľc
ĠPh Ã¡t
Ġcent ury
ococ cal
7 5
r im
ia c
id el
pre v
Ġb á»¥ng
Ġq uyá»ĥn
Ġlead ing
Ġlik e
d p
Æ ¯
ĠÄĳ Ãł
ĠC IA
c ers
{ \
Ġb Ã¨
Ġac tive
3 9
m as
Ġch áº¥n
ĠL ang
Ġgh Ã©p
ul f
Ġes pecially
b atch
d ec
ĠC a
g er
Ġm il
Ġal low
Ġon set
ĠO n
Ġhá»© a
Ġpregn ancy
A S
l ike
iev ed
0 7
Ġs Æ°u
Ġep id
A D
âĢĿ .
h n
Ġl áº§u
Ġb ir
Ġb ronch
ĠT Ãªn
ĠÄĲ á»Ĺ
ic es
Ġi od
Ġill ness
Ġc ap
Ġf ib
ev ille
Ġ4 5
Ġsy n
ĠÄĳÃ¡ y
ific ation
ĠC Ã¹ng
ĠH áº§u
Ġx Æ¡
ĠM Ã¬nh
th Ã¡ng
ĠNh áº¥t
ÄĲ áº¿n
ĠHÃł m
Ġtho Ã¡i
Ġch iÃªn
Ġan im
ol ution
ÄĲ Ã¢y
Ġst roke
t y
ĠP ress
Ġhá»Ļ p
Ġpres ence
Ġdisord ers
Ġn ucle
Ġd Ã¡m
ĠT Ã¬nh
Ġph áº¡t
ĠG al
/ /
Ġm iÃªu
Ġqu ality
ĠX iÃªm
oglob in
Ġng á»±
Ġo steoarthritis
Ġ3 5
ĠJohn son
Ġtransm ission
p ir
Ġt iá»ĩm
ng th
Ġth Ãªu
Ġn áº¯ng
Ġqu Ãł
ĠQ uyáº¿t
áº« y
ĠÃ Ŀ
Ġ Æ¡i
Ġqu áº£ng
ĠTh áº¥t
ain ed
ÄĲ ND
Ġrel ated
Ġm Ã¢u
ĠL e
ad a
Ġimport ant
Ġkh uyÃªn
Ġtá» įa
Ġj aundice
Ġm Ãª
ĠH Ã¬nh
ĠA IDS
Ġex ample
" :
ĠPh ÃŃa
ĠI B
Nh iá»ģu
Ġtim es
Ġl iá»ģu
tr ong
m ath
Ġ ir
Ġ ?"
Ġtr eat
Ġp ath
on ag
ti b
Ġ" ""
Ġmal nutrition
Ġsever ity
Ġch áº£o
Ġng á»įc
Ġd Ãłn
Ġkh áº©n
Ġy oung
Ġkho ai
hi le
Ġinc id
Ġoxy gen
Ġnh á»ĭ
Ġr áº£i
Ġgi áº¥u
Ġtu Ã¢n
Ġ194 6
G iá»
Ġm uc
Ġtr act
ĠT SH
Ġ197 1
Ġ196 4
Ġtyp hoid
Ġ202 3
onag all
Ġh áº£
id es
ĠHo Ãłi
Ġ18 9
ov irus
0 9
f il
Ġb á»Ĺng
Ġ202 2
Ġch anh
ĠE d
M á»¹
Ġgi áº·c
ĠNg hi
Ch eck
Ġprint f
ĠM á»¥c
ĠD e
Ġcomp le
Ġrev iew
s pec
Ġt áº§n
ti ous
Ġgi áºŃt
Ġgiá» ıi
id ual
Ġsing le
0 4
d o
Ġqu Ã©t
us tr
th ers
st ep
Ġper form
Ġreduc ed
L Ã½
d ef
Ġd ys
ĠT á»ĳ
ĠA I
Ġcountr y
Ġdiagnos ed
ÄĲND VN
E T
u k
Ġt áº¿t
ĠM icro
Ġth áº¡ch
Ġl in
ĠT Æ°á»Ŀng
Ġx áº©m
ent al
ens ors
iv al
Ġcomp ared
O R
r ing
Ġm áº£ng
Ġph ot
en n
arg s
Ġv is
Ġl ack
Ġm ake
ver y
Ġdescri bed
Ġk g
er ation
ĠTh Æ°Æ¡ng
Ġor al
Ġcas e
V Äĥn
Ġb áº¿p
con t
Ġl á»ĵ
Ġtr Ãłn
ĠÄĲ Ã´n
st art
ord ing
ĠGeor ge
D o
t a
Ġd uyá»ĩt
Ġng áº«u
Ġin put
Ġf ew
od ule
Ġrec e
Ġdecreas ed
i ot
lo ck
tr ib
H ai
Ġ Â°
Ġd á»Ļi
au s
Ġm áº§m
Ġs an
ĠV iÃªn
Ġx á»©ng
ter s
yc l
xim ately
H á»ĩ
b da
Ġ Æ°á»Ľp
Ġl á»ĵng
Ġch est
Ġs till
as tr
ĠQ ÄĲNDVN
Ġra di
pec ted
sh ape
Ġth áº§m
ĠG iÃªng
Ġor der
ep h
Ġst eps
Ġme an
0 6
Ġqu Ãªn
Ġgi ven
ĠTh Æ¡
ĠTh á»ĥ
ro ph
Ġb á»Ļi
Ġk áº¹o
ch á»¯
ho áº£ng
Ġ17 8
Ġbet a
Ġaffec t
p y
ĠÄĳ iÃªn
Ġg land
ĠD PM
Ġco ur
Ġpar ams
Ġno ise
ĠMcG onagall
Ġm ark
on t
Ġtá» ıi
Ġcon fig
Ġb ias
em ents
Ġthu áº§n
Ġnh Ä©
Ġf ind
Ġ197 6
T ÃŃnh
d ing
Ġ est
Ġc ris
Ġp ul
ĠC am
ĠV inh
ĠB Ãłi
ĠL Ã£
Th ere
ph ther
Ġsa f
Ġmechan ism
Ġth Ã¡nh
Ġkh á»ķng
ro up
d ata
f n
Ġ á»ĳc
Ġth a
Ġb Ã¬
Ġng Æ°á»¡ng
er a
ĠTh Æ°á»Łng
Ġcar ri
Ġconf ir
0 3
Ġt áº£n
ĠA S
Ġinf lu
Ġth áº£i
Ġg olf
ĠM Æ°á»Ŀng
Ġf il
est inal
Ġdef iciency
7 7
ĠÄĳ iá»ĩp
Ġng áºŃp
ro duc
lo c
Ġc á»ĳng
Ġl ast
p ath
ĠTh á»ķ
ĠTh iáº¿t
Ġe val
Ġsome times
' :
ĠT á»Ľi
al se
Ġcol on
Ġbre ath
Ġlym ph
Ġm g
Ġm y
Ġk iá»ĩt
ĠD ung
Ġst at
R I
Ġ Ï
Ġt em
Ġc ir
Ġg á»įn
ones ia
3 6
c lass
ĠThe y
amet er
Ġcontr ib
Ġs yphilis
ĠT á»¥i
ĠS ch
st e
Ġ196 3
Ġcont inu
heumat oid
N am
c es
Ġs Ãłn
Ġhá» ıng
med i
Ġc lear
Ġl eo
Ġh áº±ng
ĠX uyÃªn
ĠâĪ Ĵ
D anh
` .
Ġth áº©m
Ġl ink
ĠJ ames
Ġv áº¹n
Ġs ens
Ġtr ial
Ġcaus ing
Qu an
Ġdisord er
++ )
T Ã´i
Ġl as
ĠG PT
Ġc re
al es
ma x
lay ers
Ġg ai
ar ia
ĠD áº¡ng
st ream
Ġcá»¥ m
Ġngu á»Ļi
L Ãª
w ay
Ġm ak
Ġch em
Ġtr áº¡i
al pha
ĠS o
Ġsup plement
Ġro le
Ġderm atitis
ĠDia gnosis
Ġhypoglyc emia
4 8
ĠR NA
ef t
t le
Ġm outh
ĠInd onesia
Ġ enc
áº¿ m
Ġan other
hi p
ell ing
Ġmulti ple
Ġm Ã¹
Ġx á»ī
ĠB Ã¡c
Ġw he
ĠI s
Ġ3 6
ere b
Ġform s
ĠC á»¥c
ti de
ĠHo g
iz er
Ġc ay
Ġh idden
Ġtr iá»ĩt
Ġng á»Ļ
ĠC á»¥
ĠL oáº¡i
ĠK ÃŃnh
eck po
ococ cus
1 00
Ġc urrent
Ġto k
ĠA p
war ts
C T
ĠÄĳ áº¯p
Ġv Ã´i
ĠÄĳá» Ľi
ud ge
Ġs al
Ġnh á»ĵi
Ġf ree
ec tive
Ġel ev
Ġr á»ĩt
ĠIntern et
] .
Ġnh iÃªu
Ġdecreas e
ĠHog warts
Ġh Æ°
Tr Æ°á»Ŀng
Ġincid ence
phther ia
Ġh Ã£ng
Ġm emb
Ġch Ã©n
Ġs k
Ġlá»ĩ ch
Ġsh ape
w ide
Ã Ķ
Ġc áºŃy
ĠN or
Ġx Ã¡
ĠPh Ã¹
Ġdis t
Ġco uld
ment s
ph al
so ft
Ġunder lying
7 0
re c
á»Ľ n
Ġ6 5
eo f
H Ãł
Ġm á»¥
Ġkh ung
Ġr ash
ĠV áºŃy
ĠTr ÃŃ
Ġas ser
ĠF udge
Ġar gs
Ġsin us
Ġm á»©t
Ġx Ã³m
Ġmá» ıi
Ġ5 4
Ġst ar
y lo
ĠT á»Ļ
ĠC Ã¢u
ĠH en
Ng ay
Ġse en
A N
] ;
c uda
y ing
Ġd Ã¢u
Ġd ata
Ġvá»ĭ t
ĠPh á»¥
áº± n
ut ed
iti ng
ĠF r
Ġac t
mon ary
Ġcor tic
Ġm á»ĩt
ĠH Ã£y
un k
Ġc á»ķng
Ġv inh
Ġm iáº¿u
Ġpro b
oc ab
% )
Ġ er
Ġ ong
Ġt iá»ĩc
Ġl ip
Ġm ust
Ġd Å©ng
Ġtá» ıa
Æ°á»Ľ u
ĠD á»ĭch
ĠI C
ĠtÃŃ m
Ġbir th
C Å©ng
Ġc lu
Ġn ow
iá»ģ ng
ĠTh Ãºc
Ġhá»į ng
Ġmá» ı
âĢ Ĭ
Ġar ter
Ġpos itive
Ġbenef it
Ġpreval ence
Ġv ect
Ġl ater
Ġh is
ĠC áºŃp
al ysis
ĠÄĲ á»Ļt
ĠA t
Ġeffec t
iel d
7 6
Ġm á»ĳc
Ġtr á»«ng
on al
ĠC áº£nh
ĠM Ã´
ir d
ÄĲ iá»ģu
7 9
S inh
d ate
Ġt end
ng ue
ĠÄĳ áºŃp
ĠH á»ĵi
ĠS ing
ĠX uáº¥t
Ġfrequent ly
Ġt Ã¡m
Ġng áº§m
ĠÄĲ á»Ļc
ĠTh á»©
ĠĠĠĠĠĠĠĠ ĠĠĠĠĠĠĠĠĠĠĠĠĠĠĠ
ĠKh Ãºc
ce p
ĠW eas
Ġcá»ĳ m
Ġrec ept
Ġincreas es
Ġgo ats
ĠÄĳu Ã´i
Ġpot ential
lad der
Ġexerc ise
Ġth Ã¡ch
Ġs Ã¡p
Ġng Ã´
ĠH istory
ĠTh áº¯ng
Ġare a
ĠC ai
ĠC Ã´n
ĠÄĳÃ£ i
st ate
ĠIn dia
Ġha em
Ġur ine
195 4
Ġr áº¯c
Ġr áº¡n
ĠL Ãłm
Ġho urs
Tr Ãªn
Ġhyp er
Ġma x
ĠCan ada
( &
Ġr en
Ã¹ m
as ed
ĠWeas ley
3 4
U L
] ,
Ġb Ã£o
Ġun til
Ġ+ =
" );
( (
C ho
Ġc y
Ġtr á»¥c
ĠB Ã¡ch
ĠTr ang
ĠA b
iti c
Ġha ving
ritis h
ran e
P S
U T
f rom
Ġkh ÃŃa
Ġr out
ab or
Ġ9 78
ari ly
Ġexper ience
illi am
% ),
M al
V TV
r u
Ġv áº¯ng
Ġb Ã¨o
Ġd áº»o
os teroid
ess ion
ati v
ath er
Ġspec ies
han ks
ES CO
oks hanks
Ġmusc le
Ġasser t
Ġh er
Ġnh i
is tr
ac tive
Ġsur v
à º
Ġl eft
Ġb á»¥i
Ġkh Ã³c
er ate
Ġcom mun
ĠcÃº m
Ġo thers
ĠL Ä©nh
Ġe qu
Ġcour se
B Ãł
Ġv ess
Ġn ung
et te
Ġe very
ery th
Ġfloat X
be ak
-------------------------------- --------------------------------
uck beak
ĠN o
en z
ĠM a
th Æ°á»Ŀng
Ġtá»¥ y
Ġgo ver
ĠAr ch
ĠPhil ipp
H g
s tit
Ġ amin
Ġr Æ°á»Ľc
ĠH iá»ĩu
ĠX Æ°Æ¡ng
ĠAss ociation
Ngh á»ĩ
Ġt Ãºc
om ic
ĠW ood
Ġab s
197 5
A M
T T
r t
Ġl es
Ġl Ã¡ch
Ġkh iáº¿p
ĠC O
is tic
ro ss
ĠÄĳÃ³ i
ĠAs ia
Ġinvolv es
inf lamm
idel ines
Ġbronch itis
i que
Ġc Ãłnh
Ġm Äĥng
anc es
Ġrepl ac
Ġm at
ĠT ia
ĠK ing
Ġ200 1
ow er
Ġcal c
f ord
r ite
Ġc r
Ġtr Ã´i
ĠN Ã´ng
Ġhá» ¥
ĠPh á»¥c
Ġst age
uff icient
ĠPot ter
p e
t á»«
Ġv ers
Ġb Äĥm
Ġtr iáº¿t
Ġnh Æ°á»£ng
ĠT H
ĠM iáº¿u
ing er
Ġcar bon
Ġcar cin
Ġne ut
Ġsystem ic
Ġpanc re
Ġb Æ°á»Łi
Ġch Ãło
Ġs ocial
w ays
ĠC al
or es
ic ine
ĠD iá»ĩu
ill in
Ġrem ov
ĠUN ESCO
Ġm Ã³ng
Ġg á»£i
Ġr ung
Ġ5 5
o ff
s izes
Ġt Ãºy
Ġis ol
op s
ĠX Ã¡
ag ed
Ġ200 3
ary ng
Ġad d
ĠMal ay
dec ay
Ġwhe ther
e g
Ġn Ã©n
Ġg á»ĳi
ĠT Æ°á»Ľng
Ġkh Ã©o
ĠP eople
Ġf eat
Ġ4 00
ok ing
ich ard
i en
s au
Ġb á»ĥ
ĠCh ar
Ġy á»ĥ
Ġm uch
Ġtr áºŃt
us h
ĠHo Ãłn
Ġfam ily
Ġ ..."
Ľ t
ng Æ°á»Ŀi
Ġc áº¥y
Ġm el
ĠB uckbeak
ĠW hen
Ġhep atitis
Ġinhibit ors
i at
Ġch á»Ł
Ġg ame
c oh
Ġs ampl
Ġg a
st eps
Ġte chn
rel ated
" ).
b ias
Ġv as
Ġm Ã¢m
áº¿ ch
ĠT im
Ġph áº³ng
ĠTh Ã¡p
os ph
Ġdo wn
st d
áº¹ t
Ġav oid
Ġcomb ination
H iá»ĩn
Ġ eryth
ĠN eville
ti f
ĠTh uyáº¿t
it ary
ĠCh iá»ĥu
op ath
Ġus eful
ĠPar kinson
Ġen ough
ĠCro okshanks
ched ule
p an
om es
Ġop tim
ros is
Ġn at
Ġn orm
Ġng áº¡c
Ġph áº¥n
Ġa ir
or ies
ĠL á»¯
5 8
Ġh Æ°ng
ĠT áºŃp
er ia
Ġincreas ing
Ġprev ious
ĠPhilipp ines
Ġhá»¥ t
S olver
o uld
Ġch iÃªu
Ġd l
Ġp le
Ġnh áº¯m
ĠC anh
ĠB Ã¡i
ĠL iÃªu
Æ°Æ¡ n
as al
ĠW illiam
iz eof
==== ====
Ġplay ed
Ġidentif ied
Ġmil k
5 4
Ġp lasma
Ġr Ãło
Ġx Æ°á»Ľng
ĠÄĲ áº£o
ab l
Ġtr áº¡m
ĠN ational
Ġr á»§i
Ġmá» Ŀ
ig ma
ĠâĢ Ķ
Ġlay er
ĠÄĳ ai
ĠH Æ¡n
Ph Ã¢n
s um
Ã Ģ
Ġn n
Ġnh áº¡y
Ġkh Ã¡n
ĠPh Ã¨o
og en
par ameters
Ġlung s
#### ####
Ġgroup s
9 2
Ġr Ã¨n
ĠÄĳá» «ng
it ation
Ġbe h
ce pt
7 1
Ġch iáº¿t
Ġch á»ĳt
ĠE r
Ġ195 8
Ġ ec
Ġp ost
Ġnh Å©ng
Ġho w
ef er
Ġgh áº¿
( ).
D Æ°á»Ľi
L A
M áº·c
c ed
Ġh al
Ġm ut
ĠS CD
res h
oph ag
ĠIB D
Ġcortic osteroid
Ġv ia
Ġl áºŃt
Ġd im
ĠC ent
ĠQu a
qu ence
ĠlÃ£ ng
ĠII I
Ġh Ã£
Ġg á»¡
Ġe y
ĠE m
Ġres t
Ġ195 9
Ġmm Hg
Ġresul ting
l in
ĠÄĳ áº¡p
Ġh eo
Ġh iáº¿u
ec ted
od es
ot or
av a
ĠkhÃ³ i
Ġappro ximately
ĠDis ease
Ġt Ã©t
Ġth Ã¢m
Ġd ÃŃnh
Ġng Ã£
Ġf ung
ĠA m
Ġlo c
Ġres istance
eo us
Ġ195 3
Ġag ents
ĠEurop e
Ġiod ine
Ġkh uy
ar di
ĠTr uyá»ĩn
eed ing
Ġgrow th
8 0
M áº·t
Ġt Ãł
Ġtiáº¿ u
ev a
ress ion
ĠGen eva
ĠlÅ© y
( '
p ly
Ġin st
el aw
Ġpro f
Ġsc re
Ġstr uct
Ġdá»ĭ u
Ġrequ ired
Ġthough t
a f
ĠT á»©
Ġr heumatoid
ĠV ern
ĠH Ã¡t
ĠTr elaw
ac tion
Ġst and
Ġdi phtheria
pl ant
ler g
Ġresp ons
Ġul tr
ĠTrelaw ney
Ġl Ã¹ng
Ġl Ã´i
Ġd Ä©
Ġd á»ĵi
Ġnh áº¡t
áº· m
ur ed
ut es
Ġtá»± a
Ġgover n
Ġt ensor
Ġl arg
Ġb Ã¡m
Ġb one
ĠB ritish
ĠW e
Ġrec ogn
Ġinvolv ed
Ġv ol
Ġs ix
Ġng á»±c
Ġf e
uc cess
f c
ä ¸
Ġv an
Ġl ine
Ġs á»į
ĠCh Ã¹a
ĠNh Ã¬n
reas t
ograp hy
Ġdefec ts
Ġenzy me
ĠVern on
T iáº¿ng
Ġb ar
Ġm ar
Ġn áº¡p
Ġd á»Ŀi
ĠT Ãłu
ĠC áº©m
ĠW HO
Ġv oi
Ġh ist
Ġb atch
Ġn Ãºt
ĠT iáº¿p
Ġvá» Ŀi
us s
ĠNÃ³ i
Ġout put
Ġneed ed
d uce
Ġ et
Ġb áº¿n
Ġr ight
ĠTr Äĥng
Ġe th
ĠKh áº¯c
Ġkho Ã¡ng
ÄĲ Æ°á»Ŀng
N Æ°á»Ľc
j ect
t re
ng Ãły
Ġth Ã´
Ġl á»Ļn
Ġch Ã¡o
ĠT iáº¿ng
on orr
en ame
en ital
ĠÄĲ á»ĵn
Ġcon st
ans ac
emb d
3 1
f rac
us ed
ep end
ap s
Ġvari ous
C Ã´
ĠÄĲ Ãłn
ĠTh á»ĭnh
ĠL iá»ħu
Ġf ile
ĠNg uá»ĵn
ap ore
ĠE l
ĠÄĳá»ĩ m
Ġt áº¥u
Ġl Ã¡nh
Ġb áº¯p
Ġs ay
Ġn Æ¡
is ion
ĠÄĲ Æ°á»£c
ĠD anh
Ġpro ton
. )
T u
Ġc ereb
Ġh ao
Ġd Æ°á»£ng
Ġr á»¡
Ġr are
ĠV iÃªm
Ãº m
ĠB o
ĠP a
it ted
... )
Ġco gn
Ġad min
oci ety
art in
5 9
v Ãł
Ġh áº¹n
Ġs á»¥
Ġr Ã©t
ol es
Ġso ur
Ġser um
n n
Ġ --
Ġch Ãºc
Ġk iá»ĩm
ĠL Äĥng
at in
ĠPh á»ĳ
Ġold er
M S
Ġ Ã´n
Ġc os
Ġth Ã¡m
Ġg Ãµ
Ġng Æ°ng
Ġprovid e
Ġcu á»Ļn
s c
Ġ _{
Ġt á»§y
Ġl Ãµi
Ġph en
ĠC o
ic tion
Ġst om
ign s
Ġur inary
Ġob ser
Ġbel ieved
rab bers
Ġ Ãºy
Ġb Æ¡
Ġgi Ã¢y
ĠB ang
ĠP r
ĠU y
ĠNgh iÃªn
c Ã¡c
ol ve
Ġpar am
Ph áº§n
Ġyá»ĥ m
coh ol
Ĥ n
Ġr á»ĳt
Ġw ould
ĠRo bert
N Ã³
h idden
m y
Ġth Æ°a
Ġs low
ĠN ansac
Ġex amin
Ġex cess
Ġne ur
Ġappear s
ĠSc rabbers
Ġpat ho
Ġorig in
Ġparticular ly
ĠSing apore
N F
l ist
r or
Ġs l
Ġkh uyáº¿t
ĠR efer
ten tion
Ġman agement
Ġrequ ir
4 2
f unction
o f
t ain
Ġc áº©n
Ġl ear
Ġh Ã¡i
Ġs Ã©t
ĠM us
ĠKh áº£i
Ġex tr
Ġdef ault
ĠTo ur
Ġlong er
Ġlim ited
Ġth áº¥m
Ġkh uáº¥t
ĠC ung
Ġgi Ã£n
ĠCh áº¥p
le t
Ġn Ã¡t
Ġr á»ħ
ĠD iÃªn
ĠCh á»Ľp
ĠK áº¿
ĠGi Ã¡
Ġtho Ã¡ng
Ġseiz ure
ĠGiá» Ľi
pr int
Ġve ins
Ġpubl ic
D P
Ġl Æ°á»¡ng
Ġ197 7
Ġsup er
Ġent er
ĠT áº§n
ĠC áº£i
le ep
Ġass ess
Ġlin ks
T áº¡o
c Ã²n
Ġr Ã¡c
ĠM ich
ay lor
ĠW est
ĠO p
Ġ196 7
ran k
ĠOr gan
ĠRes earch
* *
c as
k a
r ay
v ity
Â ²
Ġ Ã¡i
Ġt ang
Ġn erv
Ġd ose
Ġnh Ã£n
in fec
en ous
ch iáº¿n
ĠTh omas
ec ond
lo ader
Ġdef in
Ġ199 5
Ġvacc ination
Ġsecond ary
I S
V Ãł
Ġ Ã¢n
Ġh ung
Ġg l
ĠR iÃªng
ers e
Ġab ility
Ġ194 0
t áºŃp
ĠÄĳ inh
Ġh áº£o
Ġs Ãºt
Ġs tim
Ġx Ã¡m
ĠM os
ĠÄĲ á»ĵ
ĠP l
pro cess
Ġwe ights
Äĳ Æ°á»£c
Ġcons um
Ġappro ach
ĠhÃ£ m
4 7
A s
Ġg Ã¡nh
ĠvÃł nh
Ġest abl
a ve
g pu
Ġm Ã¹ng
Ġg pt
ĠTr áº»
Ġra dia
ent ric
ac y
Ġcan cers
yro x
ĠMar ge
ĠCro hn
Ho a
Ġpul monary
q rt
Ġ !
Ġl á»±u
Ġ2 50
ĠR ichard
Ġstr ong
= '
Ġtr Ãºng
ĠM artin
ĠB Ã¡o
ĠTr i
az z
Ġl ist
Ġd rop
Ġnh a
ĠV al
ĠA P
om et
Ġax it
9 9
E C
Ġk em
ĠB áº¿n
ĠB rit
ĠTr inh
ĠD Æ°á»Ľi
Ġlo cal
Ġkho Ã¡i
oc ytes
19 45
Ġun c
arr hea
ĠLu áºŃt
eckpo int
Ġradia tion
] )
p ri
Ġm Æ°Æ¡i
Ġnh iá»ħu
ĠM Ã³n
Ã² m
ĠD av
ing ton
Ġ4 8
Ġcan n
C E
u th
Ġh áº¡ch
Ġg Ã¡c
Ġto x
ĠNh u
ĠW hile
ĠÃģ o
Ġstr ess
head s
Ġstat us
Ġt Ã¡o
Ġl i
Ġl at
Ġk Ã©p
Ġk iá»ģm
Ġp ap
ĠB ar
ĠD iá»ħn
ÄĲ áº§u
ho od
Ġinfec tious
Ġcult ure
4 4
H á»ĵ
Ġs izeof
ĠV áºŃt
ĠL á»ĩ
tr uyá»ĩn
Ġdi ed
qu ate
ow el
Ġper cent
Ġresp ir
Ġsw elling
Ġelev ated
g et
Ġn á»£
Ġkh en
ĠQu Ã¡
= "
E R
b lock
k hoáº£ng
Ġl Ã¡i
Ġm Ã¬n
Ġp sych
on str
ĠKh anh
ot s
Ġal ong
ativ ely
N N
b t
b an
Ġch Ã´n
Ġk e
Ġd á»ĵn
á»ĭ n
ĠV Ã¹ng
Ġ1 000
ĠÄĲ iá»ģn
ĠB e
ĠTh o
ver age
Ġamin o
ĠÄĳ Ãłnh
Ġb ladder
Ġk iá»ģu
Ġn áº¿n
ĠPh á»ķ
Ġpr ac
kin es
Ġplay er
ĠPet er
3 3
y n
Ġ Ãªm
Ġc á»Ĺ
Ġph iáº¿u
ar a
ĠL áºŃp
ĠS p
oc al
ĠJ ean
ĠÄĳá»© t
ne e
Ġ199 8
Ġde ngue
Ġt Ãª
Ġth áº¥u
Ġm ov
if est
cur rent
Ġ199 6
Gi áº£i
ĠTu áº¥n
l ess
m ost
Ġb ro
Ġm ac
Ġch ÃŃch
Ġnh á»±a
on y
ĠC T
Ġo wn
ĠTr á»Ŀi
ĠX X
Ġpro duce
qu es
b y
Ġch Ã¢m
Ġs Æ°Æ¡ng
Ġs ample
Ġs tig
Ġqu á»·
ĠM Ãª
ĠÄĲ Ã¡n
Ġan emia
ĠS igns
ĠI m
Ġpre vention
Ġint ake
Qu áº£ng
Ġreduc ing
Ġhum ans
NS UT
Ġtrial s
Ġl ev
Ġh Ãºng
Ġng Ãł
Ġqu Ã¡i
ĠTh á»¥y
Ġho an
od er
Ġ196 1
Ġrec ent
L Ã£o
r up
s ide
Ġc á»Ľ
Ġl Æ°á»¡i
in ter
ĠM Ã´n
ĠÄĲ á»ģn
Ġho le
lo od
Th áº¿
ĠJ o
Ġsug ar
ĠPre vention
Ġl áº§y
Ġb á»įt
Ġs Æ°ng
Ġd one
ac tiv
Ġta ke
Ġex c
Nh áº¡c
Ġre ad
ord er
c o
g ative
Ġv ary
Ġm á»ĵng
Ġm Ã³c
an eous
ĠC Ã¢y
Ġa ch
ĠB inh
ĠCh áº³ng
un e
Ġsc ore
Ġreg ions
Ġgrad s
tig rew
ĠEn c
ylo id
Ġvess els
Ġles ions
Ġpancre atitis
Ġrespir atory
S á»Ń
Ġm áº¯n
Ġx Ãł
ĠM ost
ang e
ĠK iÃªn
Ġpro m
ĠEx ternal
ĠOrgan ization
4 3
b orn
Ġth áº±ng
== ===
ĠTr Ã¬
Ġ4 1
ag o
Ġgen es
Ġáº ¢
II I
% ).
k nown
m ing
ĠT Ã¡m
ĠS áº£n
Ġst art
ĠF red
erc y
B a
H á»įc
y mptom
Ġb anh
ĠH e
ĠB á»Łi
ĠL Ãłng
ĠS m
ĠS Ã¢n
ph as
Ġab ove
Ġes ophag
Ġxo ang
Ġlead s
Ġdiet ary
for ward
Ġeval u
ste in
ĠRefer ences
yrox ine
C Ã¡ch
H á»Ļi
Ġc áº¡n
er ing
id eo
Ġint roduc
P U
b ao
Ġn ear
Ġd á»ĳc
Ġg Ãło
ĠT Äĥng
ĠC Ãł
ĠH áº¯c
ĠB ÃŃch
ĠTr áº¥n
ĠPh á»¥ng
cop y
Ġlink ed
j ug
v á»Ľi
Ġkh á»ĳn
on ic
Ġbe gin
Ġtá»ĵ i
ĠMicro soft
B Ãłi
O N
Ġ Æ°á»Ľt
Ġm á»įc
Ġs ulf
ĠL Ã¢n
ĠS e
Th u
Ġco ugh
Ġ6 00
Ch Ãºng
Ġgo at
Ġrem ains
Ġhealth y
Ġbel ow
Ġpat tern
v oid
Ġnh áº§m
um ent
A V
A IDS
N one
Ġm Æ°á»£n
Ġtr aining
Ġn iÃªm
Ġkh Ã¡t
it u
Ġf r
Ġho st
ur ation
um p
Ġ5 8
Ġal cohol
Ġac cess
ach e
Ġprotein s
200 5
ĠCon t
ob acter
ash ington
Ġacc um
ĠAfric an
Ġprogress ion
Ġhaem oglobin
Ġscre ening
? <
i ef
Ġc áº¯n
Ġl á»Ļt
ĠP aul
ĠS al
el e
ĠQ uyá»ģn
add ed
ĠÄĳ áº±ng
Ġg onorr
ĠB y
Ġw ors
Ġ19 30
os ing
um ab
ĠX V
ĠW ashington
ence phal
ox ic
Ġplay ers
Ġmod erate
Ġphys ici
Ġdiagnos tic
Ġvar ic
Ġmeas ure
Ġcharacter ized
Ġenvironment al
Ġcogn itive
5 5
T á»ķng
p ose
Ġch ai
Ġ15 0
Ġsub st
Ġprogr am
7 2
A c
N Ãłng
Ġl Æ°á»Ŀng
Ġp ur
Ġgi ng
re m
el u
ĠQu á»³nh
Ġká» µ
ĠKh ai
ib r
Ġpar ts
Ġbec ame
Ġt Ã¹ng
Ġs ep
Ġg ay
ĠN a
Ġqu áº¿
ĠPh Æ°á»£ng
Ġlo Ã£ng
ĠE pid
ĠÄĳá»¥ ng
Ġnec ess
ycl op
D A
L Ãłm
M I
O S
b ased
r atch
Ġt ao
Ġl iving
Ġb reast
Ġb owel
Ġd Ãª
ĠN H
ĠL Æ°
ĠL á»Ľn
em at
Ġ3 4
ĠR á»ĵi
ĠHu á»³nh
olog ic
Ġlog its
Ġdeterm ine
Ġanim als
inflamm atory
C uá»ĳi
¯ a
Ġc á»ĳc
ĠÄĳ un
Ġb Ãłng
Ġs áº§u
Ġx ÃŃch
ĠS an
Nh Æ°
Ġworld wide
ĠÄĳá»¥ c
4 9
A ID
t iá»ĥu
Ġth Ã³i
Ġh Ã´i
Ġm emory
Ġch ay
Ġnh Æ°á»Ŀng
it es
Ġf em
Ġ== ===
ĠW ith
qu ency
ug g
Ġj ust
ern el
Ġmet ab
CÆ¡ m
ĠÄĳ ua
Ġl áº¥p
Ġh iáº¿n
Ġb ur
Ġm ight
Ġtr Ã¢u
oc r
Ġsup por
Ġnhu á»Ļm
Ġxu Ã´i
rit eria
f re
Ġ __
Ġb ÃŃnh
Ġs áº¯n
Ġd type
er ve
ĠC á»ĳ
ĠTr áº¡ch
ĠNg Ã£i
ĠD á»¥
ĠPh á»Ł
om p
ter ol
Ġal lerg
Ġst ates
Ph ong
cl us
dr ation
Ġproble m
Ġev ent
Ġc lo
Ġl Äĥn
Ã¬ a
ĠV i
ĠH ar
ĠH iáº¿u
em iology
Ġtiáº¿ c
ĠR ec
ĠJ ava
Ġ7 00
Ġglob al
B á»Ļ
e th
å ħ
Ġd ong
ĠT á»ĳn
ĠTh áº¡nh
Ġf low
ĠD Å©ng
Ġlá» µ
Ġim aging
20 16
Ġinclud es
__ (
Ġposs ib
Ġdai ly
math b
6 8
p red
Ġm au
Ġn áº£y
Ġa verage
ĠTh ay
ro c
Ġal pha
tic al
Ġprim arily
ĠAD N
B Ãªn
Ġl ate
Ġch Ã¡n
Ġch Ã¬m
ti ce
ĠH áº¯n
ĠS ao
Ph áº¡m
las t
Ġâ ī
Ġatt ack
Ġbeh av
Ġultr as
E m
M Ã´
Ġm áº¡o
Ġn á»ĳt
on omic
or i
Ġngh áº½
ĠCÆ¡ m
Ġ ç
Ġ è
ĠÄĳ áº§m
Ġh á»§
en ed
Ġin it
as ter
Ġthu Ãª
ĠR Æ°á»£u
Ãģ o
abor atory
ĠEnc yclop
l ong
Ġc Æ°á»¡ng
Ġs leep
Ġ3 2
Ġex ist
Ġ10 5
Ġ199 9
arg v
Ġcent ral
196 8
ĠxÃŃ u
x em
Ġc uda
ĠÄĳ áº¯ng
Ġv áº¯t
Ġv entric
Ġl Ãª
Ġs ol
in put
ĠM au
ĠÄĲ Ã¡nh
ĠP M
it o
ĠK á»·
Ġal one
Ġdi arrhea
uc tion
Ch á»ī
Ġchu Ã´ng
Ġinf orm
Ġdef ined
ĠAl though
arg inal
Ġrep ort
cl inical
Ġimp air
iat ric
Ġunc lear
Ġb o
ĠT e
ĠN ai
ĠM á»įi
ĠM áº¡nh
ĠF l
ex p
Ġbet ter
Ġunder st
Ġngháº½ n
C Ã²n
R Æ°á»£u
c are
} \
ĠÄĳ Äĥm
Ġh uá»ĳng
Ġm is
Ġm iáº¿n
Ġm ater
Ġnh Ãłng
ĠTr áºŃn
Ġngh á»ĭch
ĠQu áºŃn
ist ent
Ġchu i
Ġcomp lex
Ġáº¤ p
Ġgre at
inc lud
Ġdem onstr
Ġepid emic
) );
h at
Ġl á»įt
Ġb reak
Ġd ay
ĠT Ãº
Ġkh á»©
ĠÄĲ Ã´i
ĠA ustr
Ġon ce
Ġthá»ķ i
200 7
Ġgovern ment
ĠDav id
9 5
Ġth us
Ġv o
Ġtr ain
ĠS ly
yp es
ĠU C
Ġst ages
ther in
ĠIn di
Ġtrans plant
Ġep is
Ġvacc ines
Ġgu idelines
kv a
Ġtak en
Ġir rit
Ġperform ed
Ġcris is
ĠSly therin
w in
Ġt á»§
Ġb est
Ġd á»įn
Ġph á»ĵng
on n
al ia
ar ely
Ġ199 7
r in
Ġt iá»ħn
Ġk áº½
ĠT áº¡p
Ġr á»±c
ĠB áº¡c
it or
ĠCh inh
ĠCh áº©n
ĠIn stit
and om
Ġnam e
Ġpl a
oph il
ĠEurop ean
ĠHen ry
ĠMos kva
6 6
Ġr eas
Ġas pir
Ġtá»± u
Ġed uc
s qrt
ĠT Æ°á»Łng
Ġx Ã¨o
ĠB Ãłng
im port
Ġis s
ad ition
uc l
Ġpar ameters
Gi ai
Ġmening ococcal
Ġtarg ets
Ġmuc os
Ġth ÃŃnh
Ġh Ãłn
Ġs uá»ĳi
Ġtr ig
Ġd á»©a
ĠT Ã³m
Ġng á»¥
ic ated
ĠthÃ¬ a
Ġev ents
Ġc ard
Ġv Ãº
Ġl au
Ġb áº©m
Ġm otor
Ġk iÃªm
ĠNg Æ°á»£c
ĠCh á»£
ĠA lex
Ġex press
ph Æ°á»Ŀng
Ġhigh est
Ġcir cul
ĠChar les
a ff
b in
s in
Ġr áº»
ĠB u
ol era
Ġso i
Ġfollow ed
Ġhal f
M odule
Ġ á»ķng
Ġt áº»
Ġb l
Ġb ab
Ġn it
Ġg áº§m
ĠC á»Ńa
ed ia
Ġin tern
ĠP er
ĠNh áºŃn
ĠQu idd
op a
ot e
ill ary
Ġpregn ant
Ġinj ury
idd le
Ġsus cep
Ġsinus itis
Ġclu b
ĠQuidd itch
m od
Ġl it
Ġh Ã£i
ĠT Ã¢m
es p
ol a
Ġgh Ã©t
Ġstand ard
B C
T I
o áº¡n
Ġc ost
ĠÄĳ áº¯c
Ġth áº»
Ġch lor
Ġn iá»ĩu
Ġp e
Ġg á»«ng
in ce
Ġgi Æ¡
ĠCh ina
ap an
pl ications
Ġwh ite
Kh u
pos ed
w ork
Ġc riteria
Ġth Ã©p
Ġv ir
ĠL Ãł
ĠS tr
if ically
ow n
Ġmu á»Ĺi
g pt
m ead
Ġb á»ĵi
Ġs olver
Ġg Ã¬n
Ġkh Ã¡nh
Ġr Ã¡o
Ġcon n
Th á»ĭt
ÄĲ Ã£
Ġ9 8
Ġ8 5
ĠSt an
ven ess
18 8
ĠChá»ī nh
Ġam yloid
Ġantib ody
ob ot
ie ve
Ġdep ression
Ġser ious
Ġantibio tic
Ġmeas ures
Ġtarg et
Ġconfir med
ĠNor th
mead e
4 1
f ace
Ġt urn
Ġx en
Ġhá» Ł
ĠA ng
Ġpl ace
ĠCom mon
ĠIntern ational
Ġpubl ished
H yp
Ġth Ã¹ng
Ġv áº©y
Ġs á»Łi
an k
ĠM Ã³ng
ed ing
ro v
Ġ3 8
Ġchu á»Ļng
Ġ9 5
Ġpar ser
Ġwh at
Ġcar b
anc ed
val ue
Ġtiss ues
e k
ĠV á»ĭnh
ĠB Ã¢y
ab ly
av el
Ġar g
Ġpl ac
200 8
oun ts
Ġlip id
G A
L Ãºc
d s
r ad
Ġl aryng
Ġm á»ĵ
Ġm ass
ĠN áº·c
es tern
al y
Ġngh iá»ĩn
Ġngh iÃªng
ĠD áºŃu
Ġkho Ã¡c
ĠHo gs
ÄĲ á»ĵng
Ġass ociation
Kh á»Łi
ĠĠĠĠĠĠĠĠĠĠĠĠĠĠĠĠ ĠĠĠĠčĊ
ern utrition
Ġtre ating
ĠDu áº©n
Ġappro pri
Ġval ue
Ġrecept or
Ġvas cul
ĠHogs meade
E x
Ġ Ã³c
ng h
ĠÄĳ áº¡m
Ġh uyá»ģn
Ġs il
Ġs uccess
Ġtr o
Ġtr Ã¨o
Ġng uyá»ĩt
Ġvá» Ĺ
Ġthá» į
is es
um an
form er
medi ate
5 6
9 8
Ġs Äĥn
ĠT Ãły
ĠT Ã¹ng
Ġo x
Ġo an
ĠTr Æ°á»Łng
Ġra pid
Ġ194 9
Ġcomp os
Ġover all
ĠtrÃ¹ m
Ġfeat ures
Ã Ĥ
nh á»¯ng
Ġm á»ĭn
Ġn Ã´
Ġg áº¯t
ĠKh ang
ou is
Ġup per
Ġreg ion
Ġimpro v
ograp h
H uÃ¢n
K á»¹
] [
g ue
Ġc ateg
Ġnh Ãºng
ti veness
ĠH uyá»ģn
es ity
ot t
oc y
ick en
tern ative
Ġsc ler
res idual
ĠAmeric a
head er
Ġsus pected
Ġbreath ing
opath y
C S
C Ã¡i
b Ã¡nh
Ġd áº£i
ĠT uÃ¢n
ĠT á»·
ĠM ac
il i
Ġlam bda
ĠSy stem
P ro
g a
Ġ Ã´m
Ġc áº¯m
Ġs áº¯m
Ġtr áº§u
Ġp en
Ġvá» «ng
et al
ĠGi Ã¡ng
ĠHo an
Ġpro per
Ng he
ĠO ne
Ġ200 2
yc in
Ġcommun ity
print f
C áº£
or b
ĠM en
ĠL uÃ¢n
T Ã¬nh
V iá»ĩn
v ocab
à ¹
Ġn eck
Ġn erve
ĠL áº¡i
Ġf ac
Ġho Ãłnh
ĠD á»±
ĠI V
ĠÄĳo an
ot ype
Ġit ch
Ġre ach
Ġpre ven
Ġoccur red
Ġdr ink
hy dration
Ġdys function
Ġreplac ement
I X
P D
b urg
z e
Ġv uá»ĳt
Ġl áº¡m
Ġs áº¡n
Ġkh Ã¢u
ĠM ay
ĠKh Ã¡ng
ef f
Ġinf er
ĠThu áºŃt
Ġcoun t
Ġrequir es
ĠEpid emiology
) \
V Ã¬
V ietnam
s uch
å į
ĠH áº¡nh
ĠB i
Ã© c
ain t
Ġit self
Ġ199 1
Ġmet al
ict or
lay er
Ġneut ron
Ġprof ession
Ġx Ã©
ch iáº¿m
Ġgi áº¥c
is on
ĠK á»ĥ
Ġgiá» įt
Ġpo int
Ġresul ted
s chedule
å Ĳ
ï ¼
Ġ æ
Ġtr Æ°a
ĠÄĲ Ãºng
it a
re pt
ĠS ociety
ĠK áº»
Ġinf ants
ĠĠĠĠĠĠĠĠĠĠĠĠĠĠĠĠ ĠĠĠĠĠ
Ġsm oking
uff er
Ġfood s
Ġmu á»Ļn
Ġcong enital
Ġtem per
Ġvers ion
Ġexamin ation
Ġpatho gen
Ġultras ound
p ox
¨ ng
Ġm Å©
Ġk áº¹p
ar c
if orm
back ward
Ġsystem s
h a
Ġ é
Ġc Ãºi
Ġl á»Ļc
Ġkh Ã´n
ĠC Æ°Æ¡ng
ĠB er
Ġf ield
Ġ3 9
se quent
Ph an
7 4
Ġl en
Ġd áº·m
ĠN av
Ġ1 20
ĠB áº¡n
ĠS er
ĠA R
Ġcan al
omin ant
T B
X uÃ¢n
l arg
m arginal
å ¤
Ġ encephal
Ġc ure
ĠÄĳ ao
Ġh iá»ģn
Ġn Æ°Æ¡ng
ĠM y
ĠM RI
ar s
ĠK iss
ul ate
âĢ Ļ
20 11
Ġel der
iff er
Ġeffec tiveness
Ġend emic
Ġnew born
Ġclass ified
Ġimp act
ĠPol o
Ġinflu enz
Ġrespons ible
tre ated
Ġstig ma
Ġelder ly
4 6
P ar
d ay
Ġl Æ°
ĠV áº¥n
ĠB ro
ĠS E
ĠCh áº¥t
Ġtho áº£ng
Ġam ount
R O
` `
f usion
m ul
ĠÄĳ eo
Ġth Ã©t
Ġd Ãło
ĠT a
Ġr anh
Ġa ng
ar re
ĠB á»ĳ
ĠTh iá»ĩn
os es
ati s
ĠIn c
ri er
ĠĠĠĠĠĠĠĠĠĠĠĠĠĠĠĠ ĠĠĠĠĠĠĠĠĠĠĠĠĠĠĠĠ
ĠInstit ute
f ile
Ġt áº¯m
Ġl iá»ħu
Ġm ag
Ġd áºŃp
ĠÄĲ iá»ĥm
ĠS iÃªu
Ġw ay
Ġmá» Ľ
bet a
ĠGen e
Ġdepend ing
d type
q kv
Ġc ys
Ġc Ãµi
Ġs ti
Ġk nee
an oma
in ated
Ġvá» Ľt
ĠH B
ĠH b
ĠM á»Ļc
ĠP neum
ati gue
Tr ue
ĠThu Ã½
Ġrecommend s
Ġop tions
Ġidentif y
Ġfind ings
Ġmak ing
ymptom atic
Ġbur den
w ell
Ġ _
Ġkh á»ĳng
Ġng Ã¢y
Ġng Ãłi
Æ¡ m
ĠM ax
ĠTh i
ĠTr ans
ĠI g
ĠE ast
Ġ7 6
Ġacc ording
" ),
A nh
Ã ¦
ĠÄĳ áº¯n
Ġl Æ¡
Ġs Ã³i
Ġtr Æ°á»Ľng
ĠÄĲ iá»ĥn
ĠL on
ĠS im
ĠPh Ã¹ng
le an
os qu
ĠKh áº£
ÄĲ Ãło
Tr áºŃn
ub le
ven tions
Ġrel ease
tiv ely
az ine
Ġorgan ism
Ġrefer red
G ia
L Ãł
Q L
e ti
Ġl ed
Ġh iáº¿p
Ġs Æ°á»Ŀn
Ġnh á»įn
ĠT um
á»ĳ p
iv es
) ...
A r
K im
Ġt Æ°á»Ľi
Ġv ay
Ġs Ã¡o
Ġd áº¥m
ĠT áº£
ĠÄĲ i
ĠÄĲ áº±ng
ia ble
ol l
Ġ3 7
ĠKh Ã¢m
ĠR et
Ġpro ced
Ġex pl
and ing
ĠÃģ i
arg ument
ms olver
Ġproduc ed
Ġappro ved
ĠKhu Ãª
Ġfre quency
Ġbenef its
Ġdisc over
Ġsignificant ly
Ġorig inal
enic illin
dp msolver
Ġestabl ished
u age
ĠT iáº¿t
ĠC H
ĠÄĲ á»įc
ĠB iáº¿n
Ġ19 20
ĠÄĳo áº¡t
Ġ5 9
Ġ4 3
Ġab le
ast ro
ĠÄĳáº¿ m
B an
l ation
m p
Ġch Äĥn
Ġd Ã¬
Ġnh Ãło
Ġg lyc
Ġph áº£
ĠTr Ã¡ng
ĠP ath
ĠS erv
á»ĩ n
od opa
Th anh
á»£ t
up date
Ġac cur
Ġcal cul
trib uted
B áº£n
¨ m
Ľ n
Ġc á»ĵn
Ġth Ã¨m
Ġv ideo
Ġb Ã£
Ġch áº§n
Ġs á»«ng
ĠTr uy
ĠS i
Ġw id
ther n
ĠJ an
ĠJ apan
Ġhigh ly
Ġgrad ient
Ġmajor ity
Ġvol ume
K áº»
T Ã¢y
T á»ķ
s olver
t t
Â Ń
Ġc Ã¹i
Ġl áº©u
Ġb le
Ġtr á»ħ
Ġd ry
ĠT ÃŃch
ĠS Ã´ng
ĠNg Ã´n
ĠNh á»Ŀ
op e
op sy
ÄĲ iá»ĩn
ap ies
Ġpr ior
ann ica
log ical
Ġreduc tion
Ġsex ual
AT O
Ġsugges ted
no ise
Ġcereb ral
Ġlear ning
Ġvascul itis
ĠKiss inger
7 3
F or
U n
o tide
Ã ¶
ĠÄĳ áº»
Ġth ird
Ġv áº§n
Ġn Ã´n
Ġp ut
ĠT áº¿
ĠT á»īnh
Ġr arely
en ess
Ġthá» ģ
ĠB iá»ĥu
ec ts
Ġdo p
ĠO f
H Ã£y
d rop
ä º
Ġv Æ°Æ¡n
Ġb Æ°á»Ľu
Ġm á»ī
Ġm atch
ĠT ÃŃn
ĠM áºŃt
ĠM Ã¹a
as k
re te
ĠS ar
Ġy áº¿m
ag on
ĠW ik
Ġac qu
Ġcomple te
ĠLÃ£ nh
E NS
F alse
l est
r am
Ġl Ã¹i
Ġs ite
Ġs teroid
Ġg Ã£y
in ess
ĠH á»Ļ
ĠcÃ³ c
ĠL ouis
ĠCh in
20 14
Ġwe ak
Ġvirus es
yt orch
Ġback ward
Ġdirect ly
Ġconsum ption
B Ãºn
L iÃªn
T P
Ġnh áº«n
á»§ a
Ġr iÃªu
Ġqu ai
Ġa im
ĠTh uá»ĳc
Ġw rite
ĠPh ys
ting u
pro d
Ġel im
Ġman ifest
Ġint estinal
Ġsur round
Ġgo od
Ġpos ition
Ġexpos ed
Ġaddition al
Ġoutbreak s
Ġintr av
Ġsaf e
ĠBrit annica
Ġgonorr hea
ĠEncyclop Ã¦
ĠEncyclopÃ¦ dia
X em
s ample
Ġb á»ĳc
Ġm áº»
Ġng á»¥y
Ġr andom
ĠTh Ã¡m
ĠNg Ã¢n
Ã½ t
Ġal ways
ĠU K
Ġ194 8
Ġset ting
epend ent
Ġeduc ation
Ġ uá»ĳn
Ġt Ã´ng
Ġc Ãły
Ġch áº§u
Ġg áº¥c
ĠN á»¯
Ġr am
Ġr ather
is ing
Ġan n
erm an
Ph Æ°Æ¡ng
17 8
Ġcann ot
g o
s ing
y dr
Ġch Ãł
Ġtr á»Ļi
Ġn s
Ġn uá»ĳt
ĠC Æ°á»Ŀng
ch ÃŃnh
ĠP ercy
Ġw ord
Ġho me
Ġ4 2
and a
Ġ8 00
Ġnecess ary
V iáº¿t
w are
Ġ áº¡
Ġl áºŃu
Ġh Ã¡
Ġn utrition
er os
ch a
or tic
Ġlá» «a
ur ity
Ġas ymptomatic
iti vity
Ġpre fer
Ġhyp ox
Ġj azz
Ġde b
io tics
Ġcl in
Ġrem ission
att y
ĠAd dition
Ġindic ate
fil ename
Ġsurv ival
" ;
C om
b r
er ous
ĠC Äĥn
ch á»ī
ĠTh áºŃm
Ġe as
) }
f low
g ens
Ã ¼
ĠÄĳ Ã²
ĠÄĳ á»ĳng
Ġl Ã³t
Ġd on
Ġng Æ°
ĠC á»±u
ĠV á»ĩ
Ġo per
ĠL ond
ĠNg uyá»ĩt
Ġká» ģ
ĠU ng
Ġsp ace
Ġem erg
Ġme ans
Ġsev en
Ġey es
A P
L á»±c
T Ã¬m
Ġc Ãłi
Ġv Ã¢n
ĠV Ãłng
ĠL áº§n
ai g
ĠPh iÃªn
200 3
Ġsá»¥ t
C Ã¹ng
g á»įi
l ish
ã ģ
Ġm osqu
Ġg ut
Ġx Ã´ng
ĠNg á»¥y
ĠG au
ol y
Ġrec urrent
enti a
Ġcl ose
Ġinv olve
Ġdet ect
Ġmod ern
ĠPet tigrew
Ġtransm itted
Ġsugges ts
mas k
Ġmechanism s
Ġsupplement ation
Ġcorticosteroid s
Ġnerv ous
Ġging iv
Ġinform ation
ï¼ Į
' .
Ġm ole
Ġch Ã©m
Ġs Ã´
Ġg ang
in n
ĠH ung
ac et
ĠKh á»ĳi
lu es
Ġdi vid
Ġcont aining
Ġsá»© a
Ġte am
T áº¥t
g ans
p es
r ence
Ġl n
Ġg Ã¡n
Ġkh e
Ġng áº·t
Ġthe ory
is ting
ĠP ubl
Ġf oc
ÄĲ oÃłn
Ġel ect
ĠTo áº£n
Ġmá»¥ n
ĠLond on
I f
b it
Ġt er
ĠÄĳ Ã¡n
ĠÄĳ Ã¢m
Ġb Ã´i
Ġk iÃªng
ĠN ol
an ti
ĠV á»ĭ
or ph
ĠB ill
Ġcho les
re x
ĠD Ã¹ng
ĠCh Æ°a
ĠK on
ear ing
ĠAn d
Ġel if
udi o
ĠEd ward
UL L
ĠChin ese
Ġcholes terol
c pu
æ ľ
Ġv Ã£
Ġch áº±m
Ġs um
Ġn áº¡
Ġn od
Ġnh Æ°á»£c
Ġph Ã¡ch
ti tial
ĠH AV
Ġx i
Ġgi eo
ĠM yc
ĠD B
ĠCh Ã¡nh
ur is
Ġdis tingu
uc ed
las tic
Ġun known
gr am
ĠThu áº§n
urn al
Ġpain ful
Ġinter ventions
com es
dom inal
ĠKing dom
Ġobser ved
jug ated
AID s
Ġimpair ment
Ġappropri ate
A C
C á»¥
l l
Ġb áºŃn
Ġb ase
Ġr áº¡p
ĠC á»©
Ã¹ n
ĠP o
el iac
ĠCh á»¯
th á»Ŀi
! .
V ÃŃ
i ph
t á»±
ĠÄĳ áº¯t
Ġl Å©ng
Ġl ive
Ġd Ã¡n
ĠB au
Ġin p
ĠP y
ĠP en
ĠPh áº£n
ul ated
Ġor gans
ĠHo áº¡t
ĠU V
Ġad j
200 2
Ġind ex
ĠbÃ³ p
Ġrece ive
Ġ! =
U S
Ġn Ãªm
ĠT Ã¬m
Ġx Æ°á»Łng
ch ar
os ome
ĠR e
Ġ* *
ign ed
oh ydr
cas ion
Ġpossib ly
ĠAustr alia
b uffer
d L
Ġt Ãº
Ġv Ã£n
Ġh Äĥng
Ġch eckpoint
ĠH iá»ģn
ĠH áº£o
ĠÄĲ Ä©nh
ĠB á»ĭ
ĠL iÃªm
Ġf at
ĠS ong
Ġw all
ĠD r
ĠPh im
os us
ĠNh á»ĭ
ul ations
od ium
op ro
... ).
ÄĲ Ãł
Ġal ter
ĠE ucl
Ġsp ond
Ġcont amin
Ġther apies
Ġmm ol
cum prod
icken pox
ĠNav arre
Ġsti ff
O P
r ation
w ise
Î ±
Ġt ensors
Ġl ight
Ġn ang
Ġr áº¡ng
ĠB C
lam bda
C V
O ther
R A
s qu
Ġm i
Ġph osph
Ġr uá»ĳc
Ġqu Ã£ng
ĠS ang
ĠD áºŃt
Ġlo ad
os in
et t
tr ain
Ġres idual
Ġreg ard
}} }
tok ens
ĠCal if
ĠOp en
I N
M an
g or
m b
Ġt Ã³m
ĠÄĳ Ã²n
Ġn Ã²ng
or ed
or ts
el low
ĠKh á»Łi
ÄĲ Ãªm
M Ã¹a
c i
m it
p added
t in
x Ã£
Ġch Ãªnh
Ġg á»Łi
Ġg Å©i
ĠH LA
Ġx Ã¬
Ġx áº¥p
al low
ĠÄĲ á»Ļi
ed s
ĠL á»Ļ
Ġf printf
Ġf atigue
Ġto o
st der
ÄĲ H
se q
iv ely
ĠSt roke
Ġout comes
Ġsc ratch
Ġstr ains
Ġgh Ãª
Ġinv es
Ġbacter ium
Ġmin im
Ġtak ing
ĠEng lish
Ġcarri ers
Ġbar rier
Ġlev odopa
mathb f
Ġmosqu ito
stder r
Ġc op
Ġl áº¯p
Ġh Ã²n
Ġkh Æ¡i
ĠÄĲ iá»ĩp
Ġho Ã£n
ĠR ep
end er
Ġngo an
Ġlu á»ĵng
Ġ7 7
Nh Ã¬n
Ġá» ¨ng
Ġ199 2
orn ia
Ġenzy m
Ġtok en
Q uá»ĳc
T Ãªn
j ection
Ġb al
Ġng Ã³i
ĠL ine
ĠK Ã´ng
ĠG áº§n
ĠGi áº£n
ĠR áº¥t
Ġ6 4
te gr
Ġrec ord
Äĳ Ã£
Ġap pl
Ġse quence
Ġmal aria
Ġdiffer enti
Ġmon itor
Ġle ngth
Ġsampl ing
ĠAlex and
b or
f ree
Ġh ip
Ġr á»Ĺng
ĠC r
Ġqu áºŃt
ĠÄĳá» įng
ĠH Ã²n
ch em
Æ°Æ¡ m
Ġ4 6
ĠO c
av es
eal and
Ġde g
Ġaffec ting
ĠZ ealand
Ġsim ple
ister ed
4 00
p i
p read
q s
Ġc arry
Ġl Ã´
Ġl aboratory
Ġm o
Ġm Ãłi
Ġm other
Ġch Ã©o
ĠT inh
ĠC orn
ĠB ig
ĠNh Ã³m
Ġcon cer
ĠX á»©
ĠU g
iz ing
ho ut
ug hout
ĠAn other
ub er
Ġad e
Ph á»Ł
Ġrisk s
Ġcol lec
Ġcl os
Ġmal ign
Ġxo áº¯n
Ġresp ond
Ġob str
Ġob esity
Ġmain ly
Ġpneumonia e
Ġ& &
Ġsurg ical
Ġdem entia
istr ation
Ġeth n
Ġexcess ive
ENS OR
Ġhypox ia
T Äĥng
c os
ĠÄ Ĥn
Ġk ey
Ġd á»Ł
ĠN ULL
Ġw ar
Ġkhu áº¥y
Ġtá»¥ ng
Ġ199 4
Ġlas er
Ġke ep
S Ãłi
d iá»ĩt
g ing
Î ²
Ġt Ãºng
Ġt áº©m
Ġch á»Ľp
Ġd er
Ġph Ã´
Ġf ull
ĠD ig
ĠD omin
ĠA ug
le ct
Tr uyá»ĩn
Ġbu Ã´ng
Ġvari ety
Ġsl ight
ĠEucl id
C Ã¢y
M á»¥c
T Æ°Æ¡ng
m ar
m ission
Ġm ÃŃa
Ġd ang
Ġr ÃŃt
áº¯ k
ĠR ang
Ġ5 1
ĠIn fec
ever al
Ġspec ifically
rid ge
n Æ°á»Ľc
Ġt Ã¡ng
Ġh á»ĳc
Ġs ufficient
Ġn áº¡c
Ġd uration
ĠT Æ°á»£ng
Ġkh á»ĳc
ĠÄĳá» Ľn
ĠM ugg
ĠB Ãłn
ĠL Ã£ng
Ġra d
ĠO x
Ġat tention
Ġsymptom atic
Äĳ Ã¡nh
Ġ198 8
Ġrel atively
Ġsup ply
yl itis
Ġreduc es
lear ning
Ġhead ache
ĠMan y
proj w
Ġcard iac
lest ep
ĠCalif ornia
H Ã³a
N Ã³i
f l
i ents
s id
Ġl Ã©o
Ġl ÃŃt
Ġs un
Ġp al
Ġph iÃªu
Ġso ft
Ġ199 3
Ġout side
me th
M áº¯m
T Ã¹y
X Ã´i
g l
Ġ á»ĳm
Ġv om
Ġr á»ĥ
ĠH á»ķ
ĠB iá»ĥn
Ġf all
ĠK Ã½
ĠR á»ĵng
Ph ÃŃa
Ġ194 7
Ġanim al
ĠMus ic
fre y
u ting
Ġth á»ĳt
Ġl á»į
Ġb á»Ļc
Ġch Äĥng
Ġd id
ĠT in
Ġkh á»Ń
Ġph Ã¬nh
Ġph un
ĠV iá»ħn
om an
Ġres tr
ĠO ver
gn os
lob al
Ġreg ular
Ġimpro ved
Ġkhuy nh
Ġsep ar
( -
D i
a emia
g est
Ġt á»ĳng
Ġt ee
Ġth Ã³c
Ġv áº§y
Ġl Ãµ
Ġg astro
ĠC och
ar ly
ĠTh yroid
ĠX IX
up press
ĠF ood
uc lear
Ġhealth care
Ġcor on
Ġmu Ã´n
Ho Ãłng
Ġabnormal ities
Ġtop ical
ides pread
Ġisol ated
Ġfung al
Ġstom ach
Ġtox ic
ĠSE ATO
drop out
Ġintrav enous
Ġinves tig
v iew
Ġt en
Ġh ard
ĠC Ã¡
ĠC aus
Ġvá» įt
ĠH yp
ch er
ĠB áº£ng
ur a
ab il
20 12
Ġ196 6
Ġcholer ae
ĠCont rol
5 7
T áº¿t
s igma
w h
Ġ $
nh Ãł
Ġch an
Ġtr adition
Ġng Ãµ
Ġr áº¡c
Ġf ec
ĠD áº¡
ĠPh Ã³ng
Ġdo i
end s
ne ys
Ġ198 5
ape u
200 1
oph ys
com p
196 5
Ġmethod s
ĠEr n
9 6
C Ã¢u
I T
k yl
r and
Ġ Ã¢u
Ġt uyáº¿t
Ġh á»ĳi
Ġnh á»¥c
ĠT ensor
Ġqu á»¹
it ar
Ġdo cum
ĠHo Ãł
ÄĲ á»Ļng
Ġtu á»³
og le
Ġru le
Ġchang e
Ġexper i
Ġdepend s
Ġwid ely
F A
c ol
c ording
k es
m al
Ġth ung
Ġth ick
Ġv Ã²
Ġch Ã¹m
Ġs ick
Ġp enicillin
Ġg iáº¿ng
ĠT Ãło
in stein
Ġtá» ħ
ĠV Ã²ng
al k
ai red
Ġw idespread
ĠG Ã²
ia tic
id ity
et work
ĠO b
Ġanti gen
ĠAl l
Ġ13 0
Ġsub clinical
Ġperson s
Ġrem ain
com mon
Ġsec re
Ġinvolv ement
Ġcontr ac
Ġshow ed
reg ister
reat ment
Ġarter y
Ġprevious ly
Ġgl ut
Ġphysici an
Ġcuda Check
Ġencephal itis
Ġble eding
3 00
ĠM Æ°á»Ŀi
ĠL Æ°á»£ng
ĠP om
Ġto an
ĠPh u
ad o
ĠF il
bs ite
ĠAb out
9 1
H Ã¬nh
Ġn á»Ļm
Ġr á»¥ng
ĠV ictor
ĠL ibr
ĠTr Ãºc
Ġlá» ģ
ĠNh áºŃm
ev ere
ĠHo Ãłnh
end ed
ĠW omen
Ng Ã´
Ġst op
Ġtho a
Ġmed icine
200 6
Ġrel eas
Ġclass ification
Ġáº¢ nh
S h
V Å©
Ġng Æ¡i
ĠN Äĥng
Ġr Ã¡p
Ġx Äĥng
ĠL iá»ĩt
ĠTr Ã¬nh
Ġ4 4
Ch u
Ġins ufficient
Ġatt em
iot e
H IV
S T
d ir
f ch
æ ĺ
ĠÄĳ áº¡c
Ġth iáº¿p
Ġb ind
Ġs el
Ġs odium
Ġn á»¥
Ġp ytorch
Ġph ase
ĠC Ã¡nh
ĠC áº£o
ĠV p
al i
ĠS anh
ut ure
Ġpro gnosis
ÄĲ á»ģn
Ġst ool
Ġ196 2
to kines
Ph áº£i
int estinal
las m
Ġun treated
Ġen larg
Ġthro ughout
Ġimpro ving
ĠSn itch
Ġactiv ities
Ġappear ance
Ġcharacter istic
Ġdifficult y
Ġeff ic
Ġreas on
Ġlaryng itis
casion ally
Ġade quate
8 8
E r
b es
c ar
r std
Ġm á»§
Ġng Ã²i
ĠC áº§m
Ġcá»§ i
ĠV acc
ĠH er
Ġx áº¯t
ĠB áº£y
ĠS pec
Ġto Ãł
ol s
Th Æ°a
Ġ14 0
Ġstr ateg
Ġchá»£ t
Ġwee k
Ġpoly mer
Ġlit tle
Ġdop amine
gor ith
9 7
C ao
S Æ°
g h
o is
w ith
Ġt Ã¢u
Ġl áº¡p
Ġb Æ¡i
Ġp ÃŃa
Ġkh iáº¿t
Ġph Ã¡c
ĠH ay
ĠM on
at ur
ĠS ee
ĠG ree
ent ed
lo ad
ter ior
ant ine
ĠJ r
ill s
Nh Ã¢n
Ġ195 7
Kh Ã¡ng
Ġsc ale
cri pt
Ġtá»ī a
Ġtemper ature
? .
K áº¿t
l ier
w o
Ġ Ãºp
am b
Ġqu áº¥y
ĠV Æ°á»Ŀn
as te
ĠCh ild
Th á»±c
ati nh
ĠF ound
ĠJ ul
Ġ7 2
Ġintroduc ed
5 1
B Ã¬nh
M á»Ĺi
S ome
T o
[ :
f eeding
o ader
r ight
t es
Ġch uá»Ļc
Ġch á»ĳn
Ġch ance
Ġs qu
Ġtr avel
Ġr á»ī
ĠC Ãºc
ĠV old
es tion
Ġo Ã¡n
Ġo titis
ĠTh iá»ģu
Ġan al
ĠTr Ã²
ro gen
Ġto ler
el ius
ĠPh áº£
Ġe ating
Ġal most
mptom s
Ġint est
Ġund ernutrition
ward s
Ġul cers
ĠAc ute
Ġhand s
Ġdel ay
urg ery
trans pose
Ġcris es
ĠFr anc
Ġbehav ior
ĠMugg le
apeu tic
. :
A i
C ar
R NA
t ure
w ig
Ġh áºŃn
Ġn áº¯p
Ġd Ã¢m
es ter
ĠÄĲ áº¯c
el v
le v
ain e
enti ally
Ġ` ``
ĠÃĶ i
B lack
T ensor
g roup
l ie
s cal
Ġt i
Ġt Ã©
Ġl iáº¿c
Ġm ÃŃt
Ġp ep
ĠV áºŃn
ĠM or
ĠB lood
ĠG hi
Ġgiá» Ĺ
th eo
et er
ad v
ĠR a
Ġ5 3
Ġ5 6
ĠE p
ĠIn t
Ġ198 6
Ġrel ations
ĠSouth east
Ġremov ed
iph eral
l Ãł
m en
Ġl ÃŃ
Ġs Ã¹ng
Ġng Æ¡
Ġr ules
ĠC lass
ÄĲ á»Ļt
Ġbec omes
Ġop en
ÃĶ NG
Ġvect Æ¡
M D
R au
V Ãµ
Ġv a
Ġl áº¡ng
Ġh ere
Ġm áº¿n
Ġch Ã¹ng
Ġn ational
Ġg ol
Ġg astr
ĠT áº¡o
ĠT NF
Ġng á»©a
ĠM e
ĠTh Ã¬
Ġcon d
Ġcon duc
âĢ ľ
ĠF urther
Ġab dominal
out put
Ġne gative
Ġdef ines
Ġ198 2
Ġsh ard
Ġthro at
Ġ< =
log its
Ġderm at
Ġnec rosis
Ġsaf ety
Ġchem ical
Ġeryth emat
Ġethn ic
( ))
Æ ł
Ġng áº¯m
Ġthá» īnh
ĠB á»įn
ĠB MI
ĠCh ung
ĠPh áº£i
oc yt
200 4
Ġspec ial
Ġxo Ã¡
8 00
D E
s ky
å Ī
ç ļ
é Ļ
Ġh áº¿n
Ġk iáº¿ng
Ġnh an
Ġnh á»ĩn
ĠT iá»ħn
ĠC ur
am ent
Ġx ÃŃt
ĠM áº«u
ĠB Ãºn
ĠL áº§u
ro kes
ĠD ec
ĠD uyÃªn
ĠG aul
ĠHo áº±ng
end ing
Ġal ternative
ann ing
Ġoff icial
ĠGaul le
= -
L áºŃp
Ġt áº¡ng
or g
re en
Ġthu á»·
os ter
if ier
ĠHo Ã¡
ÄĲ áº·c
Ġtyp ical
Ġpartic ip
ĠCD C
Ġinst ead
includ e
Ġdeg ree
H iá»ĩp
I t
V Ä©nh
c ient
g al
n ame
Ġ ess
Ġth yroxine
Ġs on
Ġs Ãºc
Ġtr Ã¢n
Ġn Ã¨
Ġnh Ã£
Ġph á»ĵn
Ġthá» ±
ĠV iáº¿t
Ġf ed
Ġho Ãłi
em ort
os uppress
ur ies
ul a
ut aneous
Ġdis ability
ep rosy
ĠW h
ĠW estern
Ġtu be
rom ycin
ber g
ind uced
Ġ198 1
Ġoccur ring
Ġcol l
Ġtes ted
Ġlif est
Ġsug gest
ln f
Ġcontrol led
Ġbenef icial
Ġkid neys
Ġadv erse
ĠSy mptoms
Ġprot ective
Ġcontinu ous
Ġrout ine
Ġabs ence
Ġfe et
clus ive
Ġdemonstr ated
Ġsurround ing
ĠCaus es
ophys iology
ĠVold emort
c a
l im
Ġt Æ¡i
Ġc ross
nh ower
Ġng áº¯t
ĠN ov
ĠM el
ĠL atinh
ot al
Ġ5 2
ĠE ise
Ġfo ot
att le
Ġtok ens
Ġdivid ed
ĠEise nhower
* )
b i
d own
l ang
á Ģ
Ġl Ã¡ng
Ġh i
Ġb ÃŃch
Ġch á»įc
ĠT Ãºc
am ous
ĠV á»¥
it us
Ġto ge
ĠKh Ã¡ch
Th Æ¡
Ġem bed
gr ess
Ġsc an
Ġpres ents
Ġ| \
ampl es
Ġdefec t
ĠCam b
Ġvect or
ĠCoch rane
Ġtoge ther
A L
A d
H u
Ġc Ã´n
Ġc uá»ĳng
Ġv Ä©nh
Ġm ig
Ġp atch
ĠN ot
ĠH iá»ĥn
Æ°á»Ľ m
em s
Ġkho an
ine ering
Ġcont ain
Ġne on
Ġcol or
ish ing
Ġgo al
Ġthere fore
Ġaspir in
B PS
a el
c or
m ap
x t
y ear
å ¾
é »
Ġv ascular
Ġh ors
Ġh arm
Ġs olution
Ġn an
ĠC Ãłn
ĠC áº¥m
am us
ĠH eart
ĠM iáº¿n
ĠÄĲ Ã¡p
Ġin duc
ĠCh amp
ĠG reg
Ġcon cent
Ġe ng
ĠQu áº¿
Ġdo ct
ot rex
lu x
ĠJ os
ri ch
20 21
Ġcont in
Ġchild hood
Ġrel ief
Ġtra it
Ġhy gi
kh u
ĠNew ton
Ġbas al
Ġbi opsy
Ġfluid s
def ault
Ġmemb rane
Ġmat mul
Ġcarcin oma
======== ========
Ġsour ces
Ġcos ts
ĠAddition ally
Ġstiff ness
Ġmalign ant
Ġvom iting
Ġeffic acy
Ġhors es
W HO
m el
r ist
Ġth áº¯m
Ġv Ã¡n
Ġh Ã©t
Ġk Ã¬m
ĠT yp
ĠC S
ti es
ĠV u
ĠV irus
ĠM o
ĠP le
om ing
ect or
Ġproduc ts
199 5
ĠEng land
Ġmemb ers
6 4
K ho
L á»ĭch
b á»ĩnh
s á»±
ç İ
Ġ enti
ģ ¡
ĠC áº£ng
ĠH Ã£n
ch e
ĠM ari
ĠÄĲ á»ĳng
ĠNg áº¡n
ĠD Æ°
th ing
Ġe o
Ġdo gs
op ic
âĢ ĭ
ĠKh e
ĠKh Æ°Æ¡ng
ef fec
oid s
back er
Ġdec ay
Ġâ ģ¡
197 4
ĠGr am
bo ok
Ġdel iver
Ġâī ¥
Ġcarb ohydr
opro tein
6 5
H Ã¡t
] );
k el
Ġt Äĥm
Ġc á»«
Ġl áº¯c
Ġch Ã¨n
Ġs á»¹
Ġg Ã²
ĠN on
ĠD uring
á»ı a
av irus
tok en
Ġconfir m
Thu áºŃt
ĠTe chn
D ia
b al
g ia
u kin
Ġ iron
Ġt ext
Ġth iÃªng
Ġm Ã¨
Ġch Ã¬
Ġs áº¥y
Ġtr á»įn
Ġn asal
Ġg áº£
ĠT uyáº¿t
ĠT áº§m
ĠN á»ģn
ĠÄĳá» Ŀ
ĠH áº±ng
ĠÄĲ á»
ĠÄĲ Ã¡
ĠTr anh
Ġf atal
ĠK áº¹
ĠG ab
ol ism
âĢ ¢
ĠU Ã´ng
Ġst rokes
ĠcÃ¡ y
enc l
Ġag ed
Ġag ent
Ġpres cri
Ġimmun ity
ke ys
sor iasis
Ġreg im
ĠMalays ian
Ġfl ops
Ġsens itivity
Ġsal t
Ġmel anoma
Ġple ural
resh old
Ġrecogn ized
Ġproced ure
ĠLine backer
ĠCorn elius
ĠAug ust
kyl osing
ĠPom frey
Ġerythemat osus
N I
s inh
t Ãªn
Ġth iá»ģn
Ġch Ã²i
Ġn ext
ti an
ĠS aint
ĠD á»¯
ap h
20 22
bo ard
Ġsk ip
Ġreleas ed
ĠFound ation
C Ãł
S C
d Ã¹ng
j i
n ode
u tions
v ol
ĭ âĢĭ
Ġt áº¡
ĠÄĳ Ãª
Ġl Ã¨o
Ġl Ã©n
Ġnh á»ĳt
ĠH ed
ĠH igh
ĠTr á»¥
ĠNg á»¯
ĠD áº§n
ÄĲ Æ°á»£c
Ġkhu áº¿ch
Ġex ternal
ĠâĢ ĭâĢĭ
ĠÎ ¼
obacter ium
Ġslight ly
H ÃĶNG
S P
U M
n s
Ġc ac
Ġb Ãłnh
Ġs ch
Ġtr au
ĠT P
Ġng áº£
en se
ar row
ĠB Ã£i
Ġf eeding
ĠS ub
el and
ĠD an
ĠPh Æ°á»Ŀng
th on
if e
Th uá»ĳc
Ġngo áº·t
Tr iá»ĩu
ri el
ĠmÃ£ nh
ĠGo ogle
Ġnat ural
c Ã´
s titial
t um
Ġ ure
Ġt ÃŃa
Ġb á»ĩ
Ġm anh
Ġn or
Ġr if
ĠM in
ĠM Ã¡y
al so
ĠÄĲ áºŃu
ĠL Ã´
ĠTr e
Ġngh iá»ģn
ĠD inh
ĠA fter
th uá»Ļc
os copy
ĠQu á»¹
Ġkho áº»
Th Ã´ng
ĠE instein
ĠJ une
ĠAn ti
Ġad ult
pos itive
Ġimmun osuppress
Ġinter stitial
Ġpop ulations
sh ard
(" |
Ġext rem
Ġgeneral ized
Ġprot ection
Ġfam il
Ġintr ac
Ġdeterm ined
ĠGal iote
Ġmak es
Ġcy tokines
Ġnorm ally
Ġfe el
ĠMich ael
ĠJo urnal
Ġventric ular
Ġmucos a
ĠPneum ococcus
Ġmanifest ations
ĠOx ford
otrex ate
: //
o T
Ġv áº¡ch
Ġch áºŃp
Ġg all
ĠT Ã²a
Ġng áºŃm
ĠL iá»ĩu
le ng
ec ause
et e
iti cal
Ġac et
Ġvá»¥ n
Ġem ail
Äĳ áº·c
197 3
Ġsour ce
ĠLibr ary
) ).
X Ã¡c
c u
p op
t iá»ģn
å ı
Ġm á»ķ
Ġs igma
Ġk now
Ġp ast
ĠM il
ĠÄĲ á»Ŀi
Ġf inal
ĠS á»©c
Ġho Ã¡n
ĠD ao
ĠCh ronic
ĠG roup
Ch á»§
Äĳ Æ°á»Ŀng
ron t
Ġ198 4
ĠThu á»Ļt
we ights
ail s
hy th
195 6
Ġlang uage
Ġmean ing
Tu á»ĵng
ĠGree k
E N
n et
p on
Ã ĵ
Ġv Ã¡y
Ġch Æ°á»Ľc
ĠÄĲ ÃŃnh
ĠÄĲ á»ĳc
ĠL uc
ĠS Ã¡ng
le ge
ĠG I
Ġ5 7
Ġ4 9
ĠF ed
Ġac ross
Ġ10 24
ĠY ou
enc ed
unc tions
Ġup date
Ġ202 4
oph en
erg y
Ġcomb ined
mas ter
Ġsyn th
B Æ°á»Ľc
C l
D Ã¹
M O
g elu
j ean
å ®
Ġt ua
ĠÄĳ Ãłng
Ġv er
Ġl á»©a
Ġb illion
Ġch Æ°á»Ľng
Ġg áº¡t
Ġg á»ıi
er eas
ĠC Ã¹
ĠC á»ĵ
Ġa id
ĠH áº¡c
ĠB áº¥y
ĠTh Ãªm
ĠL ina
ĠP e
Ġf uture
ĠS en
Ġho use
Ġra ti
le ngth
ce ption
Ġ195 1
Ġsur face
ĠNS AIDs
__ ()
Ġcontr ast
Ġmin utes
Ġ% -
Ġresearch ers
Ġcu á»ĵng
trans former
Ġcontrib ute
Ġcurrent ly
ĠArch ived
ĠVal jean
Ġesophag itis
Ġfem ales
ĠIndi an
ĠUg anda
Ġlifest yle
R S
p ed
p tr
s econd
ĠH F
es ia
ĠM is
ĠTh áºŃp
ĠS ince
ĠCh áº¯c
id x
lo y
ÄĲ áº£ng
20 20
Ġsur ve
ix ed
Ġactiv ation
Ġcre ate
ĠServ ices
ĠJapan ese
f en
å Ń
Ġt áº£o
Ġv ocab
Ġb áº»
Ġb ag
Ġch Ã¡nh
Ġtr Ã¡n
Ġtr á»Ļm
Ġd ev
ĠT om
Ġr Æ°á»¡i
in ol
am a
ar an
Ġin tegr
as is
ĠS áº£nh
el ine
ic ted
ĠD ef
ĠQu Ã¡n
Th iÃªn
se quence
Ġ9 9
Nh áºŃt
ĠThá»ĭ t
Ġnhu á»ĩ
Ġid x
Ġsmall er
Ġhead er
ĠMan agement
Ġglob ally
app end
Ġnucle otide
(). __
Ġhist or
Ġneur on
' t
A b
k o
l s
w d
Ġkh iÃªu
Ġr Æ¡m
in o
ĠV itamin
ĠQu áº§n
il s
ĠR ed
Th Ã¡i
mon ella
Ġcont ext
Ġcons ists
197 6
Ġcor rect
Ġlarg er
B Ã¹i
D R
N á»Ĺi
c up
d es
t ÃŃnh
z ing
Ġ Ãło
Ġ ib
Ġv áº¡t
Ġv áº«y
Ġb Æ°á»Ľm
Ġch ickenpox
Ġr Ã¢u
Ġa udio
ti ble
ĠH ep
ĠM un
ĠM Ãºa
al phas
ĠÄĲ an
ĠÄĲ áº§m
ĠÄĲ Ãłm
ĠTh Æ°a
Ġan aemia
Ġw arm
Ġto a
ĠNg uy
ĠD iá»ħm
á»Ń ng
le ukin
il in
Ġy ellow
Ġ3 3
ĠX Ã¢y
Ġpro posed
Ġst re
ill us
20 10
Ġrec ur
Ġre action
Ġper ipheral
ou k
ĠPar ameter
Ġrel ative
Ġwor se
ke y
ran ial
read y
Ġfunction al
196 9
Ġben ign
ilep sy
Ġfre qs
ĠPro gnosis
Ġlog ic
Ġshow s
Ġphot otherapy
Ġsan itation
Ġoptim izer
ĠAP I
Ġaccum ulation
ĠPM ID
Ġpla que
Ġbab y
Ġpreven ting
Ġcys titis
Ġgastro intestinal
Ġintest ine
Ġhygi ene
ĠHed wig
6 7
C H
S á»ĳ
¥ c
Ġl ab
Ġm á»ĵi
ĠN ob
ĠC or
Ġthá» ģm
Ġx Ã³t
ch áº³ng
ĠCh olera
ĠA g
Ġgiá» ¥c
Ġlá» Ŀ
th áº¿
eas es
ĠIn f
Ġtho áº£i
Ġwe bsite
ip id
ĠMed ical
K iá»ĥm
c ome
s l
ä ½
Ġt áº¥c
Ġc Ãłn
Ġc yt
Ġch annels
Ġn ov
Ġg Ãºt
ĠN ay
ĠH ipp
ĠÄĲ o
ĠÄĲ oÃłi
ĠL Æ°á»¡ng
it on
Ġf ul
Ġf ace
Ġho m
ĠK Ãªnh
ul ating
ĠQu áº¥t
ĠI L
Ã¨ re
ĠHo áº¡n
ot o
ÄĲ Ã³
ÄĲ á»ģ
ĠW il
Ġus es
Ġrec over
Äĳ á»ĥ
ĠSt rept
Ġ198 7
Ġgh Ã©
Ġsub sequent
197 8
Ġdiffer ence
ĠMed icine
Æ¯ á»
istr y
Ġmater ial
Ġsuccess ful
Ġcompos ite
ĠDB MS
scal e
6 3
T iá»ĥu
d ict
w ick
Ġc lean
Ġr obot
ĠC ity
es h
ch á»§
ĠB áº¥t
ĠQu áº£n
iz ations
Ġphá»¥ ng
Ġbu ff
ĠAs ian
H áº£i
I ON
d iff
f u
v Ã¬
Ġt áº±m
Ġb Ã¹a
Ġm iddle
Ġch áºŃu
Ġs d
Ġs he
Ġs á»ıi
Ġn ose
Ġkh inh
Ġr ise
Ġqu áº¡t
ĠH áº¡o
ĠB et
ĠB áº¯t
ĠB á»ĵng
ĠL o
Ġf ill
ro b
el es
ĠCh Ãłm
th is
ul s
Ġhai r
tr act
ÄĲ Ã´i
oc ardi
Tr Ãł
Tr ang
Ch á»¯
ri v
á»Ŀ n
Ġ18 02
ens in
20 13
Ġinfec t
Ġem p
Ġpar as
Ġad oles
ever y
enc ies
Ġpl ays
Ġdevelop s
Ġ194 1
Ġsc i
Qu áº£n
Ġmal es
ĠAr my
Ġdecreas ing
Ġneed s
199 1
Ġmet ast
Ġimp aired
Ġprovid es
Ġindic ates
Ġhep at
Ġneuro logical
AR D
rab be
proj b
Ġfib rosis
cont inu
iot ensin
Ġmut ation
Ġimprov ement
Ġspond ylitis
H Ãłn
N H
V áºŃt
h am
m ia
m ulti
o qu
r un
x b
Ġ Æ¯
ĠÄĳ Ã¨
Ġv on
Ġkh ao
Ġkh á»ī
ĠC áºŃn
ĠB ao
ĠB áº§u
ist or
Ġde ep
Ġvá»¯ a
press o
vers e
6 00
= {\
L U
m at
y m
Ġ áº¥u
Ġv Ã¡ch
Ġh á»Ļt
Ġh áº¹
Ġh áº¡m
Ġm á»Ļng
Ġtr inh
Ġp unk
ĠT Ãł
Ġph iá»ģn
Ġr Ã³t
Ġa uth
Ġx áº£o
Ġx ua
Ġgi Ãły
ĠM i
ĠTh Ã´i
ic ago
ĠCh a
ĠCh icago
ĠG R
pl it
Ġmost ly
Ġcl ai
our ce
195 9
Ġestim ate
Ġhe av
ĠbÃ¹ n
######## ########
Ġextr act
T in
c y
g ar
h f
r ia
Ã Ŀ
Ġh á»ĳ
Ġm ental
Ġp y
Ġnh á»©c
ĠT R
Ġx inh
ic o
tion al
th Ãłnh
im b
ĠNh Ä©
Ġbe g
Th Æ°Æ¡ng
ÄĲ Ã¡nh
Ġ198 3
Ġxo a
Ġdiffer ences
Ġvar ies
Ġatt ach
Ġradi o
H á»į
g rew
p ho
r ine
t Ã¡c
} {
â Ī
æ ĸ
áº ¢
Ġch Ä©a
Ġch rom
Ġtr u
Ġd Ã³
Ġd dp
Ġkh iáº¿m
Ġr áº±m
in ate
Ġgi áº¥m
Ġgi ving
ĠL es
Ġan alysis
ĠD á»¥c
om er
th yroidism
ĠKh á»ķng
... ),
ot ypes
ĠU TI
ĠAn tib
ĠO S
ting grew
Ġá» ª
Ġsc al
ren ch
200 9
Ġover t
Ġthyroid itis
put er
our ished
Ġgre en
Ġterm s
ĠGo yle
Ġcarcin Ã´m
Ġmut ations
Ġadmin istered
Ġstom atitis
Ġvaric ose
Ġbreast feeding
Ġsuscep tible
Ġdrink ing
Ġrad ar
Ġcoron ary
ĠJul y
Ġgol fer
K hoáº£ng
g iá»
j ects
Æ ¯u
Ġc Ã¡p
Ġc áº¯p
Ġl á»¯
Ġb Ãª
Ġd áº¡o
Ġd áº¥y
am ol
ay er
ac es
Ġ- >
Ġim plement
ĠlÃ£ m
ĠY áº¿u
ard s
Ġun con
ĠgÃ³ t
198 2
Ġ188 5
cell s
Ġstar ted
Ġsampl es
ĠNob el
f act
k ernel
r itic
Ġt it
ĠÄĳ Ã¨o
Ġb Ã¡i
Ġm uá»ĳng
Ġm aster
Ġch Ã©
Ġtr Ãºt
Ġg iá»ģng
Ġa o
ĠM Ã¢n
ĠTr ue
ĠNg á»į
ĠD iffer
ĠPh Ã¡n
ĠK enn
ĠNh Ã¢m
Ġ4 7
Ġcom es
ĠF UL
ri ve
Nh Ã³m
pl icated
Ph Ãº
Ġbu ild
Qu áºŃn
âĢĿ ,
Ġacc ount
Ġher pes
---------------------------------------------------------------- ----------------------------------------------------------------
Ġkhuy a
Ġprac tice
ÃĤ m
Ġprofession al
ĠFUL RO
E E
n ers
s el
Ã ļ
Ġm Ã²
Ġd áº¯t
Ġr Æ°Æ¡ng
ed y
ay a
Th iáº¿t
ÄĲ á»ĵ
ri x
Ġinclud ed
Ġar t
rop y
Ġes presso
Ġpreval ent
Ġfoc us
Er ror
B S
P eople
R áº±ng
S ah
T reatment
n áº¿u
z ero
Â ³
Ã ¤
Ġ áº¿ch
Ġc ord
Ġth rom
Ġth áº¯p
Ġl iter
Ġm eat
Ġtr uáº¥t
Ġn p
ĠT áº¡
Ġng Æ°á»Ľc
ĠN Ã¹ng
an e
Ġr á»Ļn
Ġqu áº¥t
ĠM áº¯m
ĠTh ai
ĠP ic
Ġf ast
ĠD ata
ec tions
ĠG olf
Ġ19 10
il ation
ith el
ĠI oT
ĠR el
ĠR áº¡ch
Th yroid
Ġpro long
Ġal ready
ab s
Ġdi e
ĠF rench
Ġwh ereas
Ġother wise
Ġsh are
ox ide
Ġall ele
Ġther apeutic
Ġdecreas es
ĠPet tinggrew
line ar
198 9
Ġprogress ive
Ġpred ominant
Ġperiod s
han ouk
Ġmicro s
Ġphot on
Ġsupplement s
Ġrecept ors
Ġmar row
Ġnear ly
Ġmetab olic
ĠHB V
ĠSi hanouk
Ġgingiv itis
ĠChild ren
Ġrati o
Sah aran
H áº§u
T iÃªu
m or
y nam
Ġc ry
Ġb Ã³n
ĠL ew
Ġf unctions
ĠS ur
ĠR os
Ġ4 50
Ġar tic
Ġcont ains
Ġstar ting
' ]
A meric
C a
G o
M á»įi
V Ã¹ng
k w
s á»ĳ
Ġv iáº¿ng
Ġs Ã¡
Ġn áº¡o
Ġg am
Ġr áºŃp
ĠC our
Ġx á»ĳp
ĠL atin
ĠD ay
om ent
Ġ8 8
Äĳ á»ĳi
olog ist
Ġgr an
197 9
az il
Ġpresent ation
Ġpot entially
Ġhem oglobin
rec ting
ĠFr ance
Ġadd ress
âĪ Ĵ
C M
S uy
V ua
d l
Ġ áº¡t
Ġv áº£
Ġh Å©
Ġb it
Ġr á»ķ
ĠC u
Ġqu e
ĠV ir
Ġx áº£
ch o
ĠÄĲ á»ķi
ĠB Ã©o
Ġf ar
ĠS uy
ic y
ĠCh uyá»ĩn
ĠG ai
ul er
Ġkho Ã¡
ĠF rank
Ġex ec
Ġrep res
ĠTá»ķ n
led ge
Ngh Ä©
Ġgu itar
trib ution
Ġnat ri
N e
S o
S Ã¡ch
h yp
å ¸
Ġv ag
Ġb orn
Ġm ell
Ġs áº£nh
Ġd rain
ĠT á»ģ
ĠN iÃªn
ĠN xb
Ġr Ã¬
ĠC one
am ide
Ġa tr
ĠH AT
ĠÄĲ Ã£
ed ema
ĠB á»ĳn
ĠTh Ãºy
ĠD urs
us ions
th reat
ĠR u
Tr á»ĭnh
ĠE v
ri ev
Ġnot ed
Ġsc ores
ĠÃĤ n
acc um
pos ition
Ġdec line
res istant
Ġâ Ł
Ġind ependent
Ġsm o
Ġdet ection
ause a
Ġgu id
Ġindic ated
Ġperiod on
Ġinj ection
grad s
Ġsyn ov
Ġyoung er
spec ific
Ġlin ing
process es
Ġesophag us
Ġallerg ic
Ġcontamin ated
ĠCone in
ĠDurs ley
threat ening
I P
M iá»ģn
i i
l ig
Ġc á»Łi
Ġb lues
Ġm id
Ġk ernel
Ġp in
ĠT ao
Ġr ong
Ġx Ã¡o
ĠÄĲ á»ĩ
ĠL Ã¡
ĠTr iáº¿t
ĠP at
ĠP rim
Ġf in
Ġ19 00
ĠSt al
Ġop s
Ġgrad ients
ĠCol lege
ĠBr azil
ĠbÃ¬ a
ĠSm ith
ĠDig ital
2 20
B áº£o
V irus
b á»Ļ
b ar
f old
p hi
r ae
u ette
ĠÄĳ ÃŃnh
Ġl á»ĵi
Ġh Ã´ng
Ġh ect
Ġb á»Ŀi
Ġs áº£
Ġnh áº§y
ĠT uáº¥t
Ġr iá»ģng
ĠC Æ°
ĠM á»Ľi
ĠTh Ã¹y
ĠTr áº¯c
ĠP CR
ĠNg á»±
ĠD á»±a
om al
ĠR ad
ap tive
ver t
ĠO per
Ġpre c
Äĳ áº§u
gr icult
Ġ194 3
Ġnhu áºŃn
aw ak
Ġur ban
Ġdefin ition
inter mediate
Ġunderst anding
ĠMyc obacterium
meth od
ĠStrept ococcus
B Ã¡o
D Ã¢n
c Ã¡
t Æ°Æ¡ng
Ġs Æ°á»Ľng
Ġs áº¥m
Ġn á»©t
Ġn ature
Ġp or
ĠN Ãªn
ĠV Ã´
ĠH áº¡t
... ,
hi ch
ix el
Ġgr am
Ġu til
Ġprogr ams
ĠAd v
Ġexp ect
Ġadd ed
" ...
H áº¡
I m
K inh
M ost
T áºŃp
e ak
i ol
i ques
z eros
Ġ @
Ġs itu
Ġk ill
Ġn áº·n
Ġn ode
Ġd oses
Ġg áºŃy
en tion
ĠV ang
ĠV Ä©
Ġx Äĥm
is tics
ĠÄĲ áº¡t
ĠTh Ã¬n
as ive
Ġf rac
ĠD es
Ġra ised
ĠNh iá»ĩt
op er
ĠR ev
ĠR av
ĠR uss
ine a
ĠW ales
Ġex pected
ph th
Ġat tributed
Ġblood stream
Ġun s
Ġdef orm
Ġrel ieve
Ġtrans fusion
par tial
ert ensive
Ġinter leukin
ĠDu á»ĩ
kh aban
Ġdet ected
ĠMar k
Ġro und
Ġob t
por ted
Ġlep rae
Ġsw allow
Ġepilep tic
ĠAz khaban
Ġprovid ed
ĠÎ ²
erg ic
ĠkÃ¬ a
Ġlas ts
Ġchem otherapy
Ġlat ent
Ġvaric ella
Ġtrig g
rov iral
Ġinfluenz a
Ġdiscover ed
Ġemerg ency
Ġdistingu ish
Ġrif amp
Americ an
L á»Ŀi
S N
a ise
k i
v an
Ġ á»ĵ
Ġ Ã¡ch
Ġph á»Ļng
ĠcÃ³ i
ĠÄĲ Æ¡n
ed es
ĠK ar
Ġlu Ã¢n
Ġ193 8
Ġlá»¥ t
Ġach ieved
ĠSal monella
L Ã²ng
[ '
i ro
Ġs oci
Ġk iá»ĩu
Ġk iáº¿p
Ġp a
Ãª ng
ĠT V
ĠN áºŃm
er b
ĠC ong
ĠC áº£m
en a
is ation
ĠM ath
ĠL Ã¢u
Ġngh Ãªnh
ĠNg Ãłi
em y
ÄĲ áº¥t
ĠF DA
ist an
ĠIn ter
Ġ8 2
Ġgen ome
to ber
Ġad h
Ġ11 1
Ġap op
Ġdu á»ĩ
tiv al
Ġnum bers
ĠTo Ã¡n
Ġform ation
Ġgro und
Ġhelp ful
Ġ| |
urs es
Ġtak es
St an
ĠSar awak
G áº§n
K iáº¿n
N ew
T á»¥i
d et
p ing
t op
w hich
Ġl á»Ļi
ĠM ag
ar es
au di
el ta
ĠCh ris
Ġbe gan
se ud
ĠAl bert
ern orm
form ation
Ġiniti ally
Ġmin or
Ġ193 9
gorith m
riev ed
B u
B Ã¢y
B áº¥y
N Q
N orm
c ents
m l
į ch
ĠÄĳ Ãły
ĠÄĳ áºŃy
ĠÄĳ áº·n
Ġl áº·n
Ġh Ã£n
Ġn arrow
Ġp elv
ĠT Ã½
in ing
ĠM od
Ã² e
ĠÄĲ oan
ĠTr áº¡ng
Ġho les
ĠD iet
ĠnÃ³ c
um ps
op tim
st olic
ĠKh Ã¡c
rom ised
Ġex hi
ri ed
Ph Ã²ng
Ġ' --
Ġde hydration
art ment
iet y
ian e
Ġproduc ing
ĠchÃ³ p
por tion
Ġpart ners
dr ug
Ġmeth otrexate
Ġterm ed
Ġmeas ured
add ing
Ġadv anced
orr h
Ġblock ers
tib ility
tib odies
Ġmark ers
Ġclu bs
Mal ays
Ġadmin istration
Ac ute
Ġepis ode
Ġcateg ories
Ġnod ules
uris y
ĠPen ins
osin ophil
ĠChamp ions
encl aw
Ġprolong ed
Ġmell itus
ĠRav enclaw
( ):
O n
T im
g ent
l iÃªn
Ġb Ã¡u
Ġho áº¡
ĠR isk
Ġco ver
Ġbu á»ĵng
amin ophen
ann el
Qu Ã¡
our ces
ĠPro gram
ound s
pr il
acet amol
wh ere
A t
I C
K á»ĥ
M Ãºa
N inh
T F
h uyá»ĩn
k m
r ang
Ë Ĳ
æ Ŀ
ð ł
Ġ áº£i
Ġt áº¡c
Ġc Æ°ng
Ġl á»ĳt
Ġb io
Ġm Ãºi
Ġch Ã¡t
Ġs Æ°á»Łi
Ġk er
Ġp all
Ġr ib
en in
ĠV á»įng
Ġx oÃłi
ch ol
ĠM Ãł
ĠTh áº¥y
ĠS Ã¡t
ĠS up
ĠG PU
em or
id s
Ġbá»ĭ t
lu b
Ġco urses
ĠY áº¿n
Ġ0 8
In f
ĠKho Ã¡t
Ġle g
Ġ193 6
Ġmus ic
Giá» įng
ĠTim es
Ġmov ement
Ġess ential
Ġhect a
2 000
L oáº¡i
V D
t ensors
u el
} ,
Ġc Ãºc
ĠÄĳ iá»ģm
Ġv áº·t
Ġl Æ°á»Ľt
Ġd ig
ĠT aylor
Ġa z
Ġthá» «ng
ĠH á»Ĺ
ĠH and
ĠM ao
ĠÄĲ en
ĠB re
ĠP H
Ġgiá» Ł
ĠR oy
if ying
á»Ľ c
Nh á»Ľ
Gi Ã³
port un
Ġinvolv ing
Ġmu á»Ĺng
ocr ates
ĠMax well
ĠJos eph
ĠGab riel
H ep
I U
c ious
g lob
p ite
v ar
w te
w rite
Ä Ĥn
Ġ Æ°
ng uyÃªn
Ġc ur
Ġv Ã©t
Ġl áº¡y
Ġl Æ°á»£n
Ġb ile
Ġm Ä©
Ġtr im
Ġnh Ã©t
ĠT ex
Ġqu ick
ĠH a
ĠH CV
Ġx Ãłi
Ġx Ã©o
ĠM Ã´i
ĠÄĲ á»«ng
at ors
ĠS ec
ĠK Ä©
th ay
un ia
Ġy ou
ĠI ran
tr uction
Ġ20 30
Th Ã´i
ĠU l
ex ual
ak en
Ġab sor
Ġoc casionally
Ġdiff usion
Ġag es
Ġep ithel
Ġstr ain
Ġcons cious
Ġpol yp
Ġdes pite
ĠAr t
utri ents
az ole
ĠMar x
udi ed
ee ze
Ġmain tain
Ġpsor iatic
Ġhu á»³nh
ĠPet unia
inc ome
Ngh iÃªn
ĠGiá» ¯a
ĠAc ad
Ġpred is
Ġsex ually
Ġlay ernorm
heum atic
Ġlym pho
Ġpanc reas
Ġrece iving
Ġfil ename
Ġcalc ium
Ġtechn ique
Ġloc ated
Ġet c
infec ted
Ġevent ually
Ġbreak down
Ġtransplant ation
ĠRet rieved
ĠPath ophysiology
Ġaccur ate
Ġclin ically
ĠBau man
uber culosis
atur ated
Ġrelations hip
Ġgastr itis
ĠCamb ridge
iton in
P re
Q uy
T Q
v ari
y te
Ġg Æ°Æ¡m
Ġph Æ°á»£ng
ĠN Æ¡i
ĠC á»Ļt
Ġo s
ĠB á»ĳi
ĠL á»Ŀi
ĠS u
Ġ19 05
ĠNh iáº¿p
Tr uyá»ģn
Ġac com
20 19
acter ial
me ga
Ġear lier
hy dro
Ġremov al
ĠKenn edy
5 3
= \
H uyá»ĩn
N em
P ol
Q ua
R es
V T
o ing
r Æ°á»£u
á ŀ
Ġc Ãºp
Ġth iÃªu
Ġl áº¡t
Ġh eal
Ġch ÃŃt
ĠT uring
Ġng Ãło
ĠN á»ķi
Ġr h
ĠC ell
ĠC astr
Ġqu ÃŃ
Ġvá» ©
Ġx áº»
ĠTr Ã´ng
ĠK iá»ĩt
ĠNh Ã¬
ul ates
ĠQu Ã¡ch
Ġdo ut
st s
ĠX Ã´i
qu Ã¢n
Ġ9 00
lam ed
Ġcomp on
io tic
Ġsign al
à¸ ¡
195 5
Ġ193 5
ĠDis eases
Ġcre ated
B áº±ng
V i
c cl
g ed
j o
t ensor
Ġc eliac
nh Ã¢n
Ġth Ã¬nh
Ġch áº¯p
Ġtr á»ı
Ġn á»į
Ġn áº£n
Ġng áº¥t
ĠV I
ĠM ore
ar b
Ġlá» ¡
ĠR au
ÄĲ au
ĠF alse
196 6
Ġexpress ion
ograph ic
Ġmá»ī m
9 4
H A
M ai
M áº¡c
T O
W hile
f ort
g áº§n
h old
r ush
x iety
Ġ á»©
Ġ ile
Ġb á»±
Ġb ac
Ġb urn
Ġb odies
Ġm á»ĳng
Ġn Ã¡u
Ġd á»ĳi
Ġp ixel
Ġnh iáº¿p
ĠT y
Ġr áº§u
ĠC rabbe
ĠV Æ°á»£ng
ĠH uyá»ĩn
ch es
ĠM u
ĠTh á»¥c
as tic
Ġngh Ãª
Ġto urn
el in
ĠD á»±c
id ae
ac in
ul atory
ĠÃ įch
Ġst udied
Ġsy stolic
Ġ6 6
Ġac cept
og enic
Ch áº¿
ĠO ff
reas ed
ard itis
Ph im
evelop ment
anc er
con d
Ġdiff ic
Ġsup press
Ġam ounts
Ġbec oming
Ġâ Ĩ
Ġmal e
Ġneed le
ade quate
ier re
Ġle gs
Con fig
ĠCom plications
Ġimport ance
Ġed ema
loss es
Ġcá»¡ i
atal oader
Ġmusc les
Ġtem por
ĠAp ple
Ġren al
resh ape
(' -
omet ry
Ġmac roph
Ġbegin ning
tt ps
Ġacqu ired
squ eeze
Ġclos ely
ĠClass ification
Ġadoles cents
kw args
Ġfrac tion
% ;
g á»ĵm
Ġ ^
Ġ á»ĵn
Ġl á»Ļng
Ġb áº©n
Ġm es
Ġm ic
Ġn Ãłn
Ġnh áº·t
an a
Ġr áº¡ch
ÃŃ p
Ġtá» ³
ĠL av
ĠS Æ¡
ĠS ab
ĠCh iáº¿c
Ġlo op
ĠNh i
Ġe nh
tr y
ĠW eb
Ġ6 2
Ch áº¥t
Ġ194 2
Ġins ide
ĠCol or
Ġwork ing
Ġcontinu ed
, }
N P
S ao
V áºŃy
t otal
Ġh it
Ġch á»įi
Ġd Ä©a
Ġg áºŃt
Ġph o
ĠC lub
Ġqu Äĥng
ar ies
ĠP op
ĠCh uyá»ĥn
ĠI d
tr ess
ÄĲ i
ÄĲ Ãłn
ĠU áº©n
Ġ7 8
Ġ7 19
Ġem o
ugh t
sy n
Ġinh er
gi áº£m
Ġinhibit or
Ġpoly me
ĠNe uro
Ġong oing
Ġelect ro
Ġcop y
hyth m
ĠCastr ies
1 20
9 3
M ed
S Ã¡ng
c Ã´ng
h op
r ange
t arg
Ġc amp
Ġm ob
Ġg á»«
ĠT áº¯c
ĠC L
ĠC áºŃu
ĠTh áºŃt
ĠCh Ãºc
th y
ia tions
-- -
ĠR T
ap se
Ġ16 0
Ġref ers
Ġsu Ã½t
C C
M áº¥y
M RI
M ARD
T aylor
W hen
b th
d ep
k hi
m iá»ģn
r isk
s en
} ^{
Ġ áº§m
Ġt et
Ġv áº¥p
Ġh Ã¢m
Ġch en
Ġs áº·c
Ġtr Æ¡n
Ġk iÃªu
Ġnh áº¯n
Ġg á»Ļp
Ġph Ã²
in ations
Ġthá» įc
ĠM ulti
ĠB l
ĠB á»ķ
ĠP ak
au t
ĠS Ã³c
ĠS urgery
le en
ol len
Ġis ch
âĢ ī
st age
ĠX e
tr Æ°á»Ľc
Ġdis rup
ep atic
lu e
iz umab
Ġcom a
ĠF our
Ġex tern
Ġ7 1
Ch Ãº
Ch Ã¹a
Ch Ãºa
and emic
ĠO ut
Ġat opic
Ġem b
ach es
oth yroxine
cer tain
acc o
Ġen ergy
Ġimmun ization
Ġcons istent
Ġup on
yc line
à¸ ²
Ġref lux
(" --
Ġpred iction
Ġven ous
Ġpot ass
Ġve in
ret roviral
cont rol
Ġinput s
Ġfind ing
off set
Ġtechn iques
ĠUy Ãªn
Ġexc re
ĠXV III
Ġepis odes
Ġintern et
Ġsuscep tibility
Ġorganism s
ĠCur lie
Ġnov el
Ġful ly
Ġbeg ins
Ġthrom b
L áº¥y
i ans
v irus
Ġ ing
Ġl áº«y
Ġs Ã²
Ġtr ue
Ġnh Ã´m
Ġqu áº¥n
es ts
al leng
ĠÄĲ Ã¡i
ĠTh áº¡c
ĠTr Ã¢n
as es
ĠPh áº©m
ol ar
ĠX ung
ot a
Ġdis tribution
ub a
Ph áº£n
ĠSt udies
Ġcol d
Ġsim ply
7 00
B iáº¿t
L ong
L ine
b áº±ng
k ho
l r
r ice
s w
w w
å ľ
áº ¨m
nh áº¥t
Ġb á»«ng
Ġm áº©u
Ġnh Ã©
Ġnh áºŃm
Ġph in
in st
Æ¡ ng
ĠC áº¥u
ĠH á»ģ
Ġgi ves
ĠM áº¥y
ĠM Å©i
ĠL Ã²
ĠD Ä©
ĠPh a
os por
ev al
ĠX áº©m
if er
Th Ã¢n
ell ular
Ġ8 3
Ġ0 6
Ġun ivers
Ġmed ic
ud ley
Ġ194 4
Ġop tion
197 7
Ġrem ove
ĠTu áº§n
Ġser v
war eness
inf o
ĠIg M
aig on
Man y
ĠFranc is
ĠAcad emy
( [
H Æ¡n
T Ã¡c
p tions
Ġt au
Ġt uá»ĳt
Ġc á»į
ĠÄĳ Ã¹ng
Ġb Ãºa
Ġm Ã©o
Ġch eck
Ġs á»Ļ
Ġs áºŃp
Ġs ud
Ġn ap
ĠT Ã¡o
ĠN um
Ġthá» ı
or ter
ĠB ern
Ġf av
ai gn
ĠD ar
em al
op en
lo áº¡i
ig an
ĠKh Ã¡i
ĠX in
ÄĲ á»ĭnh
Ġhá»ĩ t
uc tive
ri e
ĠNgh á»ģ
ĠphÃŃ m
Ġfunction ing
ĠCol umb
ĠHen ri
ĠTim e
Ġpe ak
ĠsÃ´ cÃ´
ĠNov ember
Ġenti re
ĠsÃ´cÃ´ la
A O
A g
C L
D NA
F T
H eart
b acco
g reg
n al
u ary
Î ¼
å ±
Ł ³
Ġc Äĥm
Ġth áº¡o
Ġl á»§i
Ġs eas
Ġtr Æ°á»£t
Ġn odes
Ġn ausea
Ġg p
Ġph ai
in ct
on a
Ġgi Ã¡ng
Ġgi áº§y
ĠM ang
ĠM end
ed iatric
ĠB ecause
ĠP GA
Ġf atty
ic it
ĠCh om
ĠA Î²
ĠA pril
om b
Ġlo ok
Ġcon c
Ġcon j
il tr
ir idae
Ġy áº¿t
ĠGi Ã¡c
ĠR em
ĠR oi
yp ical
oc l
oc oder
ag en
Ġcan d
ĠE th
tic ular
Ġex ists
Ġthá»§ ng
á»ģ u
Ġcell ular
Ġcá»Ń u
Ġinf ant
Ġinf arc
Ġ11 0
Ġne urop
Ġmodel s
ud e
nd on
Ġcons tit
Ġdes truction
Ġinter vention
Ġpo ints
ĠMar ch
Ġaut oan
ĠAmeric ans
att n
Ġval id
Ġsyndrom es
Ġacc ounts
ĠAc cording
Ġext ent
CD C
ky o
Ġget ting
cop ic
Æ¯ T
Ġepid erm
Ġmark ed
Ġcarri er
Ġinflu ence
Ġgolf ers
Ġprob ably
Ġhyper thyroidism
ĠTH CS
Ġec onomic
Ġey e
Ġcircul ation
Ġnit Æ¡
ĠGene tic
oly tic
ĠBill board
[: ,
Ġpep tide
éĻ ³
çİ ĭ
Ġcac bon
ĠFed eration
f ield
v iáº¿t
Ġh am
Ġb á»ĵn
Ġch áº¡p
Ġnh á»Ł
Ġph Ã´i
ĠV ol
Ġx Ã¡ch
ĠM áº¹
ĠB al
ĠB Æ°á»Ľc
ĠB BC
ĠS ept
Ġto ur
ĠCh ang
em atic
ut er
ĠGi áº£m
ĠU r
ati ves
ĠE arly
ug las
Ġex act
all el
Ġáº ¨m
ĠPro tein
entif ic
ĠSc ience
ocy te
Ġsch ool
Ġaccom pan
B á»ĳn
G á»ĳm
H F
H Ãłng
c ast
v ille
Ġc yc
Ġv áº¡i
Ġv Ã³c
Ġl iá»ģm
Ġl Æ°Æ¡n
Ġb ong
Ġb áº«y
Ġm Ã´ng
Ġch Ãª
Ġch uyá»ģn
Ġs Ãºp
ĠT á»ĳc
Ġr áº§m
ĠB ur
ĠTh áº£o
ĠL Å©ng
Ġof fer
ĠTr á»±c
Ġf lex
ĠS econd
ung al
th á»±c
os p
Th iáº¿u
ĠThe ory
ÄĲ á»Ĺ
Ġngo Ã¡i
ĠE s
Ġdi rec
and ed
Ġ8 6
-------- ----
Ġtrans fer
ĠTo kyo
à¸ ģ
Ġáº¤ t
ĠNhu áºŃn
Ġpattern s
Ġheav y
ĠTex as
8 7
m Ã¡y
r ays
Ġv Ã²m
Ġg el
ĠC R
Ġa ff
Ġx ao
ĠÄĲ Ãªm
ĠP an
el i
ĠG h
th á»ĭt
Ġ19 12
tr ung
ĠW al
Ġex cept
Ġ18 0
ill ance
gr ade
esp ite
ĠOc tober
Ġcontin ue
Ġsud den
) ),
. [
A I
D Æ°á»£ng
E AN
M L
M Ã¬nh
T ensors
T ENSOR
i ological
n á»ķi
t ent
x edema
z ema
} +
ç Ķ
Ġ áº£
Ġ ens
Ġth uyÃªn
Ġl Äĥm
Ġh or
Ġb ung
Ġb ones
Ġm yc
Ġm Æ°á»Ľt
Ġch iÃªm
Ġtr Ã²ng
Ġd ataloader
ĠV as
ĠH am
ch eckpoint
Ġo il
ĠÄĲ iÃªu
Ġin activ
ĠL ÃĢ
Ġan xiety
ĠP ain
it z
re me
ĠS ickle
ĠS ocial
ĠS aigon
ic in
ĠCh áº¡p
ĠK le
ĠG á»ĵm
th ier
ia z
Ġ19 13
et a
op ical
Ġ3 12
ĠKh iÃªm
Th áº¥y
Ġdis ch
ep on
Ġtá»Ń u
ÄĲ áº¡o
ap hy
Ġst em
Ġres istant
est ro
Ġat oi
Ġsp ine
Ġsp ort
Ġsp inal
Ġsp leen
ne tic
Ġpar kinson
lud ed
ff le
Ġun common
Ġoc cup
Ġsome one
Ġbet as
Ġag gress
par am
ox in
Ġpers ist
ici encies
our aged
Ġop portun
Ġpop ular
Ġind ustr
Ġhel d
az ol
olv ed
ee ch
Ġle uk
199 7
ĠPet ers
Ġvari ants
ĠLy ndon
Ġ193 7
Ġprevent ed
Ġhypoglyc emic
ĠLe on
roph y
ĠÏ Ī
ĠNo am
Ġabs cess
Ġcalc i
Ġstruct ures
ĠBang lad
ĠWest mor
Ġevalu ation
oxic illin
Ġtrig ger
Ġbab ies
Ġintern ational
åį Ĺ
Ġann ually
Ġalter ed
Ġbal ance
ĠFil ch
ĠDec ember
Ġfed eral
Ġneon atal
Ġprescri bed
Ġtrau ma
Ġfamil ies
Ġpredominant ly
Ġpelv ic
ĠColor ado
Ġextern a
Ġpotass ium
ĠChom sky
TENSOR S
ĠWestmor eland
. ).
D L
M T
U V
W e
X uáº¥t
Ġth Ã²
ĠT ai
Ġng á»ı
Ġx Ã´
or gan
Ġra ise
ĠA ut
im edia
ur ia
Ġngo áº¡n
ap i
Ch iáº¿c
Ġre ve
av ing
ord ers
Ġnam ed
197 0
)) )
oun ter
Ġláº» n
Ġmicro b
Ġallow s
Giá» ¯a
Ġer ror
Kho a
C o
C áº§n
F red
G PT
K iá»ģu
S Æ¡n
U N
Ã §
Î ¿
Ġt anh
Ġt áº·c
nh iá»ģu
Ġth Ãª
Ġv Äĥng
Ġl and
Ġb á»ī
Ġm áºŃn
Ġm em
Ġch á»Ńi
Ġs Ãło
Ġvá» ī
ĠH uyÃªn
ch lor
Ġgi Ãªng
ĠS Ã¹ng
ĠK Ã¬
ĠG lobal
id ent
un t
ĠÄĳá»ģ m
ad ic
ĠR am
ag ue
ear d
Ġ18 71
est eps
ens ity
las h
Ġcl us
Ġsystem atic
ox id
Ġmeth yl
Ġdescri ption
Ġ188 4
Ġprocess es
cop e
loc oc
Ġsá»¥ n
Ġsil ic
Ġinfer ence
ĠWik imedia
ĠGau thier
effec tive
ĠHipp ocrates
Ġauth or
M em
V ID
l Ãłm
m ore
u ed
áº ¾
Ġth Ã¹y
Ġv áº£y
Ġs áº«m
Ġn m
Ġp andemic
Ġph áº¿t
ĠC Ãºm
ĠM á»¥
Ġf ront
ĠS everal
ai lure
ĠKh áº©u
Th is
Tr anh
ear e
ĠF er
ak esp
one y
Ph Ã¡p
Ġsai d
Gi áº£m
Qu ang
ĠAc tiv
Ġz ero
Ġallow ed
ĠCO VID
Ġlarg est
Ġsuppor ted
Ġproper ly
Line ar
akesp eare
K áº¿
M Æ°á»Ŀi
M Ã¡y
S Ã´ng
S ickle
U ng
b rain
c ial
d ings
v el
x one
ħ u
Ġc ef
Ġc ath
ĠÄĳ áº£
ĠÄĳ áº£n
Ġh Ã²
Ġm áº¡t
Ġp et
Ġnh am
ĠN em
Ġr á»Ļ
Ġr Æ°á»Ľi
Ġq uyáº¿n
ĠC Ã³c
ĠC PU
ĠC uba
ĠV AD
ĠH im
ĠH ol
or al
ar ing
ĠB oth
ĠTh an
ĠTh ÃŃch
ĠTh ose
Ġin adequate
ĠL ee
ĠL eprosy
at osis
ĠTr á»«
Ġf etal
ĠS IV
Ġto xin
Ġto wards
Ġgiá» ħu
ĠNh Ã£
ac ity
ac erb
Ġe jection
um s
ĠGi áº£
ĠX Ã©t
tr á»«
Ġpro portion
áº» m
Ch ronic
ĠO l
20 17
pro t
Ġpre par
Ġinf iltr
oth yroidism
Ġout come
Ġsc ans
ect omy
pec to
ok ka
Ġdes igned
com a
Ġcent uries
Ġval ues
ening itis
Ġcompl ication
198 8
ps i
inu x
Ġcharacter istics
Ġhospital ization
ĠEng ineering
Ġcult ures
batch es
Ġest rogen
Ġsens itive
Ġer os
Tu á»ķi
Ġneur ons
Ġnerv es
Ġwors en
Ġfem ale
ocr ine
Ġox id
Ġfac ial
Ġitch ing
Ġinfluenz ae
Ġprefer red
comp ute
Ġglut en
Ġpolymer ase
Ġsqu amous
Ġconduc ted
ĠGreg ori
Ġregim en
Ġhouse hold
Ġliter ature
Ġexpect ancy
Malays ia
A A
I CE
L Æ°u
P l
r aw
Ġv Æ°á»£ng
Ġm Ã©p
Ġd áº¡t
ĠH Ã´m
Ġ( -
ĠL ily
ĠNg Ã£
Ġra p
ad es
ÄĲ iá»ĥm
ell ig
Ġchu á»ĵng
ub e
ne w
amp s
oth y
ĠDo uglas
res p
ĠCent ers
ĠCent ral
Ġstruct ure
ĠSept ember
D is
L áº¡i
M Ã´ng
M áº¡ng
N eville
c Ã¡i
¡ å
Ġc áº³ng
Ġc Ã²i
Ġh ÃŃt
Ġb Ã³i
Ġch Ãµ
Ġs uff
Ġr á»Ľt
Ġr ank
ĠC Ãłng
ĠC os
ĠV Å©ng
es tival
ĠM á»ħ
ar in
ĠÄĲ áº¯k
ĠTr á»ĳng
ĠP ers
Ġf eed
ĠS Ã¢m
ai re
ĠCh em
Ġthu á»Ł
os y
Ġdo uble
ly mp
ĠI U
ÄĲ á»ĭa
Ġcom e
Ġ6 8
Ġim m
ĠO lymp
iv a
Ġsub t
Ġbi olog
Ġmet a
Ġdisc rete
Ġfew er
Ġ178 8
ĠAp pro
ĠCent er
Ġlear n
ĠBe h
Ġintroduc tion
Ġsepar ate
continu ous
oment um
C A
D e
E F
L áº§n
b a
b ody
i op
t ely
Ġ Ãºt
Ġv áº·n
Ġg Ã¢n
it ting
as ting
el ic
Ġ19 08
lo t
ĠJ ack
ri an
In d
Ġplay ing
Ġimpro ves
ash im
Ġ> =
Ġloc ation
Ġpap er
Ġbro ad
ĠCommon s
Ġimprov ements
Ġeas ily
Ġappl ied
C Ã¡nh
D áº¡
H V
M Ã³n
N Ã³n
Q ÄĲ
R ed
S w
T W
V Ã¢n
c ler
c our
l ix
u z
w av
Ï Ĥ
ĠÄĳ á»ĳn
Ġth á»ĳi
Ġb s
Ġm Ãºc
Ġs ac
Ġn Ãºp
Ġn eop
Ġn ever
Ġd omes
Ġnh ÃŃch
Ġg e
Ġr ig
Ġthá» Ľt
ĠH ang
Ġx k
Ġx iÃªn
ĠM Ã¬
ĠM á»Ļng
ar ic
ĠÄĲ iá»ĩu
ĠB iá»ĩt
ĠB á»©c
ĠB ol
ĠB Ãºt
ĠTh iá»ĩt
ĠL or
Ġan cient
ĠTr áº¡i
it ers
Ġf ru
re active
ĠS evere
Ġto ol
Ġto oth
Ġto bacco
ic ap
á»ĩ ch
ĠK á»ĭch
Ã© rab
ur b
Ġmá» ³
Ġe osinophil
ith romycin
ĠKh Ã´i
ĠR áºŃp
ĠX Ã¡c
Ġpro bs
ag ious
ati ents
Tr Ã´ng
ĠF ord
Ġex acerb
Ġres ources
ph áº§n
erm at
Ġwh ose
Ġcar eful
Ġ14 27
Kh Ã¢m
Ġrel ig
oph y
Ġunder go
Ġdes ired
cal c
ass ociated
Ġdr am
eps is
ĠNS Æ¯T
ĠEx pecto
Ġsw ollen
Ġvar iable
ĠâĪ Ĥ
Ġcare g
Ġprogress es
ĠMed ications
Ġpoor ly
ĠDia betes
dp m
ĠOn ce
Ġcomple ment
ĠDPM s
Ġfil ter
inflamm ation
Ġdiphtheria e
itu itary
Ġphysici ans
Ġmetab olism
last oma
Ġbl ind
Ġplac es
orb id
Ġenlarg ement
Ġtoler ance
Ġdermat oph
é» İ
ĠMil itary
ĠMis Ã©rab
Ġguid ance
audi o
Ġconscious ness
Ġmedic ines
ĠBanglad esh
ashim oto
Ġdomes tic
ĠMisÃ©rab les
T iáº¿n
m c
t ext
ĵ ng
ĠÄĳ áº¥m
Ġh iÃªn
Ġh et
Ġm ember
Ġch alleng
as so
ĠG reen
if y
Ġal en
Ġsp eed
Ġcl im
gen er
Con v
Ġelec tr
tok ine
Ġallow ing
Ġcy tokine
ngh Ä©a
F ET
N o
P A
S A
[ -
t ate
à »
Ĳ ng
Ġt Ã½
ĠÄĳ áº½
Ġch iÃªng
Ġn á»ĭnh
Ġn ull
Ġd en
Ġg in
ĠT á»ī
Ġr á»¥
Ġr ing
Ġr oll
ĠC á»ĳi
Ġa wareness
ĠH is
ĠH ug
ĠH á»±u
ĠM ary
ĠM iddle
Ġo anh
ĠB en
ĠB ay
ĠB orn
ĠL i
ĠL iá»ħn
at hi
Æ°á»Ľ n
as ia
ĠS um
ĠS Ã£i
ĠD áº¥u
ec ting
ec onomic
om ics
ĠNh ai
ac tions
il ities
ÄĲ á»Ļi
Tr iá»ģu
ĠF in
Ch uyá»ĩn
Ġpar tial
av iv
Ġ17 0
pos es
Ġinter fer
Ġthá»¥ c
emb ed
Ġmod e
ris on
ĠGiá» Ŀ
Ġrev ers
Ġext reme
cont ext
ott om
ĠJan uary
Ġtradition al
adv ance
Ġdeliver y
ĠPak istan
ĠDar win
I M
T iá»ģn
b á»ĭ
b ility
l á»ĳi
w or
w ood
Ġl Ã³ng
Ġch eckpo
Ġk ept
ĠT uyá»ĥn
ĠT wo
Ġkh á»ĳ
Ġkh Ã©p
ĠN G
ĠN ap
Ġr Ãªn
Ġr áºŃm
Ġr ough
ĠC uá»ĳn
or ing
Ġgi ve
Ġngh iá»ĩt
Ġw alk
ĠCh á»©c
ĠA ir
ol i
lo cal
ĠKh uyáº¿n
Ġso und
Ch áº³ng
ĠAn ton
av ailable
ĠAr gent
ĠMar c
Ġvari ant
198 0
Ġrefer ence
Ġcomple tely
Ġfeat ure
Ġattem pt
Ġcamp aign
3 50
B á»ĵ
B lood
D uring
G e
H Ã²a
N ÄĲ
R ec
T NF
c aus
e ated
s teroid
t á»īnh
¶ Ĭ
ä »
Ġ Â
Ġ ----------------------------------------------------------------
Ġt ong
Ġth Ãło
Ġv enti
Ġl áº©n
Ġch Ãłi
Ġtr Ã¡
Ġd omin
Ġp adding
Ġg áº¥m
Ġg elu
Ġkh áº¿
Ġph Æ°á»Ľc
Ġr Äĥm
am W
ĠV á»«a
ĠH Æ°á»Ľng
ĠÄĲ Ã¡y
ĠTh us
Ġan t
Ġan kylosing
ĠP R
Ġf used
re h
ĠD en
ĠG ames
Ġlá» «ng
un s
un iform
Ġtiáº¿ m
Ġy áº¿n
lo x
Ġ3 20
ĠGi anh
ÄĲ Ã´ng
Ġal phas
oc clusive
ĠW ill
Ġ9 6
ure us
ub las
Ġsp ut
ron ine
Ġdia be
Ġdef iciencies
Ġdiagn ose
cul es
gen e
yl ori
Ġop i
Ġfol ds
utri ent
ulti es
Ġpneum ococcal
Ġloss es
Ġproduc es
ĠTu á»ķi
Ġur ic
Ġcor rel
196 3
Ġflu or
Ġacc oun
ĠSc ot
Ġdiet s
zy g
Ġext ensive
Ġconf usion
Ġve get
the tic
ĠCl inical
Ġexerc ises
Al though
vers ion
Ġpath way
Ġpath ways
ĠAS EAN
Ġlymph ocytes
Ġsk ull
Ġdist inct
Ġread ing
Ġfr act
Ġattack s
Ġmucos al
ĠBro wn
Ġang iotensin
Ġrecord ed
Ġmonitor ing
gnos ed
Ġfec al
Ġcontrac ted
Ġpatch es
Ġinduc ed
reshold ing
Ġwarm up
Ġstre ngth
Ġrecur rence
ĠChampions hip
Ġvá»© t
Ġdiffic ulties
Ġmacroph ages
targ ets
Ġinfarc tion
Ġdisch arge
othy ronine
Ġdram atic
L ist
S m
r ig
v ard
w orm
ĠÄĳ Ã¹a
Ġh á»ĳt
Ġs á»Ŀ
Ġd á»Ĺ
Ġnh Äĥn
an i
Ġr Ã¡ch
Ġr Ã¹a
in p
ĠV an
ĠV á»£
ĠM Ã¹i
ĠK iá»ĥu
ĠG ar
ac char
ol ipid
il bert
Ġex it
Ġex ception
Ġ6 1
Ġac tion
á»ģ nh
ĠAn n
ph osph
ath y
Ġse e
199 3
Ġrev erse
ĠSo ft
Ġoptim ization
ĠHF MD
Ġaccompan ied
D uyÃªn
G á»ıi
P et
T Æ°á»Ľng
b ro
c Ã¹ng
k en
l ic
r ng
s k
æ ķ
é Ł³
Ġch áº·ng
Ġn áº¿m
Ġd Ã©p
an th
Ġr á»§
Ġr Ãłnh
in ase
Ġtá» ĥ
Ġa ureus
ĠH á»£i
ch ain
ĠL ans
ĠTr áº¡m
ĠP ost
au d
ĠS áº¯c
ĠCh Ã¡y
ĠG áº¡o
Ġ19 15
ent ation
Ġfor mer
ĠR h
ĠF all
olog ists
ĠAl bum
Ġ30 8
ke ting
eath er
Ġfol k
land s
ĠGiá» ĳng
ĠâĪ Ī
eb ru
ĠÃĶ n
ĠIB M
Ġdist ance
Ġapproach es
Ġiss ue
Ġann ual
ĠlÃµ m
ĠVictor ia
Ġstrateg ies
vari ance
ĠCL B
eli hood
ĠPeters burg
Ġreve al
ebru ary
) ]
? ".
W indows
a ft
g u
n es
r ick
} {\
Ġ Ã¡t
Ġv áº¥t
Ġv iá»ģn
Ġl á»Ł
Ġl Ã¬nh
Ġs Ãłnh
Ġtr áº¯c
Ġnh á»Ľt
Ġng áºŃy
ĠH á»ĵn
Ġgi un
is ions
ĠM et
ĠB ien
ĠL ow
ro fen
ĠI ts
Ġ3 60
up rofen
Ch áº©n
ost on
he al
ord an
In tern
196 0
198 4
Ġconsid er
Ġvis ual
Ġcontinu es
onal d
Ġcalcul ate
gnos tic
ĠPic asso
ynam ic
inst ance
' .<
( );
. ),
R a
d m
i j
n ourished
r est
t ake
x yc
Ġ á»ī
Ġ Ã´i
Ġth Ãºng
Ġv Ã¢ng
Ġl r
Ġl anh
Ġl act
Ġl aw
Ġl ives
Ġm Ã¡c
Ġm áº¯ng
Ġs ociety
Ġn ight
Ġd estro
Ġph á»ī
ĠN á»Ļn
er cur
en ting
ĠV áº¯c
ĠH aw
at ovirus
ĠTr Ã¡c
ĠTr Äĥm
ĠP ierre
Ġf ocal
ĠS Ã©c
ĠD udley
ĠK TQ
th ird
Ġ19 06
), ...
ĠI X
ĠKh a
Ġas th
ĠR obot
ĠÃ Ĭ
ap ed
ati ent
ear s
Ġcom m
ver ty
Ġim ages
Nh áºŃn
ne gative
to tic
to xin
oth ers
Ġun certain
Ġag greg
Ġtrans f
Ġam oxicillin
Ġep s
Ġ[ ]
Ġpers istent
Ġtw ice
Ġpo verty
sp k
Ġlik elihood
Ġpred ict
Ġbre ed
Ġsing lestep
ĠGu idelines
idel ine
Ġillness es
Ġvis ible
Ġcontrib utes
Mal foy
Ġsurv ive
Ġreplac ed
Ġple urisy
Ġassess ment
Ġhung er
Ġstim ulation
Ġpap illary
Ġpsych ological
Ġlev othyroxine
Ġmeasure ment
Ġvo ice
Ġpla ques
aff ee
Ġox ide
Ġnewborn s
ll mc
Ġdocum ented
Ġexperi enced
Ġdelay ed
Hu áº¿
ĠPle ik
Ġcarbohydr ate
Ġintrac ranial
Ġbuff er
ocardi al
Ġemp loy
ĠLew y
Ġrifamp icin
Ġrh in
osp ital
lox acin
Ġsput um
ĠKTQ S
C á»Ńa
L P
T am
i tions
Ï ģ
Ġc á»Ļ
Ġc Ã´i
Ġl Ã³c
Ġm orb
Ġs áº¥u
Ġg out
Ġr á»įi
ĠV R
ĠB á»Ļt
ĠB oston
ĠS il
ĠD ep
ĠCh rist
ĠA v
ĠG Ã³c
ĠG DP
Ġcon v
ÄĲ T
ÄĲ á»Ŀi
19 50
qu an
ĠIn v
20 15
eral d
til ity
ins ky
Ġmain t
Ġcal o
ĠvÃµ ng
Ġhá»ķ ng
ĠbÆ¡ m
Ġepidemic s
= (
B áº¡n
D Æ°Æ¡ng
E n
F E
G F
M en
N á»Ļi
N ational
P R
T oÃłn
V itamin
k áº¿
m ad
m oid
o ise
q uá»ĳc
r m
s Æ°
u v
v iÃªm
Ä ģ
æ Ī
æ Ń
Ġ uáº¥t
Ġc á»įng
Ġc Æ°á»¡i
ĠÄĳ á»ĳ
Ġh s
Ġh Ã©
Ġh app
Ġs áº§m
Ġs áº¹o
Ġd ark
Ġg om
Ġg Ã¡y
ĠT á»ĭnh
Ġng áº¡ch
Ġng áº©n
in v
ĠC ogn
ĠM ad
ĠM Ãłu
ĠÄĲ áº·t
ĠL ung
ĠP al
ĠP res
ĠP sych
ĠS at
Ġto m
Ġto day
ic yl
ĠD ut
ĠK och
od ed
ĠX ÃŃ
ĠX III
Th Æ°á»Ŀng
ĠJ ordan
ak a
ak ing
Ġpar alysis
Ġacid s
Ġbas is
Ġgluc agon
199 9
Ġrepor ts
Ġlay ers
Ġvis ion
omp ute
Ġiss ues
ĠBu á»ķi
ĠSpec ial
Ġquick ly
aphy lococ
B Ã¡c
G en
L T
N á»ģn
N ode
P E
l ated
n ext
s ampl
u i
z o
Ġt Ã²
Ġnh Å©
ĠT áº¡ng
ĠN T
ĠN ig
Ġr á»£
Ġr eo
ĠC á»Ŀ
ĠB ell
ĠL áº¥y
Ġf et
ĠCh áº¥n
om ain
id a
Ġis instance
Ġkho ang
ĠR ay
ep hen
Ġpro st
Tr á»Ŀi
Ġ0 1
Ġad en
Ġ12 5
Ġun less
ĠAr ab
Ġnew ly
Ġent ry
roduc tion
Ġstar ts
includ ing
Ġarg v
Ġder ived
ĠArgent ina
. ;
D á»ĭch
G B
R á»ĵi
R iÃªng
S everal
_ (
d á»ĭch
h igh
i h
Ã Ĺ
ç į
è ®
Ġ ide
Ġt á»ĭ
Ġc áºŃt
Ġc reat
ĠÄĳ iáº¿m
Ġl Ãºng
Ġh earing
Ġch áº£ng
Ġch Ã³i
Ġs á»ĩt
Ġs chedule
Ġn Ã¡o
Ġn odule
Ġn utrients
Ġd áº·n
Ġp ig
Ġp ituitary
ĠT Ã¡
ĠT ENSOR
Ġph Ã¨n
ĠN etwork
an l
on set
ĠC áº©n
ĠV á»±c
ĠH Ã¢n
ĠH ospital
ch ron
Ġhá» ĥn
ĠM áº«n
ar coma
ĠÄĲ Æ°Æ¡ng
ĠB Ã¹a
ĠTh iá»ģn
ĠL os
ĠL Ã´i
ĠL á»Ĺi
it re
it wick
Ġw te
iá»ĥ ng
ĠD evelopment
ĠD espite
ĠK HÃĶNG
ĠK osy
th iÃªn
id al
id ney
Ġsá»ĳ c
Ġcon vention
Ġcon jugated
ac ting
ul monary
Ġe ight
ĠGi Ãłng
ĠX Æ°á»Łng
tr a
Th o
ĠHo och
ot oxic
hi ps
Ġres pec
Ch Ãłng
Ch olera
Ġnot e
ub ation
Ġca vity
Ġrec tum
Ġre hydration
Ġwas h
ĠNgh iá»ĩp
Ġanti gens
Ġsh ot
Ġover weight
dis c
Ġform ed
Ġup take
Ġdr aw
ĠGen eral
Ġpo ison
sp inal
Ġro i
Ġbi om
gi áº£n
ax is
Ġdisc uss
ĠCol lec
Ġpat ron
Ġz oster
Ġhá»ķ n
ĠGeor ges
Ġrece ived
Ġcir cum
medi ated
ĠIs lam
Ġarter ies
Ġvess el
Ġisol ation
Ġec zema
Ġfung i
ĠAm ong
Ġlarg ely
Ġobser v
Ġslow ly
Ġpatho gens
Ġstrong ly
Ġli qu
Ġlat ter
Ġwors ening
ĠFl itwick
Ġunderst ood
Ġpreven tive
Ġweak ness
chem ical
ĠInfec tion
ĠErn ie
çļ Ħ
Ġconcent ration
SP EC
Ġhistor ical
diff usion
æĸ ĩ
ĠAntib iotics
Ġuncon jugated
ĠDiffer ential
Ġpor tion
Ġemo tional
Ġautoan tibodies
ercur y
Ġasth ma
Ġtransf usions
ĠKosy gin
H á»ıi
L e
R E
S áº£n
Ã Ĭ
Ġ Æ¯u
á» ¦
Ġv Ã¡
Ġv Ãºt
Ġv Ã¹i
Ġl á»¥y
Ġnh áº¥p
Ġg á»įt
ĠT er
ĠT áº¥m
Ġvá» Ŀ
ĠH op
Ġx iáº¿t
ĠB io
ĠL Ã¡ng
ĠS am
Ġw rit
Ġho p
ĠD áº§u
ĠD Ã²ng
ĠCh áº£
Ġy our
ĠGi Ã³
ÄĲ á»Ļ
ÄĲ oáº¡n
ĠJ im
ĠlÃ£ i
Ġsp in
Ġ{ }
,... )
Ġmon th
Ġtá»ĩ p
Ġeff orts
Ġmark et
Ġxá»ī u
Ġkáº½ m
Ġartic le
8 6
L á»¥c
O ne
T ai
V Æ°Æ¡ng
X Ã©t
c m
f r
h el
l ÃŃnh
m Ãł
m ann
æ ¨
ç ´
Ġh im
Ġh Ãºy
Ġm á»Ńa
Ġm ove
Ġs á»§i
Ġtr Ã³i
Ġk inase
Ġn etwork
ĠT an
Ġng uyá»ģn
Ġph áº¥t
ĠN áº¡i
in ine
ĠC á»§
or ge
or ie
ĠL áº¡nh
ĠL ife
Ġcho ice
ro ugh
Ġho áº¡n
Ġ" ...
ad ing
ĠHo use
Ġdis s
ers on
Tr Äĥm
ph Ã¢n
Ġgen otype
Ġ0 2
Ġrec ompute
Ġá» Ķ
Äĳ á»ĵng
Ġ17 75
enc ing
Ġpl an
Ġpl ant
ĠAl f
Ġrep eat
Ġsign als
Ġdiffer ential
Ġxu i
ah am
Ġ188 8
Ġgrow ing
Ġcarri ed
Ġequ al
ĠStr ateg
Ġrapid ly
ĠCá»© u
ĠPy thon
ĠDomin ique
Ġknow ledge
ĠChris tian
D Ã¹ng
M ay
T á»±
d ale
f it
p ts
r d
Ä «
áº ¦
Ġt áº©y
Ġc á»įc
Ġb áº¿
Ġb Ãº
Ġch á»ĳc
Ġd at
Ġd ominant
Ġng ai
in ters
ĠC re
ch áº¥t
ĠM ond
ĠM ass
ĠÄĲ au
ic ter
ĠNg he
Ġ19 09
ĠGi áº¥y
iti z
Ng uá»ĵn
ĠF ebruary
Ġ6 9
ill a
Ġ8 1
Ġ195 2
ĠHu áº¥n
Ġfollow s
Ġpart ly
tif icial
ĠHar vard
ĠSim ilar
Ġmole cular
aste ur
8 4
M N
M uá»ĳn
O E
P er
S ong
U C
W ood
b ing
b ytes
c py
n p
n is
v á»ģ
y a
} ")
ç ¿
Ġc ode
ĠÄĳ am
ĠÄĳ iáº¿u
Ġv ocal
Ġl Ã¡o
Ġm IU
Ġch áºŃt
Ġs we
Ġtr Ä©
Ġk áº¹t
Ġd ri
Ġd ental
Ġg á»¥c
in ely
er ob
ĠC E
ĠC Ã¡n
am en
Æ°á»£ m
Ġa gricult
ti p
ĠH iá»ĥu
Ġx q
ĠM á»Ł
ĠM á»©c
al is
ĠB el
ĠTh á»Ľi
Ġin ternal
ĠTr uman
it in
Ġf ing
Ġf arm
ro spinal
ĠS Ã¡u
Ġw ant
Ġw ays
ĠNg u
ĠD Ä©nh
le ts
ĠG erman
Ġlá» £p
us itis
ia xone
Ġ19 19
ĠQu áº£
op lasm
... ;
ĠGi Ãłu
tr iaxone
oc ortic
lu enz
Ġkhu á»·
ĠE lec
Ġcom mer
se e
se y
ĠF ran
ex tract
Ġus ual
Ġres olve
Ġ9 4
gn ancy
Ġá» ľ
Ġwh om
las ia
Ġinf lamed
Ġcar til
Ġar th
Ġanti retroviral
Ġcont agious
Ġmed ia
Ġcaus ative
mer ta
ĠUn der
ĠUn like
ast olic
Ġrep eated
ame th
Ġret in
gen eration
Ġrang es
Ġmening es
orn ing
Ġshould er
Ġindi rect
Ġsever ely
fer ence
ĠAmeric as
25 6
Ġngá»§ i
ĠQuÃ½ nh
Ġclass ifier
Ġspread ing
Ġspecific ity
Ġidentif ying
arr ia
cin Ã´m
ĠCar l
Ġhospital s
Ġhem orrh
mm et
Ġcap acity
eph ritis
ĠÏ ķ
Ġcontrib uting
Ġrout inely
ĠTH PT
asal azine
sum i
ogen esis
Ġcereb rospinal
Ġrequir ing
infec tion
IS ION
EC ISION
Ġmov ements
Ġbl ister
ili ary
qkv w
sing lestep
Ġnutrition al
Ġmole cules
Ġregard ing
Ġfec es
ĠEp ilepsy
Ġdoct ors
Ġextrem ely
ĠBet ween
ĠUTI s
ĠRos merta
Ġobt ained
Ġapop totic
Ġelectro ly
MARD s
control led
Ġhor se
Ġbiolog ics
Ġblind ness
orbid ities
Ġcheckpo ints
steroid al
Ġtong ue
Ġtom ography
sampl ing
Ġkhuá»· u
B Ãłn
C áº£i
M icro
S I
T Ã³m
W orld
e z
l ight
r as
s ub
y e
z u
Ġc á»ĵng
Ġch Ã³c
Ġtr ack
Ġg á»Ľm
on om
Ġq uyÃªn
ĠC á»ĳc
ĠC ad
ĠV iral
ĠH T
ĠH uÃ¢n
es ted
ĠM ont
ar p
ĠS un
Ġw r
ĠKh Ã¡m
Ġ6 7
og e
Ġ18 00
ip ment
Ġ14 00
Ġent ropy
ĠTho Ã¡t
Ġsubst anti
ĠAlexand re
group s
ocyt osis
. }
D áº¥u
E l
H B
H iá»ĩu
S V
T inh
Y Ãªn
b all
c á»§a
m es
o tic
r ide
z on
¥ é
Å į
æ ²
æ Ĺ
ç ī
Ġ ]
Ġ ~
Ġc ity
nh áº¡c
Ġv Ã©
Ġv áº¡c
Ġl áºŃn
Ġh uyá»ĩt
Ġs áº£i
Ġk ali
Ġp erm
Ġp ack
Ġnh ung
ĠT or
Ġng a
in ting
ĠC ab
Ġvá» ±ng
ch y
Ġo lig
ĠÄĲ á»©ng
ĠTh á»¥
ĠL em
ĠL inux
as ks
Ġf ish
ro vers
ĠS kin
ĠNg ung
ĠCh á»ķi
em en
th al
Ġ19 28
Th áº¡ch
ers in
ĠÃ ī
oc aine
ĠU áº¥t
ĠW at
Tr Ã¡nh
ab les
ĠE nd
ho uld
tic es
Ġlu á»ĵn
ĠJ on
Ġtrá»£ n
Ġvi ew
Ġ9 20
Ġsp k
Ġ0 4
ĠNgh iÃªm
Ġar ch
Ġcont rovers
18 85
Ġform at
197 1
Ġbas ic
199 8
ĠHuy nh
Ġ188 3
Ġdefin itive
Ġrecent ly
ĠSystem s
ĠBer kel
Ġsetting s
ĠPubl ic
ĠMe chan
çļ ĩ
ĠLuc ien
Ġib uprofen
Ġgam ma
ĠStal ey
Ge orge
aphylococ cus
ĠBerkel ey
A B
H ow
T uyÃªn
i pro
m ol
Ã ĥ
á» ª
Ġt able
nh Æ°ng
Ġth áº£n
Ġb ÃŃt
Ġm á»ĭt
Ġnh áº¥c
Ġg áº¥u
ĠT T
ĠT ay
Ġqu á»³
ĠH uman
ĠM ati
ĠB ul
ĠL ev
it t
ĠS ol
ĠK ol
Ġlo a
ent er
ĠNh áºŃp
ac ent
Ġy et
ĠR ob
ÄĲ a
ÄĲ Æ°a
oc t
ĠU p
ĠE ven
Ġ8 9
int on
Äĳ áº¡i
Ġfai r
ĠChu áº©n
ubl ic
ĠCom pan
Ġprovid ing
Ġ186 7
erman ent
; ...
B áº¯t
C I
H Ãłnh
M Ãł
M Ã¬
P soriasis
X in
b iÃªn
b ound
c utaneous
e i
o economic
p m
q dm
s tim
t ol
u an
x ic
y ond
Î ½
è ¶Ĭ
á» Ĩ
Ġt Ã²ng
Ġt á»§i
Ġth áº¹n
Ġv áº¡
Ġv ÃŃa
Ġl áº©m
Ġl iáº¿ng
Ġl á»Ńng
Ġh áº¥t
Ġh Ã¨n
Ġm ist
Ġs ores
Ġtr y
Ġk ung
Ġn á»©c
Ġd iá»ĩu
Ġd áº¡n
Ġd ate
Ġd uct
Ġp H
Ġp p
Ġp added
Ġp ylori
Ġnh Ã´
Ġg ain
ĠT Æ¡
Ġkh á»įt
Ġng Ã³ng
ĠN UM
Ġr ul
ĠC VD
en tical
ĠH al
ĠH ashimoto
es tive
Ġx Æ°á»Ŀng
ch i
ĠÄĲ Ã©c
ĠB á»īnh
ĠTh iÃªm
ĠTh ail
it able
as ion
Ġf er
Ġf ig
Ġf asting
re p
ĠS Ã¡n
ĠS pr
Ġw ood
ĠNg Ãłnh
ĠCh iáº¿u
le ft
ĠG á»Ĺ
us c
Ġlo an
Ġlo be
Ġ19 26
ĠNh iá»ħm
ur ally
Ġcon ver
Ġcon sequence
ol ok
ĠKh rush
Ġfor e
Ġbe yond
ĠR á»ĭa
Ġpro min
end ritic
ag ic
lu p
Ġon es
ab bers
qu ences
Ġinc ome
Ġres erv
Ġpr iv
ĠJ unction
Ġ10 8
Ġgen otypes
Ġsp ect
gn on
av io
Ġel ements
Ġun able
Ġne ural
ism s
Ġass ist
Ġcomp uting
Ġcomp reh
ĠPar k
Ġman if
Ġsh ock
Ġint ensive
cer ative
lamm atory
Ġcol i
par ameter
ox y
Ġpol ys
yl axis
Ġhypoth esis
Ġprev ents
Ġcor related
Ġmod ules
att projw
Ġinh al
inc ip
ĠDi en
Ġdam aged
ĠMc Nam
An other
Ġhorm ones
Ġindic ator
Ġbre eds
idd ens
Ġshort ness
Ġfl are
Ġglob ulin
Al zheimer
Ġeff usion
Ġfib r
Ġnucle us
Ġradi otherapy
Ġlas ting
Ġmemb ran
Ġtend s
Ġpancre atic
fc w
fc projw
Ġorigin ated
Ġdrop s
kines ia
co eff
Ġvary ing
Ġprom ote
ago ong
Ġirrit ant
Ġconn ective
Ġscler osis
à¹ ī
Ġprofession als
Ġcys tic
ĠOf ten
Ġsteroid s
Ġdetect able
Ġconcer ns
Ġbind ing
Ġdoct or
ĠMari us
ĠTechn ical
ĠGR DP
Ġchrom osome
Ġperiodon tal
ĠHa em
Pol o
Ġtourn ament
Ġ---------------------------------------------------------------- ------------
Pet tigrew
ĠLans dale
çį ħ
luenz a
Ġcartil age
ĠMati gnon
Ġmist aken
ĠThail and
ĠMcNam ara
1 50
D T
H I
I s
M á»¥
O D
O p
` ,
ĠÄĳ áº«m
Ġth áº¡c
Ġl á»¥i
Ġh Æ°u
Ġh Ã²m
Ġb á»ĵng
Ġn ÃŃn
Ġnh Ã¡t
Ġnh Ã¡y
Ġng áº¡n
Ġr Ã´
Ġr Ã¢m
ÃŃ u
Ġa way
Ġx Ã¹
ĠÄĲ Ã¡ng
ĠB iá»ĩn
ĠTh ÃŃ
Ġin str
ĠCh á»ĭ
il t
ĠI D
ĠKh ÃŃ
ĠU se
og an
Ġ7 3
ĠO OP
ose ola
Ġpar allel
Ġman age
oph age
Ġdes cent
ĠAr th
ĠOn ly
ĠVacc ine
Ġstrateg y
D á»¯
E X
G Ã²
H Æ°Æ¡ng
K Ãªnh
P CR
V á»ĭnh
d d
f ull
j ective
n Ã´m
p at
t u
y an
y to
é Ľ
Ġth á»ĳn
Ġv ul
Ġv áº¯n
Ġb á»ķng
Ġk ind
Ġn áº¥p
Ġn Ã´m
Ġd Ã£i
Ġp ower
Ġp ump
Ġnh áºŃu
Ġkh Äĥng
on ucle
ĠC Ã©
ĠC ult
Ġqu áº§y
ĠM Ã£o
ĠM OS
ĠÄĲ Ãª
ĠL ear
au gh
th el
ev es
Ġfor ce
ĠR NN
ĠX II
Th ay
Ġal loc
Ch uyá»ĥn
Ch Ã¡u
ib ri
Ph áºŃn
Ġ17 5
urn s
Ġeffec tively
Ġma xim
aw a
_{ \
ĠCom puter
Ġ188 7
ĠGe ometry
Giá» Ľi
Ġmark er
ĠMalay a
ĠVal ue
ĠMy an
å¸ Ŀ
ĠOper a
ĠâĨ Ĵ
ĠMend el
erob ic
A ut
H C
H Ãłm
m Ãłu
t x
v Äĥn
Ġl ic
Ġk á»ĩ
ĠT w
Ġr Ãªu
ĠTh á»©c
Æ°Æ¡ u
ĠP ac
as w
ĠD eath
ĠPh Ã¡i
ĠK á»µ
Ġkho Ã¡n
Ġkho áº£nh
ag n
ĠE ach
áº³ m
Ġ12 8
Kh ai
Ġ16 6
Ġwho le
Gi Ã¡
Ġdec l
Ġform al
ĠPro ject
199 4
ĠThere fore
Ġcap sid
Ġ178 9
ĠLav ender
ĠBern ard
ĠHaw ai
! ...
, "
, ).
. ".
: .
A p
C á»©
C hi
D NN
N on
T á»īnh
b áº¯t
b ilirubin
d in
f ur
f irst
g yp
g ate
g ency
h t
l an
m ark
m itted
s d
t aylor
Î µ
ã Ĥ
å ¯
å ¼
æ µ
áº ł
Ġc at
Ġc rop
Ġc ats
Ġth ong
Ġth yro
Ġv Æ¡
Ġl ith
Ġb á»į
Ġm ath
Ġm others
Ġs epsis
Ġtr emor
Ġn Ã¡ch
Ġn Ãµ
Ġn á»¡
Ġn á»©a
Ġd ict
Ġp ermanent
Ġkh an
Ġng Ã¡n
ĠN Ãł
on ists
ĠC ase
ĠC oss
am ph
ĠV iá»ĩp
ĠH iÃªn
ĠH ans
ch Æ°a
ch ild
ĠM á»ĳi
ĠM Ã¨n
al azine
Ġo m
ĠÄĲ áº¡m
ĠB P
ĠB rain
Ġan k
ĠP soriasis
ro log
ĠD ean
ĠCh Ã¡u
om atitis
Ġgiá» ı
Ġ" .
Ġ19 32
Ġ19 22
ĠNh áº±m
et ts
ĠQu á»³
od ef
op o
ĠR en
ĠX á»Ń
ce phal
oc omp
oc arditis
ap pro
ap lastic
Ng oáº¡i
iz ure
Ġdi ure
ell asw
and s
ph Æ°Æ¡ng
ph áº£n
Ġit er
20 18
20 23
ne a
Ġcá»¥ t
ĠAl an
lam y
Ġcomp ar
Ġoccur rence
In fec
Ġrep air
Ġcons tip
Ġpain s
Ġinv asive
Ġpos terior
Ġmal nourished
acqu ired
Ġbi ologic
199 6
Ġchang ed
ĠSc abbers
Ġdescri be
Ġhead aches
ĠÎ ±
Ġ188 0
iev al
Ġdai ry
Ġfl ares
norm ally
Ġintr a
Ġ186 8
Ġhospital ized
dim s
Ġexp ensive
math rm
Ġmuc us
ĠÏ Ģ
class ifier
Ġclear ance
Ġsal iva
Ġdist urb
Ġsinus es
Ġprob iotics
Ġrout e
Ġequ ally
Ġavoid ing
ĠBo oks
sc ratch
Ġlocal ized
Ġclo thing
Ġâī ¤
Ġaspir ation
Ġchlor ide
Hyp othyroidism
Par ameter
Ġrandom ized
Ġtoken izer
Ġconcer n
Ġsecre tion
cor recting
Ġharm ful
ĠCS F
ĠÄĳá»Ŀ n
Ġshe ep
Ġsci entific
oqu inol
Ġswallow ing
ĠMath ematic
Ġexhi bit
Hep atitis
Ġburn ing
ĠSab ah
Ġcyc le
Ġparkinson ism
ĠOlymp ic
cour se
ĠPleik u
Ġpatron um
arria ge
avio let
ĠnÃµ n
ĠCoss ack
ellasw ag
Ġconstip ation
' re
O T
S E
S cript
T iáº¿p
b áº£n
h ai
s m
s áº½
á» Ĳ
Ġv Ã¡ng
Ġb áº§y
Ġm eal
Ġk et
Ġn áº¡i
Ġn Ãłnh
Ġn Æ°á»Ľu
Ġr on
Ġr áº©y
Ġr Ã¨m
es ting
ĠM Ã£n
ĠL áº¯k
ĠS áº¯p
ĠPh ot
em ann
lo v
ĠW ater
ĠE con
Ġst atis
ĠF rom
Ġ9 1
pl ace
Ph Ã¡t
Ġ12 1
Ġhuy nh
Ġpl at
ĠHai ti
Ġsub ject
ĠNew s
Ġsec urity
ĠLu áºŃn
ĠCar ter
li est
aneous ly
ĠWith out
onn aise
ĠIg G
ĠAlexand er
iop ia
A fter
C á»ĳm
M ar
T Ã¢n
V Æ°á»Ŀn
Y Ãªu
h á»ĩ
i u
m odule
n ot
r us
r ati
t Æ°
t Ãłi
Î ¹
Ġ Ð
Ġ áº¯t
Ġ à¸
Ġc Æ°a
Ġch áº»
Ġs ed
Ġs ap
Ġn ai
Ġn áº¥y
Ġd Äĥm
Ġd norm
Ġg as
ĠT Ã¡i
ĠT uyá»ģn
Ġph áºŃt
Ġph Ã¨o
áº¥ ng
Ġr Å©
Ġr ub
on ance
Ġx Ã¡t
or um
ĠM T
ĠM ex
ĠÄĲ I
ĠB á»ī
ĠTh uá»Ļc
ĠTh Ã´n
at o
ĠS á»©
ĠS om
ĠS QL
Ġw ide
ĠPh nÃ´m
om yc
ĠG S
th á»ĳng
ia tive
Ġlo st
ol on
od on
op lasma
ad el
tr ation
ĠHo áº·c
ĠE duc
ho e
Ġmay onnaise
Ġst rept
Ġso Ã¡i
Ġres id
ĠAn dr
ri es
ph á»Ł
ph Ã¡t
Nh áº¥t
Nh iá»ĩt
ĠY ersin
ast y
Ġgh áº»
Ġrem aining
Ġdep th
}} \
à¸ §
à¸ °
ĠCom mun
Ġdisc rim
Ġexper im
ĠÎ »
Ġlim it
ĠCar di
AS A
ival ent
iot a
ĠArch ive
Ġmat ter
Ġrecogn ition
mathb b
Ġsol utions
Ġconn ection
å¤ §
abil itation
Ġbag uette
Ġrecover y
dep th
( ),
b ot
n y
o or
v ati
Ġc Ã¡m
ĠÄĳ áº¯m
Ġv Æ°á»Ľng
Ġh ttps
Ġn Ã©
ĠT est
ĠC omm
am ily
ĠV iet
es pecially
ĠM áº¥t
ĠL á»ĳi
ĠP asteur
Ġf alse
ĠK iáº¿m
us ually
ĠQu e
ĠI r
Ġor d
iti al
ĠF re
ĠF ried
Ġ8 4
kin s
10 24
con v
Ġag re
ĠAr ist
14 0
Ġear liest
Ġ24 0
ĠGiá» įng
Ġgener ation
Ġadv ant
Ġprot ect
ret urn
Ġact ually
Ġbeh ind
Ġcann ab
ĠAR N
ayer Norm
ĠOff ice
ellig ence
1 000
C á»Ļng
E v
F ree
H en
H ang
L enin
O H
P neum
Q H
T H
V P
X Ã³t
a it
b Ãªn
b float
b ladder
c Å©ng
d el
f g
h á»¯u
h abilitation
l á»±c
m ix
n el
v Ãło
v á»ĳn
å °
æ ŀ
è ĥ
Ġ Æ¡
Ġ ign
á» ĺ
Ġc Ã²
Ġv Ã¡c
Ġv Å©ng
Ġl iÃªng
Ġl Ã¹n
Ġh ÃŃ
Ġb áº§n
Ġm ixed
Ġch á»Ľ
Ġs ter
Ġn á»ı
Ġn áºŃm
Ġn uclear
Ġd ilation
Ġd inp
Ġd endritic
Ġnh Ãº
Ġnh Ãºc
ĠN ations
ĠN Ãĵ
Ġr an
in ating
ĠC are
ĠH inh
ĠH áº¡n
ĠH erm
ch ronic
ĠM Ãły
ĠÄĲ Æ¯á»
Ġin ability
ĠL au
ĠL Ã©
Ġf c
Ġw in
ĠD A
ĠD em
im umab
os i
os omal
os cler
ĠNh iá»ĩm
ol ysis
Ġcáº£ o
Ġ3 16
Th Ãªm
iti dis
Tr Äĥng
Tr á»«
ĠE vidence
ĠE gyp
Ġdi astolic
ther apy
Ġres ume
Ch ung
Ġim plicated
Ġ18 32
ens us
Ġgen us
Ġpar ents
mon d
Ġad mission
Ġab normally
Ġel ement
Ġ17 92
Ġcomp eti
Ġman aged
Ġout er
Ġint ended
unc ture
ĠĠĠĠĠĠĠĠĠĠĠĠĠĠĠĠ ĠĠĠĠĠĠĠĠĠĠĠ
Ġse q
Ġag onists
Ġrel iable
tiv ity
Ġimmun odef
Ġsur f
Ġsub un
Ġmal let
ĠAr gs
Ġind uce
Ġpo uch
Ġu v
yt osis
com fort
Ġapp eti
Ġser ve
dia gnosed
Ġcent er
Ġid entical
Ġben z
25 7
Ġbi ological
ĠFor ce
Ġclass ic
Ġsw im
float X
Ġbel ief
ĠVietnam ese
Ġtuber cul
ĠGr aves
Ġinj ections
Ġorgan izations
eb ri
^{ -
Ġdeterm ining
Ġrun ning
ĠGo at
Ġhem at
Ġrepl ication
li omas
Ġpath ology
astr ic
Ġ178 7
Ġgland s
cep tions
ĠArch ives
Ġvas o
Ġstruct ural
Ġextr a
Ġbro ught
Ġevalu ate
Ac cording
Ġsuppor tive
Ġventric le
ophil us
Ġiss ued
Ġvir ion
ĠStan ley
Ġpathogen esis
ĠTrans mission
Tá»ķ n
flow s
inn y
Ġenzym es
Ġobstr uctive
Ġgran ul
Ġvag inal
Ġatr ial
ĠâŁ ©
Ġsitu ations
ĠPenins ular
rang le
æĿ İ
Ġpall id
Ġsignal ing
Ġcand id
ĠKle bs
Ġcath eter
ĠCos ette
Ġsubt ypes
Ġcareg ivers
Ġdramatic ally
bro ad
Ġbiom ark
ĠAlf red
Ġcompreh ensive
rati o
Ġappeti te
C ong
E G
L a
S c
S ang
S yn
T Ãłi
T orch
u ages
u fact
Ġb áº¡t
Ġb áº©y
Ġd áº³ng
Ġd iáº¿p
Ġng áº§n
Ġr Ã©
ĠC Ã¢n
ĠM as
Ġo mega
ĠB onn
ĠL Ãłnh
ĠS he
ĠS á»£i
ĠS á»ĳt
ĠA edes
Ġ19 16
ac tic
et on
ut s
ut ation
Th á»§
Th á»§y
Ġal gorithm
lu tion
Ng Ã´n
Ġdi v
ĠJ oh
Ch á»ĭ
Ġ18 70
Ġ0 3
ach us
ord s
iss ing
our age
Ġperson al
ĠPer u
ĠCompan y
) =
C Äĥn
C af
G hi
G ene
H áº¡t
I B
S D
d ot
n Ã³i
s hould
t osis
v ua
¡ n
ä ¹
ä ¾
Ġ ð
Ġ ).
Ġ á»ĳp
ĺ ®
Ġc er
Ġc ame
Ġh Ã³c
Ġch áº¯t
Ġs á»ı
Ġn Ã£y
Ġp ad
Ġnh e
Ġg Æ°á»£ng
Ġg áº§y
ĠT op
ĠĠĠĠ ĠĠ
ĠN orm
ĠN ik
Ġr Ã¬a
er ence
ĠC á»±
ĠV á»¹
Ġx Ãºi
ĠM Ã£i
ĠÄĲ uÃ´i
ĠÄĲ á»īnh
ĠB ab
ĠTr á»©
ĠTr ai
ĠTr Ã¡nh
ĠS á»Ńu
Ġ2 30
ĠK Ã©p
Ġ19 01
ĠNh Æ°á»£ng
âĢ ²
st ack
... ".
Th áºŃp
ÄĲ Ãºng
Ng uy
ĠF ol
Ġinc or
Ġchiáº¿ ng
Ch áº£
Ġtho i
ak i
pro tein
Ġpar acetamol
Ġtim esteps
act ory
Ph á»¥
Äĳ Ã´i
Ġ17 77
ĠSt aphylococcus
enti st
ten ance
ĠMal acc
ĠKho an
Qu á»¹
Ġinter action
ĠbÃ© n
Ġgene tics
form at
Ġ60 5
sh ift
uff le
ĠAd min
Ġdescri ptions
ipp ing
Ġidentif ication
ĠEd win
ĠÏ ī
Ġtechn ology
Ġstim ulate
Ġprom o
Ġprogram ming
ĠAng eles
Vietnam ese
Ġaccur acy
æľ Ŀ
ST M
Ġacet yl
Ġunivers al
ĠNum ber
resp ond
ĠBorn eo
ĠScot land
acchar ide
ĠAndr Ã©
B uá»ĵn
E arly
M E
e qu
h iá»ĩn
s plit
t ay
Ġth áº³m
Ġh áº¯c
Ġb á»«a
Ġch ain
Ġch á»ĵn
Ġd áº§m
Ġkh iáº¿u
Ġr id
ĠC oun
ĠV is
ĠH Ã£ng
or a
ĠB á»ı
ĠL Å©
Ġf und
Ġf aster
el ements
ĠD iá»ĩt
ĠG ard
ly cer
ĠR eg
Th Ã¬
ĠÃ įt
ĠE uler
Ġst d
Ġst ream
se ed
ĠJ a
Ch Æ°a
Ġ9 2
Ġsh orter
Ġwor ks
Ġdec ades
Ġinter val
ail ed
ĠAs pir
ink ing
ĠBr une
ĠAng el
ĠServ ice
Ġfoc used
Ġsurve illance
Ġdev ices
Ġsuccessful ly
ĠLo a
imb us
ĠBrune i
' ):
E p
F P
F loat
G T
G ing
K HÃĶNG
L Ã¢m
P AR
P ercy
S á»ĳt
X Ã£
f loxacin
h and
k al
m omentum
n on
o que
u thern
v iral
x Ã´i
} =
¢ C
è ģ
Ġ ud
Ġ áº¿m
Ġ Æł
Ġt Ãºm
ng hi
Ġc Ãºt
Ġh ar
Ġh Æ°Æ¡u
Ġb ed
Ġb ul
Ġb il
Ġm l
Ġm ice
Ġm ix
Ġm okka
Ġtr á»į
Ġtr epon
Ġn ccl
Ġd x
ĠT iá»ģu
ĠT uyáº¿n
ĠT ask
Ġph ag
ĠN utrition
ĠN imbus
Ġr um
ĠC Ã¡m
am ents
en th
Ġa phth
ti d
ĠV er
ĠH D
ĠH HV
ĠM Æ¡
ĠL E
Ġan at
ĠTr Ã¹ng
ĠTr ots
ĠP T
ĠP as
ĠP Ãªnh
ĠP enn
ĠP ediatric
ĠP atients
re land
ĠS á»ĳng
ĠS ap
Ġw rap
ic ia
ĠCh iá»ģu
ĠCh áº½
ĠCh á»įn
ec ay
im ab
Ġcon dom
ac ted
Ġe ti
Ġe at
um ents
ĠI reland
ĠKh iá»ĥn
tr al
ot es
Ġdis tress
Ġpro l
Ġpro v
ÄĲ á»©ng
Ġal ve
oc iations
iz z
Ġso uthern
qu ad
Ġinc ubation
Ġex isting
og a
ore ign
Ġ10 6
Ch á»įn
Ġim bal
Ġat rophy
ans on
Ġtho us
Ġad ren
Ġad aptive
Ġpre cur
Ġab d
Ph áºŃt
iv il
Äĳ oÃłn
Ġar r
Ġanti toxin
Ġun aw
Ġun iform
Ġ14 6
Ġ14 07
anc re
Ġcomp ounds
ific ations
ect able
Ġxá»Ń ng
ater al
ma a
Ġdiff use
ler gen
Ġtrans port
Ġlow est
pos ure
Ġgo itre
Ġgh en
Ġpol itical
Ġfai l
ie tic
ĠAr thritis
Ġdep os
Ġur ination
Ġend ocrine
sp eed
195 7
num py
Ġ23 6
NS ND
199 0
ĠAd ults
Ġsw ing
Ġmin eral
ĠAc id
Ġgu ideline
Ġlim bs
Ġz inc
oglyc emia
Ġold est
air s
ĠPre gnancy
Ġ186 1
Ġ186 2
Ġ186 4
app ear
Ġexp and
ero zyg
Ġhydro xy
Ġmild er
Ġmy xedema
Ġmy ocardial
ĠIs an
âĢĬ čĊ
Ġinst ance
Ġultr aviolet
ĠEl iane
iction ary
Ġenter ica
Ġpsych iatric
Ġprac tices
activ ations
Ġsulf asalazine
Ġsubst ance
Ġsubst ances
Ġging ival
input s
exp m
Ġmater nal
Ġcircul ating
mod ifying
ngh á»ĩ
Ġpen al
ĠHb S
ĠPath et
ĠGau ss
ĠPubl ishing
squ ared
Ġtee th
Ġbehavior al
Ġconcent r
ĠMari e
ĠDan iel
linear ity
ĠHAT T
Ġsmo ke
Ġtrigg ered
Ġker atin
Ġmic ron
Ġinher ited
Ġisch emic
Ġserv ices
ĠEth iopia
Ġaggress ive
Ġcef triaxone
ĠAppro ximately
Ġelectr ical
wor ks
Ġventi lation
ĠSoft ware
Ġfet us
æ¨ ¡å
ĠCad ogan
ibri o
ĠÄĲÆ¯á» ¢C
oscler osis
ebri le
broad cast
L iá»ĩt
M á»ĳi
S á»©c
b u
h á»£p
l t
t ual
z an
} (
Ç İ
á» ľ
Ġt asks
Ġc Æ°á»Ľc
Ġl Ã²a
Ġnh á»£t
ĠT áº£o
er ror
Ġthá» ĵ
ch en
or ation
Ġ( (
ĠÄĲ áº¥u
ĠTh ao
ĠTh áºŃn
ĠL ove
ĠD er
ĠCh ia
om atic
us iness
Ġ19 18
ul us
Tr ÃŃ
Ġpr incip
ĠO s
á»ħ u
Ġbá»ı ng
Ġad op
Ġ15 00
Ġ17 74
Ġnum erous
ari um
12 4
Gi áº¥y
arr ay
Ġláº» o
Ġrequire ments
ĠHy dro
Ġcr itical
Ġpercent age
Ġplace bo
ĠPy Torch
Ġclim ate
ĠArth ur
C á»ĳ
G áº·p
H Æ°á»Ľng
I L
M áº¥t
T áº¥m
T uyáº¿n
c Ã¡ch
f e
h Ãłnh
h á»Ļi
o on
p ad
r iti
s ulf
ç ¥
é ¢
á» ļ
Ġc Ã¹
Ġth al
Ġv ung
Ġb Æ°ng
Ġb ox
Ġm iÃªn
Ġs olv
Ġtr Æ¡
Ġd Æ¡i
Ġnh ÃŃ
Ġnh ang
ĠT od
Ġph áº«n
an alysis
Ġr Ãł
ĠC á»ĳng
ĠV áº¡c
ĠH all
ĠH ind
ch ange
Ġgi Äĥng
ĠM Ã¢y
ĠM áº¡t
al m
ar th
Ġo d
á»± ng
ĠÄĲ oáº¡n
ĠÄĲ á»Ŀn
ĠB lues
Ġin ser
ĠL áº½
ĠL ag
ĠL á»Ĺ
ĠTr áº£i
as tern
Ġngh áº¹n
el ong
ĠD at
ĠD áºŃn
ĠA ub
ĠK ap
Ġthu i
id i
Ġ19 24
ent y
od ing
). <
ĠR F
Th á»ĥ
Tr Ã²
Tr Æ°Æ¡ng
ho v
Ġtu á»·
ĠF estival
Ãµ m
Ġpar ent
ser v
Ġ16 00
Ġse ek
Ġag o
Ġimmun oglob
par ent
ici ans
Ġinter f
be an
acqu es
cl ip
Ġ193 4
ky ist
Ġ186 3
Ġpass ed
Ġ189 5
ĠMich el
Ġaccum ulate
Ġgreat est
188 3
Ġglyc ogen
ĠPhys ical
ĠlÃµ ng
Ġsurve y
VT C
Ġcompon ent
å± ±
ĠHug o
Ġcontrovers ial
ĠMex ico
ĠTrots kyist
O ut
b our
m ain
Ġc all
Ġl uá»ĳng
Ġb á»±c
Ġm áºŃp
Ġm áºŃu
Ġk ÃŃ
Ġn ine
Ġp lu
Ġg ets
Ġng á»ĳc
Ġthe ms
ĠM ah
it ter
Ġto uch
el ves
ĠD on
ĠD el
ĠD onald
Ġra w
ĠG ol
Ã© e
os yl
Ġe ver
tr um
ot le
Ġpro mpt
ĠU s
Tr áº»
Ġco up
tic ally
Ġ7 9
ĠO k
ack er
ath an
tim ately
Ġnam es
Ġcomp uter
Ġsh ell
Ġi x
ĠDo anh
str ing
Ġeff icient
Ġ189 7
ET ER
Ġestabl ish
Ġach ieve
Ġreas ons
Ġvir ut
ĠStan ford
ĠBer lin
Ġcalcul ated
Ġaim ed
Ġappl ication
Ġparticip ate
Ġcá»« u
Ġrough ly
ĠDep artment
ĠMass achus
Ġthems elves
ĠMassachus etts
" ],
B e
B á»Ĺng
C áº¥u
H Ã¡n
J ohn
J acquou
L eprosy
M á»Ŀi
R T
R Ãµ
T iáº¿t
T Ã´n
T uberculosis
T ube
b ial
b ottom
f un
g round
i ate
m ic
m fu
p uff
s uccess
v ocoder
w pe
Ġc erv
Ġc utaneous
Ġth Ã©
Ġh Ã¡o
Ġh áº¥u
Ġb á»Ńa
Ġm ood
Ġm Æ°á»Ľn
Ġm ercury
Ġm orning
Ġch á»ĵm
Ġs áº§n
Ġs and
Ġs aturated
Ġtr Ã³c
Ġtr ade
Ġk ne
Ġn ig
Ġn ail
Ġnh á»«
ĠT ang
ĠT Ãłng
Ġng á»Ńa
Ġph arm
an tial
Ġr ao
Ġr heumatic
ĠC ause
ĠC ancer
Ġqu áº©y
Ġa ortic
Ġvá» Ľ
ĠH á»§
Ġx iá»ģng
Ġhá» Ŀ
ĠM ill
ĠB Ãłu
ĠTh ang
Ġin effective
it r
Ġf ebrile
re compute
ĠS ound
ai d
Ġw oman
Ġto Ã¡t
ĠNg Æ°
ĠD a
ĠD ue
ing les
ĠA h
ĠA round
ĠA CE
ĠK Ãª
om on
th u
th yroid
Ã© rie
Ġlo ader
os a
ĠNh Ãłn
ac ute
ol id
-- ...
un squeeze
Ġdo ub
il it
st ones
if th
Ġpro p
Ġpro ph
Ġpro ven
Ġal tern
Ġal lergen
ati e
ate ur
Tr ans
Ġco ast
ĠF oreign
di e
ri p
ill ation
Ġit eration
Ġgen ital
ome ga
Ġre actions
Ġre habilitation
Ġpre ced
Ġab lation
ys h
ff ee
Äĳ áº¥t
Ġhyp ertensive
Ġper for
Ġun ex
Ġass istance
Ġse ems
dition al
Ġimmun ocomp
Ġgo iter
Ġpol lution
Ġrecommend ation
,... ).
ok ed
ĠLup us
Ġthere by
der ived
)) );
Ġmening itidis
Ġend ing
Ġser ies
Ġcor respond
Ġref lec
Ġlog ger
ire ct
iod ine
ĠAd amW
Ġdiagnos es
Ġestim ates
Ġpartic les
Ġdisc ol
ĠÎ Ķ
Ġindic ating
Ġ188 2
iev ing
"" "
Ġhe ight
Ġmil itary
AS T
Ġmuc ous
Ġlack ing
ĠThÆ¡ m
Ġlymph oma
Ġenc oder
cuda Mem
Ġequ ipment
ĠWood s
Ġabs ent
Ġles ion
Ġfung us
Ġrespons es
Ġmar keting
Ġassess ed
Ġtox ins
ifest yle
Ġcough ing
Ġfr ag
roc yte
Ġsol di
Ġdemonstr ate
Ġitch y
sequent ly
Ã¼ r
Ġln f
ĠAnd re
ĠDr ug
Ġdifferenti ated
bor ne
Ġmo ist
Ġobstr uction
Ġinvestig ation
Ġattem pts
Ġenlarg ed
Ġembed dings
Dia betes
Dia gnosis
ĠÎ¼ mol
Ġfeel ing
ĠYou Tube
Ġradio active
Ġscal p
-------------------------------------------------------------------------------------------------------------------------------- --------------------------------------------------------------------------------------------------------------------------------
ĠHAT Tr
Ġsmo oth
ĠPrim ary
SN R
Ġsoci oeconomic
Ġnarrow ing
ocl onal
ĠCR P
Ġoccup ational
Ġopportun istic
Ġmicrob iota
Ġlearn able
Ġfru its
Ġring worm
Ġfluor oquinol
Intern ational
Ġdestro y
Ġmaint aining
Ġconvention al
Ġrespec tively
icter us
Ġfing ers
ipro floxacin
Ġmembran es
ĠHaem ophilus
ophage al
ĠLear ning
thel ess
Ġdisturb ances
Ġsap hen
Ġdiscrim ination
ĠAdmin istration
ĠJa vert
Ep ilepsy
Ġabd omen
Ġimmunocomp romised
B iá»ĥu
N Ãºi
f eat
l Äĥng
áº ¤
Ġt Ã©p
Ġth áº¯c
Ġb áº§m
Ġtr Å©ng
Ġnh Ã¬
Ġg áº£y
on omy
ĠC ap
Ġqu i
ĠH á»ıa
ĠM er
Ġo val
ĠB á»ĵn
ĠTh á»Ń
ĠTh Ã¡o
ĠP ort
Ġho ld
ĠCh ap
Ġ19 02
Ġkho anh
ĠR oman
ĠÄĳá»Ļ n
19 39
ĠF ern
ĠF lor
ef ore
Ġ6 3
Ch Æ°Æ¡ng
Ġ18 59
pl ies
Ġ11 5
ĠAl i
ĠAl so
iss ions
yl on
cri ption
luc ose
ĠGiá» ¯
Ġhá»ķ i
Ġ> >
ĠLe g
Ġbo ok
mb ol
ĠErn est
Ġlab el
ĠMod ern
ĠSec urity
Ġnull ptr
" ):
B inh
C all
F unction
G Æ°Æ¡ng
H á»§
N á»Ļm
T a
U B
V Ãłng
b ut
b acter
h Ã¬nh
i pl
m ature
n Ã³ng
o ir
o tr
t uy
} .
è ¡
Ġ Ã³ng
Ġ amp
Ġ ^{
Ģ à¸
Ľ p
Ġt el
ĠÄĳ ong
Ġth Ã¢u
Ġv á»ĳi
Ġl iÃªu
Ġb áº¡
Ġm it
Ġch áº¹n
Ġs áº£ng
Ġs ph
Ġn á»Ļ
Ġp seud
Ġnh ai
ĠT á»ĳt
Ġkh Ãłn
Ġng Ã²
Ġng áº¥m
Ġng Ã¹i
ĠC Ã²
ĠC á»Ĺ
am ic
Æ°á»£ p
Ġqu áº¿t
Ġqu áº©n
Ġx á»ĳt
Ġx áº»o
ĠB as
ĠTh uyÃªn
ĠTh á»īnh
ĠL it
ĠL im
ĠL á»ģu
Ġcho Ã¡ng
ĠS on
ĠD et
ĠCh Äĥn
ĠK ent
ĠG reat
ĠG erald
Ġká» ģn
Ġ3 50
ĠGi áº£ng
ĠR á»ĳm
ĠThe ir
ÄĲ Ã¡m
up s
ho w
ĠF Ã©
ex pr
ĠAn cient
ĠO ral
Ġchu á»ĵn
Ġ8 7
ne au
Äĳ Ãło
Äĳ áºŃu
Ġun its
ĠAl ternative
sy l
anc ement
Ġno tice
ĠIt aly
Ġâ ĭ
Ġdes ign
ran ean
Ġfol ic
Ġhel i
Ġapp ly
Ġmain tenance
Ngh Ä©a
ĠCol l
Ġexper ts
ĠLu ther
iter ranean
ĠGu ill
Ġvers us
ush ing
tif ied
tif ication
Ġneur onal
rup uk
ĠSm all
ĠXV II
ĠRec ords
ĠMau rice
rad y
à¹ Ī
à¹ Ģà¸
orph y
ĠAnd rew
ĠBig eard
åľ ĭ
Pl us
ĠLem ur
Ġpriv ate
Caf Ã©
ĠMalacc a
B iáº¿n
B á»Łi
D á»±a
F I
G u
I F
L o
L Ã¡
o int
t á»ķng
Ġt eo
Ġc uá»ĳc
Ġb ool
Ġs iáº¿t
Ġs á»ĵi
Ġd ead
Ġp i
ĠN Y
ĠN ic
on ly
ĠV ari
ĠV II
ar um
ar ial
ĠÄĲ Ãĥ
ĠB or
Ġin n
el le
us ted
us ual
Ġ19 11
Ġpro j
ÄĲ Ã¡i
ĠJ am
ph ia
Ġ0 5
Ġpar ameter
tiv es
Ġcoun ter
Ġcons isting
Ġhelp s
Ġmod ified
196 1
ĠCom p
Ġed ition
ĠPol icy
ĠLang uage
ÃĶ i
Ġenter ovirus
Ġlau n
ĠRet urns
acet aminophen
Ġminim um
ĠWh ite
Ab out
Tim e
Res ult
áº¾ T
ĠSimilar ly
adel phia
! !
1 19
D evice
K iÃªng
M P
O steoarthritis
S y
S LE
S ymptom
V á»Ļi
a a
b ital
b wd
b lastoma
d ated
e ng
f used
h h
i ella
k á»ĥ
n air
u x
z id
« ĺ
Ê °
ä ¼
é ģ
é «ĺ
ŀ ĭ
Ġt áº¥p
Ġc el
Ġc áº§y
Ġc iprofloxacin
Ġl umb
Ġl Æ°á»£m
Ġh áº¯t
Ġb ound
Ġch at
Ġch áº£i
Ġch á»«a
Ġch Ã¬a
Ġs n
Ġs Ãªnh
Ġtr ac
Ġtr opical
Ġk iá»ĥng
Ġn a
Ġn Ã£
Ġn et
Ġp an
Ġp us
Ġnh á»Ń
Ġnh á»įc
Ġnh Ã£o
ĠT á»Ŀ
ĠT ype
ĠT IA
ĠN á»Ĺi
Ġr á»ĳng
Ġr ural
on ephritis
ĠC ertain
en osis
ti nh
ĠV MN
ĠH uyáº¿t
ĠH istor
Ġx áº¿
Ġx iÃªu
Ġgi j
ĠM ÃĢ
Ġo st
ĠB lud
ĠL áº·c
ĠL ind
ĠL á»§ng
Ġan tic
Ġan tim
Ġf map
ĠS te
ĠS ever
Ġto Ã©t
el itis
ĠNg á»įa
ĠD DP
ĠCh uyÃªn
ĠCh Æ°á»Łng
ĠG áº§m
ĠG ame
ĠÄĳÃ³ t
th á»ĭ
Ġ19 25
ĠNh am
ĠNh áº¡n
ac an
Ġis onia
ĠQu Ã¡i
od erm
ir m
Ġy ards
op rim
ev ich
Ġkho Ã¡t
ĠR ous
Ġdis play
Ġdis comfort
ep tic
ep tide
ÄĲ iÃªu
Ġal lev
oc ol
Ng á»ĵi
Tr Ã¨o
ĠE S
ho le
rom atosis
Ġst enosis
Ġcom orbidities
Ġdi oxide
ĠF anl
Ġso uth
ĠIn s
Ġres emb
Ġres onance
Ġ10 2
ĠAn y
ĠO C
ĠO ai
Ġ18 58
Ġ9 39
ure a
pl asia
Ġsp ont
Ġsp eak
ak y
Ġca ff
Ġ0 9
Ġtim eline
Ġre al
Ġre active
Ph Ã¹ng
av ir
Ġinf lix
Ġ17 9
Ġcont acts
Ġpl anning
ven tive
ou thern
Ġ14 42
Ġj ud
Ġcomp ression
ĠThu áº¿
Kh Ã¡c
con ceptions
ect in
ect ure
18 6
ĠĠĠĠĠĠĠĠĠĠĠĠĠĠĠĠ ĠĠĠĠĠĠčĊ
Ġthá»ķ n
---------------- ----
Ġcol our
pos ite
Ġover ride
ĠTo áº¡i
Gi ao
lob ally
Ġinter mit
Ġinter course
Ġind epend
14 07
til le
Ġins uff
Ġreg ulation
Ġ25 6
olv es
Ġdet ails
Ġhypoth es
Ġsa ve
Ġmon oclonal
Ġlif elong
Ġvitamin s
Ġhá»© c
Ġval ve
Ġle ave
Ġspread s
60 2
pre att
ĠâĪ ĳ
Ġalbum in
Ġmeas les
Ġmeas uring
Ġadv ised
och ine
Ġinj ected
po int
Ġwork ers
Ġhand icap
iter ations
Ġinitial ized
omy opathy
fil er
Ġvis its
eph al
loc Check
medi ately
Ġarter ial
Ġren in
Ġcommun ities
AM ETER
ĠCO PD
Ġcalc itonin
Ġga it
Ġnat urally
ä¸ Ń
Ġsuper f
ĠIm mun
Ġsubst antial
eth oprim
Ġbehav io
Ġè Į
Ġgreat ly
Ġplac ed
ocy tic
ĠMac nair
Ġpathogen ic
ĠĠĠĠĠĠĠĠĠĠĠĠĠĠĠĠĠĠĠĠĠĠĠĠĠĠĠĠĠĠĠĠ ĠĠĠĠĠĠĠĠĠĠĠĠĠĠĠĠĠĠĠĠĠĠĠĠĠĠĠĠĠĠĠĠ
qkv b
Ġproced ures
Ġdiscover y
Ġput ting
TP O
Ġelim ination
Ġoper ating
Ġdang erous
Ġtoxic ity
abil ities
Ġthick ening
ĠVacc ination
To Ã¡n
Ġanal og
Ġchemical s
ĠÄĲá» Ĥ
Ġure th
ĠPe eves
wd bwd
ĠÆ¯ á»Ľc
Go ats
Ġtrigg ers
Ġepithel ium
Ġaccept ed
Ġtempor ary
Ġmes alazine
Ġmob ility
ifer ol
Ġconc luded
Ġens ure
ĠVas ili
ĠLeon id
Ġauthor ities
De ngue
calc itonin
Ġhet erozyg
caus ing
Ġant agon
ĠPR ECISION
Ġwash ing
Ġmaxim um
ĠPac ific
Ġdiure tics
ĠMT A
Hen ry
Ġimmunodef iciency
Cong enital
PAR AMETER
æ¨¡å ŀĭ
ĠKap osi
Symptom s
ĠBlud ger
Ġisonia zid
ĠFanl ac
Ġcaff e
Ġintermit tent
H Ã´m
M inh
N Ãªn
P hi
W ith
o ot
t am
Ġch áºµn
Ġs ust
Ġs plit
Ġk il
Ġd iá»ħu
Ġnh eo
Ġng áº«m
an um
Ġa st
ĠV ers
Ġx á»Ļn
ĠL á»Ľp
ĠS S
ĠD Ã¬
ĠCh á»©ng
ĠCh áº£y
ĠNh Ã£n
ĠR Ãºt
ab ase
eat s
ĠIn formation
ĠAn th
Ġpar ti
ous e
ĠSt one
Kh Ã¡i
pec ts
16 0
Ġ[ '
Ġ[ -
ple x
Ġactiv ations
Ġlang uages
Ġ193 3
ĠCl in
ĠEn ter
ĠFl aviv
Ġcateg ory
oqu ine
ĠrÃ¬ u
Ġaccoun ting
sk ip
) -
2 50
: "
B Ã²
C áº§u
C ardi
D omin
H ay
H uyáº¿t
K iáº¿p
L iá»ĩu
L ow
M uá»ĳi
X Ã¢y
Z E
c at
f ast
l f
m á»Ł
p ace
t Ã¬nh
z hn
ç Ľ
Ġ Ãª
Ġ ))
Ġ ãģ
Ġt áº©u
Ġc Ãło
Ġc ycl
Ġc ocaine
ĠÄĳ uá»ĳi
Ġb Ã¡ng
Ġb iáº¿u
Ġb iáº¿c
Ġm Æ°á»£t
Ġch iá»ģn
Ġch um
Ġch áº§m
Ġs ent
Ġs ites
Ġk á»ĭ
Ġk Ã¨n
Ġn om
Ġd Æ°ng
ĠT en
Ġkh Ã¨
Ġvá» ¹
ĠV ideo
ĠH Ãłi
ĠH Ãło
ĠH áº¡m
ĠH ip
or ial
Ã£ nh
al c
al icyl
ĠÄĲ Ãºc
ĠB arry
ĠL m
ĠL áº¡n
ĠL ump
Ġf eral
au g
ung e
el ve
ĠÄĳÃ£ ng
ic ate
ang er
ĠK n
us ing
em p
ent z
ac illus
ĠI ron
ad ian
Ġkho Ã©t
ĠR ol
ĠX oÃłi
tr Ãºc
Th Æ°á»£ng
Th uyáº¿t
oc on
Ng á»įn
ĠE astern
Ġby tes
ĠF ar
ell er
ef ined
Ġex amples
ĠJ acques
Ch ÃŃ
Ch Ã¨
ĠY oung
ĠY emen
ib bean
Äĳ iá»ĩn
16 6
Ġdec isions
val id
Ġlog ging
Ġclass es
ĠMed iterranean
Ġnucle i
Ġsulf ate
Ġngá»¥ m
178 9
ĠHung ary
ĠDomin o
Ġdocum ent
Ġembed ding
van ia
ĠCong o
ĠBre zhn
Ġheal ing
Ġclus ter
Ġwalk ing
ĠKol ko
ĠMyan mar
ĠEduc ation
ĠPenn syl
ĠBrezhn ev
ĠPennsyl vania
" ]
' ).
C Ã¡
C ung
D ec
G S
O OP
U I
V á»Ł
V NS
a j
c Æ¡
g am
m atic
p ow
r ant
Ã Į
á» Ķ
ĠÄĳ Ã¹i
Ġv oid
Ġl Ã¹a
Ġh áº¥n
Ġb ran
Ġm Ãªnh
Ġch Ã¹i
Ġnh áºµn
Ġkh áº½
Ġng áº¡t
Ġph á»Ľt
ĠN áº±m
Ġr Ã²
Ġa eg
Æ°á»Ŀ m
ĠH em
es us
ĠB on
ĠB Ã´ng
Ġin ch
ĠL Ãªn
ĠS el
Ġto áº£
ĠD iá»ĩn
ĠD ow
ĠD MO
ĠCh Ãł
ĠK an
Ġlo oking
Ng Ãłnh
Ch Ã¢n
and y
gr ession
ind ing
ou x
Ġsc ar
Ġinter mediate
emb ly
Ġcam era
ĠGu ide
ĠPhil adelphia
ĠOr ig
Ġfib er
Ġvis it
Ġpossib ility
Ġcateg or
ĠBul g
EX IT
ĠHawai i
Ġoval e
ĠDMO Z
' '
= %
B áº¡c
C ereb
D elta
I LU
K V
L L
M Ãły
N á»Ńa
N áº¯m
R e
S kin
S pec
T wo
X Ã´
\ ,
c ore
c ublas
d ependent
f at
j ors
l ia
m ology
n x
n Ã´ng
o z
r actory
s uy
s Ag
t Ã´
v áºŃt
¯ Ģ
Î »
ã Ģ
å ĵ
ç ĭ
è ¦
è ·
Ġ Ã¡ng
Ġ 000
Ġ àº
Ġt Ã³
Ġt ent
Ġt ired
Ġc áº©u
Ġc ured
Ġh eat
Ġh áº¡p
Ġb ig
Ġb ad
Ġb uá»ĳt
Ġb agoong
Ġm áº¡
Ġm Ã£o
Ġm ount
Ġch uá»ĳt
Ġs Ã¢m
Ġk Ã©n
Ġk rupuk
Ġd Ã¨
Ġd iá»ģm
Ġnh Ãºn
Ġg Ã¡p
Ġg Ã´n
Ġg he
Ġg pu
Ġg sumi
ĠN Æ°Æ¡ng
ĠN ano
Ġr od
Ġr std
on to
en ia
Ġqu áº¡
Ġqu estion
Ġa ther
ti ary
ĠV ibrio
ch Ã¢n
ch ia
or ax
ĠM at
ĠM Ä©
ĠM Äĥng
ĠM Ã¨o
al d
Ġo ur
ĠÄĲ áº£n
ĠB á»Ŀ
ĠL Ã¢y
ĠL ifestyle
it ron
Ġf lo
ro tic
ĠS Ãª
ĠS á»¹
ĠS outhern
Ġw pe
Ġw estern
ung ji
el t
Ġho l
ang eal
ĠD unc
ĠD ie
ĠK idney
ĠK atie
th es
ia bility
im e
os an
os um
os copic
ĠNh á»¯
ur ch
ur ungji
Ġcon se
ol er
ĠR á»«ng
ĠÃ Ĺ
ab it
Ġst ain
Ġst ated
se izure
qu ant
qu ality
Ġpr one
ri ers
Ġim age
Ġim mediately
ph Ãª
ph ÃŃa
Ġ18 54
Ġat ypical
ary nx
pl ained
Ġsp ir
Ġ{ '
ak er
ĠLong bottom
ach n
ĠHu ffle
Ġwas ting
Ph Ãºc
ĠNgh iá»ħm
Äĳ iá»ģu
ip s
Ġar ms
Ġ11 4
ĠSt ate
Ġmed ieval
Ġ14 28
Ġbu Ã½t
anc k
Ġman ufact
Ġsh is
Ġsh ots
18 02
Ġse ed
Ġrel ax
lamm ation
Ġover l
Ġcl ar
Ġen vel
12 8
Ġund ern
Ġret ention
Ġstr ict
Ġspec im
Ġcons ume
Ġes tr
ox azole
Ġrecommend ations
Ġgr aph
ct u
Ġvacc inated
Ġreg ulatory
ich ia
icro bial
Ġdep riv
be ing
com plicated
Ġcor recting
Ġsim ult
Ġaut onomic
Ġactiv ated
Ġcancer ous
Ġflu ctu
att projb
Ġref lex
Ġmulti drug
erc ise
line Plus
Ġiniti ation
198 5
Ġmin i
Ġcontrol ling
Ġtransm it
Ġgener ated
Ġadv ances
ucle in
Ġback ground
Ġinj uries
Ãģ nh
Ġneuro de
ĠPre ventive
ched uler
St roke
Ġhem e
Ġsugges ting
ogn itive
Ġmechan ical
omy elitis
Ġepid em
Ġnucle on
ĠGal en
Ġpath ological
Ġcolon y
Ġenc ounter
ÃĶ I
Ġ54 1
Ġvect ors
TT g
pan ic
Ġair way
Ġstand ing
Ġgovern ments
fc b
fc projb
ĠnÆ¡ ron
infec tious
Ġlist ed
Ġexc lud
Ġmeasure ments
Ġallerg ies
ĠJava Script
rov irus
Ġpen ins
Ġreach ed
iffer enti
Ġmag netic
Ġexpl ain
äº º
Ġaim s
Ġter rit
Ġadj ust
Ġmosquito es
Ġdifferenti ate
Ġsimple x
Ġmo tion
sid ed
Ġrestr iction
ĠHyp ertension
Ġtradition ally
FA ILU
================ ================
ĠTyp hi
token izer
Ġgall bladder
Ġver te
åŃ ¸
ĠHep atovirus
ilin ogen
sl ice
ĠÄĲo Ã²ng
Ġparas ites
Ġmetast atic
multi step
Ġattach ed
ĠCour cy
Ġprec ip
Ġdeform ity
Inf lammatory
Ġepithel ial
Ġbac illi
Ġexcre ted
Ġconj unc
ĠRem us
Ġepiderm al
chlor oquine
Ġoxid ative
elic obacter
Ġrig idity
athi op
Ġmorb idity
ĠSat an
Ġagricult ural
extract or
El iane
olok hov
Ġpromin ent
Ġfibr illation
pat tern
opo ietic
lamy dia
Ġplat el
ĠBonn al
Ġinterf ere
Ġkne es
Ġinflix imab
Ġindepend ence
Ġinsuff iciency
Ġsuperf icial
Domin ique
Ġconse quences
ĠHuffle puff
Ġdepriv ation
FAILU RE
C áº¯t
S econd
U r
b ly
g ic
h Ãłng
Ġ Ã¡
ĠÄĳ á»ĳm
Ġh áº¡c
Ġm ind
Ġch á»ĩch
Ġnh á»Ļn
Ġg áºŃp
Ġkh ay
Ġng Ã¡y
ĠN et
Ġr i
Ġr á»ģn
in ia
ĠC urrent
ĠH om
es tic
ĠM ul
re y
Ġ2 18
th Ã´ng
Ġcon jug
tr Ãªn
ĠU B
ĠU á»·
ĠF ace
Ġ18 74
to Ãłn
Ġblo g
anc ial
ail ability
Ġmod ule
An ti
Ġsen se
ĠGr aham
Ġelectron ic
ĠUN ICE
Ġnucle ic
ĠPr inc
ĠInt roduction
Sm ith
ĠNig eria
ĠArist otle
ĠUNICE F
! ".
1 30
B o
C áº£nh
C ampuchia
D et
H á»ĵng
L Äĥng
L á»ĩnh
O M
R ichard
S Ã¢n
S á»ĳng
T á»ĳ
V áº¡n
V iet
b Ã¬nh
c p
c est
g row
g Ã©rie
k ing
k Ã©p
m ph
n ucle
t ation
å º
ç §
é Ŀ
Ġ á
ī u
ĠÄĳ Æ¡
Ġth Ãł
Ġth áº£y
Ġv Ã£i
Ġv ital
Ġh Ã¡ng
Ġh Ã²ng
Ġh orn
Ġm á»ĳt
Ġch Æ°
Ġs á»¯ng
Ġn i
Ġd ating
Ġg Ãłi
Ġg áº¯p
Ġg ames
ĠT á»ĳi
ĠT Ã²ng
Ġng áº£i
ĠN I
ĠN á»Ł
ĠN Ãºi
ĠN Ã©m
Ġr áº±n
er ical
er ick
ĠC CR
Ġa erobic
Ġthá» īu
ti st
ĠV iÃªng
ĠV ND
ĠH á»©a
Ġx Ã©n
ch ev
Ġhá» ī
is ory
ĠM es
ĠM odel
ar ter
ĠÄĲ Ä©a
ĠTh áº©m
ĠL od
ĠL ess
Ġan cest
Ġf ine
Ġf usion
ro ti
ĠD ick
ĠPh áº«u
ĠK ual
th Æ¡
im ir
Ġbá»ĭ ch
Ġcon version
Ġdo ing
ir th
um es
ig moid
ÄĲ á»Ļc
end if
Ġus age
Ġtin y
ĠJ azz
Ġ18 90
Ġvi v
te e
Ph Ã¹
Ġá» Ĳng
Äĳ á»Ļ
Ġthi u
Ġ11 8
Ġap plications
ĠAl gÃ©rie
anc ies
Ġman ual
Ġsc oring
ĠMal col
con st
ct x
Ġtrá»¥ y
Ġindi e
vidual s
NS I
Ġ90 5
Ġlim its
ĠMed ia
Ġmicro organ
Ġoff set
ĠÃļ t
Ġsyn thetic
fil es
Ġ178 6
Ġmat rix
Ġneut ral
Ġinst ability
Ġline ar
sc ore
obacter ia
Ġpur p
ugg ing
åħ ĥ
Ġpen et
PD F
Ġglyc oprotein
Ã¼ n
Ġoper a
cher ichia
col i
Ġnor th
Ġclai med
Ġtit le
ĠRoy al
ĠFour ier
ospor in
Ġcá»į p
çĶ ¨
Ġindustr ial
Ã§ ois
Ġimm ig
Red uce
Ġliqu id
ĠHind u
ĠLump ur
ĠLod ge
ĠKual a
ĠMalcol m
B rain
B arr
C ol
H er
J ames
M Ãłu
R o
S e
T áº¡m
V A
c uá»ĳi
f ailure
v in
Ġt Ã¬
Ġth ings
Ġb yp
Ġb iáº¿m
Ġm ul
Ġm áº¥u
Ġs áº£o
Ġs á»§a
Ġn as
ĠN ash
Ġr iáº¿t
Ġr Ã²ng
Ġq uyá»ĩn
ĠC Æ¡n
Ġthá» ıi
ĠH ub
Ġo k
ĠTh er
ĠL and
at emal
ĠTr áº§m
it an
ĠS ky
ĠNg áºŃp
ĠD Æ°á»£c
ĠG er
em an
id ed
Ġ19 17
Ġdo e
od end
ut in
ev en
ĠR ome
ap er
Ġres olution
og er
ĠJ ac
ĠJ esus
Ch iá»ģu
Ch Ãºc
eo xy
to ine
Ġ15 5
ĠThu á»µ
ma zon
pos ing
16 2
Ġgo es
,... ,
Qu áº§n
Ġpo inters
Ġob ject
198 6
198 7
over n
ĠMc C
Ġ189 6
Ġ189 9
activ ation
Ġhost s
tt p
Ġconfirm ation
ĠVir gin
ĠEv olution
Ġord ers
ĠAspir in
1 14
A CT
B ao
D B
D S
E s
G olf
K I
L upus
L IS
L oader
M A
R áº¥t
T Æ°
T SH
U nd
V á»£
W h
] ]
d Æ°á»Ľi
d ose
f ac
h Ã¡t
h em
h Ã²a
i ated
l áº¥y
n Ã³n
s izeof
t á»ķ
t anh
u ated
x en
x uáº¥t
z ov
Î ³
å ĩ
å Ĭ
è ¿
é ĥ
Ġ Ã©n
Ġ á»ıi
Ġt Ãły
Ġc attle
Ġth Ã¡n
Ġl ig
Ġl ines
Ġh params
Ġh iddens
Ġb áº£
Ġb ath
Ġb áº¹p
Ġb Ãªnh
Ġb ring
Ġm ask
Ġm RNA
Ġm oney
Ġch áº§y
Ġch amp
Ġch ills
Ġtr unk
Ġk Ã¨
Ġn áº¡t
Ġn áº¡m
Ġn one
Ġd áº¹t
Ġnh á»ķ
Ġnh á»ī
Ġnh Ã³c
Ġg old
ĠT erm
Ġkh áº¯t
Ġng á»¡
an ol
in ence
am ew
ĠV en
ĠH Æ°u
ĠH elicobacter
es ic
Ġx t
Ġx Ãª
ch áº£y
Ġhá» Ŀi
Ġgi áº·t
Ġthe ories
ĠM eas
al ities
Ġo ang
ĠTh ings
ĠL áº¡ch
at ten
ĠTr á»£
ĠTr á»«ng
ĠP Ã´n
Ġf p
Ġf u
Ġcho lang
re ening
ĠS Æ°Æ¡ng
ĠS ai
ic ting
ic tive
ĠCh im
ĠA k
ĠA th
ĠA NA
le b
ĠK at
ĠK it
ĠK eral
ĠK uz
ĠG l
ĠG ag
ĠG inny
em ble
th ood
th resholding
Ġlo cus
im entation
ol li
Ġdo xyc
um in
um ing
um ann
st ances
tr ained
Th áº§n
Ġpro xim
iti me
ÄĲ inh
ÄĲ áºŃu
oc ide
ati z
Ng Æ°á»£c
ab sor
iz ures
Ġco w
Ġst ory
Ġso on
ex ists
Ġex am
Ġha z
ri pt
Ġim mediate
Ġvá»¥ ng
and ard
ph ong
ĠO ps
ill aries
Ġ8 77
Nh á»Ŀ
ens ively
Ġsp ots
ost omy
ost omatitis
Ġad ul
ort ex
Ġpre mature
ĠÃģ p
Ġcas h
ov enous
Ġar ise
Ġper oxid
Ġanti viral
Ġun ique
Ġun usual
ĠSt udy
Ġne g
Ġne igh
enti ce
ud nn
Ġass ociations
Ġcomp uted
Kh Ãºc
Ġsc aly
18 20
ĠĠĠĠĠĠĠĠĠĠĠĠĠĠĠĠ ĠĠĠĠĠĠĠĠĠĠĠĠĠĠĠ
ĠcÅ© i
Ġag ing
Ġcl ip
Ġret rovirus
Ġpol itic
Ġpol icy
Ġup dated
,... ),
Ġsub stit
Ġâ Ħ
Ġmal form
Ġop posed
omen on
Ġu rob
be tic
Ġhypoth al
Ġend oscopy
Ġappro xim
ĠMar sh
Ġaut osomal
sh akespeare
sh aped
ĠPro f
ening ococcal
Ġappear ed
NS AIDs
Ngh á»ģ
dr aw
Ġcompl icated
Ġshow ing
198 1
arr ing
ĠCol omb
Ġadv oc
Ġadv ice
Ġconsid eration
ĠMed ication
ĠDis orders
++ ,
Ġulcer ation
ĠInd ex
Ġhep atic
Ġneuro s
ĠCl iff
ĠSome times
Ġdefec tive
Ġrequire ment
ĠGu atemal
enic ol
Ġrepl ace
sych iatric
Ġcap s
Ġcap illaries
ĠGal lup
math cal
Ġcolon ic
ĠGPT Config
tle bor
Ġprob ability
ĠIC C
Ġarter i
ĠAt tlebor
Ġvers ions
Ġisol ates
Ġavoid ed
Ġeryth romycin
opath ic
Ġincreasing ly
ĠEr rol
Ġsuper ior
ĠPl anck
Ġ! ==
ĠTho Ã¡n
ĠSe amus
Ġgonorr hoe
Ġallerg ens
roc yt
Ġlaryng eal
ĠSer ies
ĠGene tics
ĠPneum onia
ĠJan e
Ġelim inated
Ġspond ylo
Ġmonitor ed
chem istry
ĠOc casionally
Ġcarry ing
Ġinvestig ated
mal locCheck
Ġsick ling
Ġsecre ted
Ġsecre tions
æĺ İ
Ġanal ges
åĪ Ĩ
Ġcoll apse
lang le
AL T
ĠMin ister
Ġimmunosuppress ive
Ġextrem ities
net zov
run ning
ĠâŁ ¨
ĠKar now
Ġadh erence
ĠPenins ula
Ġaz athiop
Ġtrim ester
ĠSec ret
Ġabsor ption
Ġcompon ents
Ġbac illus
ĠNeuro logical
Ġexcre tion
Î¼ L
Ġconj unction
ticular ly
Ġvalid ation
Ind ochine
ĠLor entz
ophy ton
Ġinterfer on
embed ding
Ġdiabe tics
gene tic
Ġveget ables
inv asive
ĠDut y
Ġpig ment
Ġcircum stances
ameth oxazole
ĠCab ot
ĠWat son
ĠKhrush chev
Ġfore ign
Ġpolys accharide
amph enicol
rolog y
Pneum onia
Ġpallid um
Ġacetyl chol
Ġimbal ance
speed up
sulf amethoxazole
ĠAub rac
ĠAh ern
Ġproph ylaxis
ĠLit tle
rady kinesia
ĠVasili i
achn oid
Ġpenins ula
roti zing
Ġpurp ura
ĠKeral a
ĠKuz netzov
Ġmalform ations
ĠAttlebor o
A ss
K ÃŃnh
L Ä©nh
M c
M áº¹
S tr
T S
g Ã¢y
n Æ¡i
} )
Ġc áº¡o
Ġl Æ°á»Ŀi
Ġl áº¹
Ġs qrt
ĠN á»Ĺ
ĠC ost
en ne
ĠV ai
ĠM eth
ĠÄĲ áº£m
ĠB á»¯a
ĠTh áº±ng
ĠTh ough
ĠL anc
ĠP C
as i
Ġf ur
Ġto ols
ĠD Æ°a
ĠA CP
ĠA mazon
os ide
ur i
il ton
Ġas pects
ĠR i
ĠX a
tr ue
ĠW ork
Ġon line
ĠF irst
Ġtá»¥ t
ĠJ ak
ĠJ eff
Ch ia
ĠAn alysis
ph e
ĠO ld
Nh iá»ħm
Ġchi p
Äĳ Ã³
tim ate
Ġ11 6
ĠSt ephen
ĠAl ice
Ġ13 00
Ġinter est
Ġbacter i
ĠSa h
13 5
ĠPro duc
ĠSc i
Ġbel ieve
Ġgener ate
ĠCl ark
ĠtÃŃ p
ĠPl an
ĠSe a
ĠSer ver
NI CE
amew ork
. \
B áº¥t
C ID
E P
E V
O C
P AC
T á»Ľi
W omen
b Ãłi
g ment
h ot
i ance
m áº·c
n ia
p ect
q uy
t Ãª
v is
w orld
Ð ¸
å ¡
è ª
è ĩ
é Ģ
Ī ŀ
Ġt Ã¡p
Ġv Ã²i
Ġl áº¡ch
Ġl ys
Ġh on
Ġb ib
Ġb lack
Ġch Æ°á»£p
Ġs áº©n
Ġtr á»įt
Ġn Ãłi
Ġp orphy
ĠT I
ĠT i
ĠN ile
Ġr áº¡
Ġr up
in ks
ĠC oh
ĠC AD
am ate
ĠV N
ĠV o
ĠH á»Ľi
Ġx x
ch Ã¨
ch ÃŃn
or th
Ġgi Ã²i
ĠM áº¯t
ar ch
ar se
ĠB áº§n
ĠTh oáº¡i
Ġin ner
ĠTr Ãło
ĠP rac
ro d
ĠS ung
ĠS uá»ĳi
ĠS uch
ĠS now
Ġngh áº¹t
Ġw and
el o
Ġho t
ĠNg o
ĠD am
ĠD iÃªu
ĠD uyá»ĩt
ĠCh á»ĵng
ĠCh urch
ĠG re
ĠG áº·p
ĠG á»ĳm
em por
im al
ol ip
ad en
ad aptive
Ġ3 000
ĠR áº±m
ĠX Æ°a
Th á»ĭ
Th Ãºc
ÄĲ áº·t
Tr Ã¡i
ĠE dition
ĠE EG
tic k
Ġ6 50
Ch Ã¨o
Ġ9 38
pl us
ĠY ang
Ġsp eech
ib ility
Ġad ding
av ior
las e
Ġar sen
Ġpl ants
10 5
Ġ30 4
Ġ30 5
Ġsc ience
Ġde grad
Gi Ã¡c
Gi ang
Ġgo ing
par t
res et
Ġmal loc
Ġproduc t
à¸ ¥
à¸ ķ
Ġhelp ed
Ġsen cha
ĠRo ber
Ġnhá»ĭ n
spec ies
ĠSch ool
Ġsk el
Ġ54 4
Ġprob able
àº ²
àº ģ
Ġequ ivalent
ĠCO N
ony m
ĠFred erick
ĠEncyclop edia
ĠPM C
Ġcircul atory
Ġtarget ed
ĠWik is
Ġacqu ire
ĠRep ublic
gorith ms
adv ancement
Æ¯á» ľ
Ġimplement ed
Ġmicros copy
ĠSur ve
Ġfin ancial
ĠRad io
ĠId ol
Ġdirec ted
Ġrá»¥ m
disc rete
Ġwrit ten
Ġvul ner
ĠFried rich
Ġud ang
ĠFern and
çĭ ®
B l
B Ã³ng
B á»įn
G á»Ńi
L u
U l
V á»¥
b áº¥t
c Äĥn
c uá»Ļc
d ue
h Æ¡n
i os
r h
u tive
Ġl Ã³
Ġch Ãłm
Ġch annel
Ġtr á»ĩ
Ġk eo
Ġg Ã¹
Ġph anh
ĠC oi
ĠH Ã´n
ĠM ap
ĠB iology
ĠTh ree
ĠL ayerNorm
ĠP lay
it ems
Ġw ild
Ġho áº£
ĠK a
Ġcon ven
ir es
ĠR Ãµ
ĠR eal
ĠR iver
ĠX Æ¡
ĠHo t
yp ti
ĠE mer
Ġst ay
ĠF orm
qu ang
Ch Ãło
Ġat trib
ens ions
ak s
ord on
Ġcont ent
Ġsh if
ĠUn ion
ĠUn ix
Ġnhu áº§n
Ġhel per
Ġ` `
Ġsec tion
Ġro ot
196 2
195 1
Ġ27 0
22 6
Ġ22 6
Ġev olution
Ġfour th
Ġax ÃŃt
Giá» ĳng
ĠAS T
ĠAb r
tif y
ĠSp ace
Ġkeep ing
lev el
ĠMel bour
ĠTyp ically
Ġsynth esis
ĠStal in
Ġaff ord
heal th
ÃĬ N
hel m
ĠValue Error
ĠJoh ann
Ġadop ted
Ġaeg ypti
ĠMelbour ne
: ]
B áº¿n
B iá»ĥn
B Ã©o
C Ãłng
D Ãłn
D áº«u
H igh
J aundice
M R
M áº¯t
O r
S yphilis
S ince
S evere
T iÃªn
T áº§ng
V C
c ence
c ode
d ilation
f an
f ibr
f ungal
h aus
h aps
i ologic
k á»¹
l amps
m ay
m á»Ĺi
n ccl
o ire
r l
r á»ĳi
r heumatic
s ack
t z
t Äĥng
t yp
v i
¤ ħ
Ð ½
å Ģ
æ ī
ī é
ķ æ
Ġt Æ°ng
Ġt Ã²i
Ġc ities
Ġc itiz
ĠÄĳ uá»ĳc
ĠÄĳ Ã´n
Ġv ic
Ġl á»įi
Ġb ic
Ġb áº±m
Ġb iliary
Ġch ao
Ġs i
Ġs Ã¬nh
Ġs á»¡
Ġs ides
Ġn ations
Ġn urs
Ġd áº«u
Ġd omain
Ġp lastic
Ġnh Ã¡c
Ġnh Ã¨
Ġnh áº±n
ĠT iÃªm
ĠT á»µ
Ġkh áº¥n
Ġng á»Ĺng
Ġph iáº¿n
an y
an ine
Ġr Ãły
Ġr Ã¡t
Ġr Ä©
er ated
er ior
Ġq kv
ĠlÃł u
ĠC áº¥p
ĠC á»«
Ġqu ite
Ġa th
ĠH á»ĳt
Ġhá» Ń
is ch
ĠM á»ĵng
ĠM all
ĠM ild
ĠM eningitis
al loc
ĠB ia
ĠL P
ĠL Ã²ng
ĠL ist
ĠL evel
ay u
Ġan terior
ĠTr iá»ĥn
ĠTr adition
as one
Ġf lor
re lu
ĠS qu
Ġto urs
Ġho i
ang iotensin
ĠNg ang
ĠD D
ĠD ir
ĠD irect
Ġra ce
ĠK ÃŃch
ĠK Ã¨n
ĠG MT
Ġlo se
ĠNh iÃªu
Ġcon current
ĠQu i
ation Tensors
ĠI P
ĠI l
ter ase
Ġ3 37
Ġfor amen
ĠR ag
ĠR ates
ĠR heumat
ĠX ÃŃch
ĠX Ã©o
Ã¨ ne
Ġor th
á»£ n
Ġdis appear
ĠThe od
ry l
Ġpro ve
ÄĲ á»©c
ÄĲ á»«ng
oc ity
ĠW idal
Tr áº£i
19 47
Ġtu á»Ļt
Ġst un
tic ed
Ġdi ameter
Ġres ection
Ġres emble
og ey
Ch áº¯c
Ġbá»ĳ t
ĠO hi
ill ed
ens itivity
Ġsp or
Ġad ap
Ġrec tal
Ġmen op
Ġcell ul
Ġá»§ i
ĠChÃŃ n
Äĳ iá»ĥm
ron tal
oth orax
ip edia
Ġar ena
Ġar mad
Ġun complicated
Ġap parent
ind ices
ick ing
ĠAl icia
Ġ14 1
sy stem
sy ched
Ġj u
Ġsh ared
Ġsh ingles
Ġsc arring
Ġint act
Ġme g
Ġrel apse
Ġma jors
Ġover nutrition
dis ease
Ġnon steroidal
Ġdec ision
ok ers
17 92
Ġsub cutaneous
Ġdes c
Ġop pon
ĠGen er
197 2
Ġvacc inations
Ġfol d
Ġfol lic
nam es
Ġfound ed
Ġ25 4
emb rane
Ġser otype
Ġro om
Ġob jects
Ġmod ification
Ġless er
Ġflu ores
Ġref ractory
cl onic
Ġlep ers
bed ding
Ġdiagnos ing
Ġte ach
Ġte ams
Ġrepor ting
Ġimp acts
ax ia
Ġdisc ouraged
Ġlower ing
An nam
An tib
Ġhorm onal
Ġpred omin
Ġprevent ative
ĠMan ip
Ġed s
45 6
ĠPol gar
man agement
ĠInd och
reg ular
ĠSh olokhov
Ġfl at
Ġdeterm in
Ġpoly m
urg ical
CR P
Ġeff ort
Ġhydro gen
Ġbronch i
fil ter
Ġcontrib uted
Ġclear ly
Ġsens ory
Ġdist inc
Ġlip oprotein
ĠIC AM
Ġhyper bilirubin
Ġcr uc
ops ies
aryng itis
aryng eal
Ġple ur
ĠQua ffle
onorr hea
aps ed
Ġphen omenon
ĠTour ane
Ġtang les
Ġgl omer
Ġstim ulates
ĠAP OE
Ġbro wn
ĠIm aging
Ġwors ened
Ġsuppor ts
Ġirrit ants
ĠBu Ã´n
Hyp ertension
Hyp oglycemia
Ġexpl an
ĠdÃ¬ u
178 6
Ġdeb ate
Ġdeb ris
Ġgut tate
æľ ī
Ġdistingu ished
Ġcontamin ation
Man agement
tin y
Ġcollec ted
Ġsoft max
gl ia
Ġintravenous ly
Ġexperi encing
Ġstop ping
Car cinÃ´m
Ġgastr ic
Ġcoll agen
xt Æ¡
effec ts
kel etal
Ġregim ens
Ġfamil ial
Ġintrac ellular
å® ļ
Ġhistor ically
ĠHep atitis
ĠInf lammation
mat rix
ĠMi G
giá» ¯a
Ġbuild up
ĠRel ativ
Ġcry pt
hyp ertensive
det ector
ĠDiet ary
Ġcover ed
Ġaz ithromycin
ĠPH áº¢
Ġtrim ethoprim
syn uclein
hythm ias
Ġtet rac
Ġthromb osis
Ġseas on
Ġepiderm is
ĠLÃĢ M
ĠChem ical
Ġneop lasm
Ġeosinophil ic
gener ative
ĠCollec tion
Ġblister s
SI ZE
ĠTor onto
Ġreserv oir
Ġmanif ests
Ġalloc ate
Ġank le
Ġadvant age
Ġsubun it
Ġbiomark ers
ĠAngel ina
Ġalve oli
Ġdiscol oration
Ġsaphen ous
Ġureth ra
ĠRol ling
Ġather osclerosis
Ġadul thood
Ġperoxid ase
ĠColomb ia
Ġazathiop rine
lamps ia
Ġvic tim
Ġnurs ing
Ġhyperbilirubin emia
! <
C á»ķ
H á»£p
L Ãªn
O ver
V áº¥n
b ox
t á»·
ng ay
Ġv iá»ĩt
Ġs ore
Ġtr á»Ĺi
Ġn áº¯n
ĠT á»©c
ĠN ature
Ġr oseola
ĠC up
en ner
ĠH ist
ĠH eb
or age
ĠM Ã¢u
ĠTh Ã¢m
ĠS áº¥m
ic tions
ĠD C
Ġ19 14
im a
áº© ng
ry pt
ab led
ĠE ffec
19 40
ho use
Ġus ers
Ġ18 20
Ġ18 60
las mod
12 6
ĠBan k
195 2
num ber
Ngh á»ĭ
lock chain
ession al
Ġká»ģ nh
Ġcop ies
Ġeng ineering
Ġimplement ation
ĠHans en
Ġsimult aneously
ĠFace book
LIS A
ĠLanc et
lasmod ium
% /
4 15
A m
B á»Ļt
C áº£m
H áº¿t
H Ã²n
L á»ĳi
L Æ°á»£ng
M eas
M ulti
N um
P rim
Q uyáº¿t
S in
S iÃªu
V ari
b iáº¿n
c dot
k g
k ok
n ed
o ke
r ash
v Ã´
v iá»ĩc
w ash
Î ¯
å »
Ġ á»ķi
Ġ Ã³i
Ġt ÃŃt
Ġc odon
ĠÄĳ Ãºt
ĠÄĳ áº¥ng
Ġv v
Ġl Ã¡c
Ġl et
Ġh ap
Ġm á»ĵm
Ġch Ã´ng
Ġtr á»ķ
Ġtr Äĥn
Ġtr Ã¢m
Ġtr áº¥u
Ġp un
Ġnh Ãłn
ĠT á»¥c
ĠT ak
ĠT urn
Ġkh Ã¹ng
Ġng Ãłng
ĠN ASA
Ġr á»ĩ
Ġr áº£nh
Ġr á»Ĺi
in ition
ĠC y
ĠC amp
am az
ĠV H
ĠV á»«ng
ĠV Ã£n
ĠH anh
ĠH TV
ĠH ilbert
Ġx Ã³
Ġx á»ı
Ġx Ã©m
ch rom
Ġ( )
ĠM I
ĠM áºŃn
ĠM Ã¡i
ĠM Ãºt
al lo
ĠB áº¡t
ĠB Æ°u
ĠB ud
ĠTh uyá»ģn
ĠP iet
as a
ro z
ro se
ĠS áº§m
ĠD T
ĠD op
ĠD á»¥ng
ĠA gricult
ĠPh Ã¡o
id ine
Ġ19 23
un i
Ġsá»Ń ng
op ed
op eration
st anding
ĠR ub
ĠR oss
tr as
Th iá»ĩt
ess ment
ÄĲ áº·ng
ĠU á»ĳng
ĠE ss
19 36
Ġex change
ĠJ er
Ġ7 4
and insky
ĠO anh
Ġ18 31
Ġá» ·
ik ing
Ġar ray
Ġ14 18
Ġru á»ĵi
Ġ16 27
ile y
ĠDo Ã£n
Ġpres enting
Ġtrans lation
Ġtrans cript
12 3
ish ment
Ġfai led
Ġdep ress
ĠchÃ³ e
ococ o
Ġlog o
Ġle ng
199 2
Ġ28 0
Con t
Ġcontr act
ĠEx per
press ion
22 8
ĠÎ ³
ĠDis c
Ġdevelopment al
Ġorgan ization
uct ure
Ġfl ag
St age
dim ension
Ġå į
Ġenvironment s
Ġhydro chlor
Ġfib rin
enn ett
Ġer ad
Ġloc ations
ĠPr entice
Ġdrop out
ĠNhu áº¿
ĠBar oque
ĠTe ch
Ġmatch es
Ġsel ection
Ġcarbohydr at
avirus es
åŃ Ĳ
################ ################
Ġrevers ed
ĠEcon omic
Ġincor por
Ġnig ra
Ġâĭ ħ
ĠGuill ain
Ġcel eb
Ġrá»ĩ u
' ),
5 21
8 1
9 00
D r
D á»±
T Æ°á»£ng
V ui
Z ika
b rid
f ib
k áº¿t
m Ã£
t f
u til
w ing
w rap
Ġl b
Ġh Ãº
Ġb lue
Ġs áº©y
Ġs á»§ng
Ġs izes
Ġn Ã´i
Ġd á»¡
Ġnh áº¥m
Ġnh Ãµm
an us
ĠC á»¦
Ġqu Ãłng
ch ing
ĠÄĲ em
ĠTh at
ĠL Ãłn
as et
Ġf ixed
au to
Ġcho Ãłng
re et
ĠS hi
Ġw eather
Ġra ting
ĠPh Ã©p
ĠK H
ĠK Ã©o
em ed
os ine
un es
ad or
ĠKh áº£o
ĠR oger
ĠX IV
ab lo
ab ytes
Ch a
Ġ18 51
ens ed
ĠY Ãªu
ous ly
evelop ed
Ġbu á»ĵm
Ġgh á»ģnh
ici ally
atch es
Ġxo Ã¡y
nam ed
ust om
cl ose
gi ai
Ġpred icted
ĠWorld wide
ĠBr ad
ĠDia gnostic
Ġcap ital
ĠAp p
Ġremov ing
Ġunderst and
ĠTrans former
ĠUV B
Ġadj acent
Ġmig ration
ĠWil son
oper ative
Ġenh ance
Ġfav or
ĠColumb ia
ĠOl iver
ĠNap les
Micro soft
ĠJon athan
ĠCoun try
Ġlaun ched
Ġcaffe ine
Ġparti ally
Ġbyp ass
ĠCá»¦ A
. {
A ir
B U
B Æ°á»Ľu
B ritish
D el
D Æ°a
D iff
E M
G á»įi
K affee
L Ãło
L áº©u
M eningitis
N T
N Ãły
N Ãło
N áº±m
O per
R heumatoid
T Æ°á»Łng
T inea
W ien
Y áº¿u
[ "
b ic
b its
b earing
c udnn
d iá»ĩn
d ist
d á»±a
f eed
f wdbwd
h ist
h Ãłm
i opathic
l arge
m Ã¡t
m Ã¹a
m ette
n old
p ire
r s
r au
s up
s ies
s amples
t áº¡i
t iáº¿t
t able
w ater
w hat
© Ĩ
Å «
Ï Ħ
å Ľ
ç ¦
é Į
Ġ uyÃªn
Ġ Æ°ng
Ġ á»ĵm
Ġ umb
Ġt onic
ng á»¥y
Ġc orn
Ġc ephal
Ġv áº§ng
Ġl á»ĭ
Ġl um
Ġl Ã¬a
Ġh á»ĭch
Ġh all
Ġh Ã³t
Ġh ps
Ġb ot
Ġb uc
Ġb Ãºi
Ġb ov
Ġb Ã¹i
Ġb uck
Ġb order
Ġch ron
Ġs om
Ġs á»Ľ
Ġs ure
Ġs Ã¹i
Ġs add
Ġs arcoma
Ġk ÃŃp
Ġn eph
Ġn ucl
Ġn ÃŃu
Ġd rive
Ġd pm
Ġp ent
Ġp ust
Ġg est
Ġg ums
Ġg liomas
ĠT á»Ļc
ĠT Ã¡nh
ĠT ÃĶI
Ġng Ã¡c
an ate
Ġr Ã¡ng
Ġr Äĥn
Ġr ice
in i
on atal
er ately
ĠC and
ĠC old
am ang
Ġqu áº±n
Ġa ort
ti le
ĠH Ã©
ĠH um
ĠH áº»m
ch u
Ġthe or
is ser
ĠM S
ĠM iÃªn
ĠM ur
ĠM á»ĩnh
ĠM HC
ar st
ar io
Ġo ai
Ġo ste
ed ed
ĠB Ã¢n
ĠB Ã¹
ĠB Ã©
ĠB Ã³ng
ĠB out
ĠB á»Ńu
Ġin ches
ĠL ower
at tention
ĠTr ich
ĠP Ã©
as ing
Ġf ear
Ġf inger
Ġf ifth
Ġf alc
au n
ĠS and
ai ly
ai ting
Ġw av
Ġw earing
Ġto ok
ic ts
ic ating
ĠNg Ã¡i
ĠD á»įc
ĠD MARDs
Ġra b
ĠA CR
ĠA KI
ĠK andinsky
ec lampsia
om ycin
id in
Ġsá»± c
ent ly
os tr
os ocial
ĠNh Æ°á»¡ng
ul i
ol one
et ti
ut era
um m
ĠI T
ig ar
ad iol
st m
... ?
ĠGi b
ĠGi an
ĠGi Ã£
ĠR anh
ĠR id
ĠX áº¡
ĠX áº¿p
Ġor bital
Ġpro stit
Ġal kal
lu cur
ĠW he
ĠW ern
Ġtu Ãª
Ġtu bes
Ġco al
Ġst ays
Ġst able
Ġdi p
Ġdi verse
ĠF act
ĠF ont
ex isting
uc cin
Ġres ting
Ġres olves
Ch Ãºt
ri b
ri ved
und efined
ph Ã¹
ph á»¥c
Ġ* ((
ĠO steoarthritis
Ġat ten
Ġ0 7
Ġrec ru
Ph ys
iv ir
ys titis
Äĳ a
Ġtyp eof
Ġhyp op
ip le
ip utera
Ġper t
Ġper haps
Ġun it
Ġun like
ĠSt op
Ġmed ium
Ġmed ull
Ġcaus al
ĠAl tern
per or
Ġcomp ati
we igh
Ġman aging
Ġsh ed
Ġsh aring
Ġred ness
Ġ16 2
IV AT
18 40
18 66
Ġsome what
io blastoma
pos s
pos terior
Ġimmun ized
Ġgo als
par ticularly
ke ep
Ġ50 257
Ġall eles
ici ous
Ġgr ams
Ġtw in
Ġtw ins
Ġtw elve
oph osph
Ġxo an
sor iatic
Ġreturn s
Ġrem ained
Ġins tit
Ġnháº¹ n
Ġdep le
Ġdet erior
à¸ ¢
à¸ ³
à¸ Ļ
à¸ Ń
Ġend s
Ġcent re
Ġaut opsy
Ġmod est
196 7
Ġhu á»·
ococ ci
Ġchang ing
Ġelse where
Ġcontr action
Ġpart ner
ered itary
ah epatic
ĠCro quant
âĢ¦ )
Ġpregn ancies
oimmun ity
ĠrÃ£ nh
Ġpred nis
Ġprevent able
Ġext ended
Ġext ensively
ĠMed linePlus
ĠGr anger
Ġcomb at
cin oma
ES R
Ġprot ease
iter ator
Ġ186 6
Ġhospital izations
Ġsus p
Ġabnormal ity
Ġsu itable
Ġå ¤
ĠNe isser
Ġcult ural
ĠOn line
Ġfib ers
Ġfib rob
Ġpath ophysiology
do or
Ġperform ance
def ined
OR S
py thon
ding er
ĠÏ ĥ
Ġsens ation
Ġcre ating
Ġcre ams
Ġenc ouraged
AN K
Ġprob iotic
Ġcy st
PS TF
Ġrout es
Mal loc
ĠCal mette
Ġeryth rocyte
Ġoptim al
ophag itis
Ġprof ile
af e
Ġmar itime
Ġcos me
Ġorigin ally
Ġstim ulating
Ġconsum ed
entric ular
ĠAP P
ĠBrit ain
Ġli othyronine
ĠBar b
Ġalong side
yn asty
Ġmov ing
ĠJo int
Ġprom ising
Ġevalu ated
ĠXV I
Ġpur ch
Ġsep tic
fre qs
pred iction
Ġexist ence
ĠFl int
Ġmis conceptions
mod ules
Ġchlor amphenicol
Ġconn ected
Ġcompos ed
Ġreach ing
Ġfield s
ĠAR B
Par kinson
ĠInc reased
ĠHB sAg
Ar thritis
Ġdry ness
Ġelim inate
sing le
Ġgingiv ostomatitis
Ġwall s
ĠBC G
Ġphosph or
osin usitis
Ġcollec tions
Ġrestr icted
ĠOver all
comp ile
car bon
ĠHer bert
ĠSpec ifically
bi ome
Ġmig rate
å¾ ·
mel anoma
ĠÄĳá»Ŀ m
NI H
ĠÎ¼ g
ĠSub clinical
Ġbá»ĩ ch
MO DE
ĠMun ich
ĠParameter Tensors
Ġcyt oplasm
Ġhepat ovirus
Ġclai ms
Ġrepres ents
Ġdrain age
Ġutil s
ĠAdv isory
Ġsitu ation
ĠRev olution
Bu á»ĵng
Ġisch emia
Ġdisrup tion
Ġemb olism
Ġing estion
Ġconstit ution
ĠSecond ary
Ġinactiv ity
Ġclus ters
ĠActiv ationTensors
Ġge ographic
aric ose
Ġrelig ion
Ġdermatoph ytosis
Ġsound s
Ġopi oids
Ġrhin osinusitis
æŃ ¦
ĠCogn y
Ġcreat inine
Ġpoison ing
Ġobserv ation
fr ames
ĠMond rian
Ġfarm ers
stim ulating
yto in
lov ir
Ġsed imentation
Ġresid ents
Ġwin ning
Ġseq len
Ġswim ming
Ġpromo ting
Float Tensor
Ġprecur sor
Ġhá»Ŀ n
omon as
Ġunex plained
feat ures
ipl es
Ġinn ate
Ġlumb ar
Ġost eop
Ġantim icrobial
Ġallev iate
Ġundern ourished
ACT IVAT
Ġdoxyc ycline
Ġurob ilinogen
Ġhypothal amus
ĠGuatemal a
ĠWikis ource
Ġvulner able
fibr illary
Ġcitiz ens
ĠOhi o
Ġmenop ause
Ġcruc ial
Ġfalc ip
ĠNeisser ia
ACTIVAT ION
8 3
B á»©c
D ata
H em
H á»ĵi
H ill
K H
M a
N á»¯
O L
P G
P P
P rop
Q uyá»ģn
T om
c art
h ttps
l ik
m áº¥t
m icro
Ł m
Ġh und
Ġb ass
Ġng áº©ng
Ġr Ãºc
ĠC á»ı
ĠC ount
Ġtá» Łm
ĠH ur
Ġgi Ãłn
ĠÄĲ Æ°a
ĠB our
ĠB row
ĠB acterial
ĠB efore
á»¥ m
el se
ĠK e
ĠG od
th am
Ġ19 07
Ġcon cept
il ed
Ġkho e
ĠR ow
ĠR ock
ÄĲ Ãłi
ag land
ĠE c
Ãµ ng
Ġ18 17
Ġ18 47
pl er
Ġtho áº£
Ġab or
ond a
Ġse qu
dis on
ari an
Ġinter pre
ĠZ h
Ġ25 5
Ġ< <
ĠAc c
Ġadv ance
ĠSy n
Al l
Ġ189 2
cont in
Ġfil es
ĠIs land
Pro tein
Ġnan omet
ĠWil helm
ĠWal ter
ĠJack son
ĠHT ML
Ġhund red
' ll
+ \
B attle
C á»Ĺ
D AS
H D
H S
H Æ°ng
H ost
K D
M á»Ł
M et
N E
O b
P lasma
S a
T Æ¡
a ac
a que
b f
b ia
b áº£o
b urn
d Ãłi
h eart
h bar
i ovirus
k Ã½
m us
n ec
n ier
r Ã´
w ich
Ð µ
â ģ
å ¥
å ¹
å ¿
æ ´
æ Ļ
è ²
é ĩ
ð ¨
Ġ Æ°Æ¡m
Ġc á»Ļi
Ġc áº·n
Ġc á»£t
Ġth reat
Ġl áº£ng
Ġh acker
Ġb áº¥m
Ġb attle
Ġm áº£i
Ġs anh
Ġtr Ãªu
Ġn u
Ġn Ã²i
Ġd áº·t
Ġp n
Ġp ic
Ġg áº¡n
Ġg á»įng
ĠT áº¡c
Ġng ao
Ġph ay
ĠN áº¥u
ĠN á»ĵng
ĠC ed
ĠC Ãĵ
en ol
Ġqu áºŃy
Ġa u
ĠV á»ĳn
ĠH arm
ĠH Ã²e
Ġhá» £
is en
al ian
al gorithm
ar ts
ar bon
ĠB and
ĠB ased
ĠTh or
ĠL ad
ĠL ater
ĠL oáº¡n
ĠP ap
ĠP seud
Ġf t
ai ca
el d
el ocity
Ġho c
ĠNg á»Ļ
Ġ2 32
ĠQ uyá»ĩn
ĠD ul
ĠD iá»ĩp
ĠD own
ĠD rive
ĠA C
le in
ĠK iáº¿p
ĠK áº¹o
im us
et z
et to
um ed
lo gs
Ġ3 11
ĠGi uá»Ļc
ĠGi Ã¡y
if i
ĠÃ ģn
ÄĲ em
Ng Å©
ab out
ĠE ug
ĠE ver
19 38
19 42
ear ly
ell i
uc ted
Ġinc l
ĠIn dr
Ch im
ri ef
Ġim pl
pl ac
ĠY Ãªm
Ġsp p
ber ry
Ph á»ķ
Äĳ á»ĵ
ov ir
Ġar ts
ĠbÃł u
ind ow
Ġpl us
Ġ14 06
ĠmÃ£ ng
Kh áº¯p
Ġtrans istor
ĠCon fl
Ġpos itron
Ġ13 1
ĠâĢ ¦
Ġáº ¨
put ed
ĠUS A
ran ts
Ġkáº» o
ust in
ian o
}} {
str uct
196 4
Ġphys iology
Ġhu á»ĩ
ĠCom plex
ille gal
ĠGr ace
loss ary
Ġprocess ing
ĠCar ibbean
ĠPhil os
ĠDe ep
Ġfil m
Ġxá»ī a
Ġcommun ication
ĠMa j
ĠCo unc
Ġdrop ped
Ġpur poses
ĠHar rison
Ġnit ro
Ġæ ĸ
ĠSer ge
å¤ ª
ĠSar ah
Com mon
ĠMyc oplasma
ĠOb ama
ĠDan ang
EE E
hyp er
Ġapop tosis
glob in
Î¿ ÏĤ
ĠJim my
ĠElec tr
Ġsubstanti a
Ġsurf aces
ĠNorm an
ĠPas cal
Ġimmunoglob ulin
Cardi ovascular
ĠUB ND
ĠâĦ ı
ĠRi emann
ĠCoh en
Prim ary
ĠDul les
8 2
C uá»ĳn
M il
S ch
T áº¿
V á»ĳn
r atic
s ave
v ious
w an
Ġ um
Ġl áº¥m
Ġm ol
Ġd Ã¡t
ĠT Ã´m
Ġkh Ã©t
Ġph one
in y
in ner
Ġvá» ĵ
or o
Ġ( ?
ĠM ak
ĠM iá»ĩng
ĠM IT
al a
ĠB I
ĠB lue
ĠB rian
ĠP riv
ĠP lasmodium
re vers
ĠS l
Ġw on
ĠD og
ĠD iv
ĠA re
ĠK now
ĠG old
ĠG ordon
Ġlo gs
Ġ19 21
Ġ19 29
il on
ad j
ĠR ap
Th ese
ers ey
iti v
ÄĲ áº£o
ĠW right
ĠE U
Ġst aff
Ġst orage
tic ul
ant ed
ĠAn toine
Ġ18 50
Ġ9 3
pro v
Ġ17 91
ip e
ov a
ov en
low ing
ĠAl ger
Kh Ã³
ĠPar t
ĠPar vati
In c
In Function
Ġwor st
res ult
30 4
ĠNS AID
Ġvar iations
Ġext ends
iev irus
Ġ186 5
Ġ36 5
Ġoutput s
Ġconst ant
Ġmag ic
Ġminim al
Ġsoft ware
wh ite
Ġexperi ences
Chu áº©n
ĠLew is
Ġrepres ent
ĠPrim e
ĠRT Result
Ġoffer ed
Ġprost agland
ĠSol anum
ĠSpr inger
ilt InFunction
Ġdecl ared
ĠAnth ony
ĠVirgin ia
Ġfalcip arum
) (
A CE
A void
B B
B áº¡ch
C Ãłn
D Ã²ng
D áº¡y
E nd
G R
G lobal
G lobally
L V
L áº¡ng
M us
M á»Ľi
R ad
R Ãºt
S á»Ł
Z V
_ %
a ec
b op
b á»įn
b á»ĥ
c Ãł
c á»Ļng
c ult
c alled
c lean
c ognitive
d Ã¹
f ish
g ory
g lyc
h iá»ĩu
h if
k ulus
m L
m atiz
n od
p ol
p unk
r Ã¶
r azol
s Ã´ng
s ter
s iÃªu
s ix
t ub
u it
v y
v ere
v itamin
v tx
x i
y low
y mmet
¨ c
æ ¸
è ĭ
Ġ ice
Ġ Ã¹n
Ġ ðł
ĺ è®
á» ¦y
Ġt anning
Ġt qdm
Ġc ro
Ġc Ã¡ng
Ġc ut
Ġth reshold
Ġth iaz
Ġth resholding
Ġh Ã¡n
Ġh Ã¹m
Ġh áº»m
Ġb er
Ġb áºŃy
Ġb á»Ľ
Ġb usiness
Ġb arium
Ġm im
Ġm áº£y
Ġm fu
Ġch Æ°á»Łng
Ġs Ãªn
Ġtr Æ°á»£ng
Ġtr ying
Ġk J
Ġk arst
Ġn áº¿t
Ġn ut
Ġn tok
Ġd eal
Ġd ust
Ġd ying
Ġd áº±n
Ġp g
Ġp las
Ġp ale
Ġp syched
Ġnh á»į
Ġnh Ã¡i
Ġg ar
Ġg um
Ġg á»Ŀ
Ġg rip
ĠT inea
Ġkh Ã¢m
Ġng á»ķ
Ġng áº¡o
Ġng Ã³t
Ġph áº¯t
Ġph Ãłm
Ġph áº©y
ĠN Ã
ĠN an
ĠN Ã³n
Ġr Ã´ng
Ġr Ã¹ng
in ology
uy nh
on ko
Ġqu áº¡i
Ġqu ad
Ġa ug
ti tion
ĠV aria
es th
Ġx Ã´n
Ġx iÃªm
Ġx Ã©p
Ġx Ã³i
ch ester
or osis
ĠM á»Ļ
ĠM Ãłn
ĠM uá»ĳi
ĠM Ã¼n
ar er
ĠÄĲ Ã¡m
ed ies
ĠB ilirubin
ĠL Ã¹ng
ĠL Ã´n
ĠL abor
ĠL aboratory
Ġan ces
Ġan aplastic
ĠTr ain
ĠTr áº¯ng
Ġf read
Ġf ats
Ġf ather
Ġf resh
Ġf rontal
ro xen
ĠS yphilis
el onephritis
ic arditis
Ġho ur
ĠNg Ãłn
ĠD al
ĠD ur
Å© m
ĠCh Ã¡o
ĠA ks
ĠA LT
ĠA NSI
ĠK i
ĠK y
ĠK or
ĠK ro
ec e
om orph
ĠG on
ĠG iáº¿ng
ent a
im ilar
os evel
os itive
os exual
os cope
os alicyl
ul ator
ol n
Ġis land
et ers
et ry
od om
ut ations
ve itis
ir ing
ter ed
ĠÄĳo áº£n
Ġká» ģm
... ]
ĠR ai
tr Ã¡nh
ep al
ep ine
Ġpro c
Ġpro calcitonin
ÄĲ á»įc
oc en
oc uments
Ng á»Ļ
Tr á»ĳng
Tr áº¡ng
Tr Æ°á»Łng
ĠE ty
iz ers
19 34
ĠF au
uc ing
di le
di kulus
Ġres ource
og ram
ĠJ uan
pt or
ph ys
ĠO a
Ġ18 75
Ġ9 50
Ġnot able
ens itive
Ġsp orts
reas ing
ome gal
ory l
pro duc
pro bs
to xic
mon th
ĠdÃ¹ i
ĠSau di
Ġwe al
Äĳ á»Ļt
Ġhyp ers
Ġar tificial
Ġanti hypertensive
Ġ11 3
enc oded
gr av
ind ylow
Ġmed ically
ĠAl ban
sy mbol
Ġcomp ens
oid osis
Kh Ã³c
we et
Ġman ner
ĠMal nutrition
con f
In ter
Ġint ensity
unc ed
Ġdiff ers
Ġtrans l
Ġtrans ient
Ġvu á»Ļt
Ġlow ered
Ġcoun sel
ĠTo a
ĠTo ken
ann er
Ġam pl
Ġam ateur
Ġcons ensus
par se
ern ess
ern icterus
Ġpers ists
Ġthyroid ectomy
Ġgr af
res olution
Ġsub type
Ġsub species
ĠvÃŃ u
ie u
Ġbrain s
Ġinter phal
bet as
Ġreturn ed
ace u
14 27
Ġsm okers
den oise
ĠZ onko
Ġdep rived
Ġhypoth yroid
Ġur gency
str anded
sp eak
eps in
Ġpresent ed
Ġid iopathic
Ġaut oimmunity
195 3
Ġval pro
Ġbi ology
Ġlife time
cl usion
Ġmulti step
Ġcondition ing
tig ma
ĠEx cell
ĠEx amples
Ġvar iation
Ġbel acan
Ġdescri ptor
Ġcal prot
Ġcardi omyopathy
ipp ed
Ġprogress ively
Ġpat ent
ept um
Ġlim b
Ġev olved
ĠGr ad
ĠGr indylow
Ġcong estion
ient ed
reg ulation
Ġprot ects
Ġsugges tive
app ing
ĠRo osevel
ĠNe il
ĠNe umann
Ġblock age
li ament
rim in
pir atory
Ġ189 8
spec tral
ĠMicro sp
roph il
Ġpul se
ĠLÃ£ m
Ġcarri es
Ġlymph atic
ĠSch w
Ġsal ts
Ġsk ills
Ġrash es
Ġprob abilities
Ġtend er
Ġmax val
Mal ay
Ġcarcin omas
Ġyá»ĥ u
Ġrest ore
ardi er
uss is
epend ing
Ġadmin ister
Ġexamin ed
ĠMus lim
Ġassess ing
** )
Ġdrop lets
Ġpsych osis
bt c
Ġexc luded
Ġsulf ony
rem ia
Ġsep tal
Ġnecess arily
ocr atic
Ġsuppor ting
clus ter
clus ively
eth yl
Em bedding
Ġmis c
ophil a
Ġstandard s
188 6
Ġsil ent
ĠSystem ic
Ġfac ilities
ĠBi ological
arc oidosis
ĠBer tille
å¤ ©
Ã¶ n
Com puter
Ġter tiary
ĠDB S
Ġinp atient
ĠUg and
Ġwar ning
Ġsun light
Ġfall ing
ends with
Ġstop ped
Ġreason able
ĠFurther more
Ġhi u
é» ĺè®
Ġimmunosuppress ion
Ġgall stones
leng ths
ĠDef inition
Ġcorrect ly
Ġib t
ä½ ¿
this is
Ġradio iodine
ĠPat ho
ĠProgram me
Ġbio chemical
Ġpall iative
ĠSup plement
Ġdig estive
ĠUl cerative
Ġpredis position
Ġile ostomy
ĠFrancis co
ĠColumb us
Ġmarked ly
Ġinactiv ated
Ġabscess es
unt ary
Ġeros ion
ĠBol ero
Ġcareful ly
ĠÄĳáº½ o
Ġrevers ible
uns aturated
Ġdiabe tic
Ġfract ures
Ġaggreg ation
Ġemploy ment
GF R
æĪ Ĳ
Ġprost atitis
Ġdiss em
ĠStrateg ic
Ġswe et
itin ib
ocortic oid
ocortic oids
Ġcommer cial
Ġelectroly te
Ġwr iting
çļĩ å¸Ŀ
din and
æµ ·
èĥ ¡
Ġign ore
ĠKlebs iella
Ġcondom s
izz iness
Ġthous and
Ġadren al
Ġarr hythmias
Ġunaw are
Ġdepos ition
Ġpenal ty
Ġcerv ical
Ġpharm ac
ĠMill er
Ġperfor ation
ĠNY HA
ĠMÃĢ Y
oderm a
Ġbehavio ur
Ġferal it
cublas lt
Ġrelax ation
Ġencounter ed
ifferenti ated
Ġverte br
Ġprecip it
Ġconjunc tiv
Second ary
Ġmicroorgan isms
ĠKit Ã´
Ġapproxim ated
ĠMarsh all
Ġgonorrhoe ae
Ġrup ture
ĠRober ts
Ġskel etal
rh osis
ĠLP GA
ĠRheumat ology
Ġspor adic
Ġfollic ular
Antib iotics
ĠManip ur
ĠIndoch ina
Ġpolym orph
ĠPHáº¢ I
Ġtetrac ycline
Ġtranscript ase
Ġaort a
poss ible
hif igan
esth esia
Ġfread Check
ĠAks inia
ĠEty mology
omegal ovirus
Ġinterphal angeal
ĠExcell ence
Ġcalprot ectin
ĠRoosevel t
é»ĺè® ¤
, ....
: :
B iÃªn
B ecause
C U
C ent
G E
I g
P at
S QL
T Ã¢m
W OR
b ohydr
e ting
g lobal
m Ã³n
v a
Ġth áº«m
Ġl á»ĳc
Ġl iÃªm
Ġb or
Ġb iáº¿ng
Ġch á»ı
Ġn ick
ĠT em
er d
ĠC NN
Ġvá» ĵng
es tions
Ġx á»ķ
ĠÄĲ á»ķ
ĠB eat
ĠTh á»Ł
it em
ĠS G
ĠS ed
ĠQ uyá»ĥn
ĠD ev
ĠA TP
ĠK ir
ĠG UI
Ġbá»ĭ p
ol ing
ĠGi Ã¡n
ĠR á»ĳi
tr aining
Th á»©
ot ene
ĠW in
Tr áº£
Ġtu Ã´n
ĠIn st
ĠJ un
ens es
out er
ĠSt udio
gr ams
Ġ16 5
ann i
11 1
Ġdep artment
Ġaut o
ĠChu á»Ļt
att an
ĠquÃ½ t
Ġav ailability
Ġvari ola
ĠMed ic
ĠPol yn
ĠMich igan
ĠSal v
ĠCr aig
ĠFrank lin
ĠDes cart
ĠRuss ia
Ġnap roxen
ĠHam ilton
oge ther
ht ml
Ġstatis tics
DB MS
ĠDiv ision
ĠDescart es
, \
, âĢ¦
2 60
8 9
8 90
A ng
A NA
C G
D C
D a
F l
G áº¡o
G PU
H uman
L Ã²
N C
N av
R u
S á»£
T Ã´
T á»©
V er
V á»ĭ
V Ãłi
V ol
b les
c ase
e ot
f in
h ic
j u
l áº¡nh
l ines
m u
o in
p ost
r áº¥t
r ag
r ical
t á»©
t Æ°á»Ľng
y ok
} |
} ={\
¥ ¿
§ Ģ
Ê Ķ
Ï Ģ
Ï ĥ
ä ¿
å Į
ç »
ç ı
Ġ Ãº
Ġ áºŃp
á» Ĵ
Ġc áº¡p
Ġth Ã³t
Ġv áº¿
Ġl áº³ng
Ġh uyÃªn
Ġb Æ°u
Ġb ridge
Ġm Ã¡ng
Ġm oi
Ġch á»Ľi
Ġch Å©m
Ġs Ãºy
Ġn áº»o
Ġd áº±ng
Ġg áº·t
Ġg ot
ĠT Ã¡t
ĠT á»ĭch
ĠT ester
Ġkh anh
Ġph iá»ĩt
Ġph Ãºng
ĠN Ãłng
ĠN ag
ĠN Ã©t
ĠN atal
an er
Ġr Æ°Æ¡i
ĠC au
ĠC á»Ń
ĠC á»ķng
am i
ti Ãªu
ĠÄĳá» įa
ĠV áº«n
Ġx á»ĭt
Ġhá» ħ
Ġgi Ã£i
ĠM áºŃp
ĠM ek
al t
al en
ĠÄĲ u
ĠÄĲ á»įi
ĠÄĲ Ã¨o
ĠB Ãłnh
ĠB ad
ĠTh ung
ĠL og
ĠL ie
ĠL inc
ĠL arge
ĠL ike
at ural
á»¥ a
á»¥ t
ĠTr áº«m
ĠP u
Ġf ri
ĠS I
ĠS k
ĠS Ãło
ĠS eo
ĠS oi
Ġngh inh
el ec
ic ity
ĠD FT
ĠCh en
ĠCh Ãłng
ĠA y
ĠPh Ã¡c
ĠPh Ã¬n
ĠK ur
ĠK eo
ĠK ok
Ġgiá» ¡n
th anh
ir i
ĠI ng
ĠI de
ad ers
ĠKh áº¿
ĠKh iáº¿t
ĠR y
ĠR an
ĠW iley
Tr Ã¬nh
qu et
ph im
Ġ18 22
ure ment
pl ied
ub ert
Ph Ã³
Ph one
ĠcÃ¡ u
Ġ12 58
Ġ15 27
Ġ15 92
ĠNgh Ã©
Äĳ i
Äĳ Ãłn
ign ac
gr en
olog ies
acter ia
Ġcomp ress
oid es
Ġnum py
ĠCon st
ple te
Ġ202 5
ĠBa h
oph one
Ġinter act
ble ms
Ġind ig
Ġresp ect
à¸ ±
à¸ ĩ
à¸ Ľ
Ġcor rec
ĠPro t
Ġle ak
med ium
Ġclass ical
60 7
Ġ27 1
ĠDi oph
Ġhead s
Ġext end
Ġconf used
Ġngu á»µ
ĠCl au
ene z
ra ft
ĠLe ague
Ġperform ing
ĠCá»¥ m
ĠNor odom
ĠNo ise
Ġcr ack
Ġ_{ \
omet ric
ĠHe in
56 3
eff icient
ĠSim on
Ar ch
Un iversity
Ġelect roph
ĠBau haus
Ġphosph at
Ġdifferenti ation
ĠlÃŃ u
lim ited
Ġsynth es
giá» ĳng
Ãļ c
ĠCu á»Ļi
à¸¡ à¸°
ĠMulti ple
Ġserv ice
Ġindustr y
ĠFer dinand
ĠMarc el
ĠMechan ism
ĠCÃ© dile
ĠBas ic
ĠJam aica
ĠComp ute
ĠIns ulin
oler ance
Ġshis hi
ĠNI H
Ġancest or
dimension al
Ġhydrochlor ic
Ġhá»£ t
yok uro
ĠNatal ia
ĠLinc oln
A rt
B MI
H y
H ealth
L inh
L á»Ńa
N ik
P O
V áº»
c ut
e ch
f are
j an
n ie
p res
r ors
t ax
z antine
Ġv áº±ng
Ġv áº¹o
Ġl uyáº¿n
Ġl áº©y
Ġs aw
Ġs earch
Ġtr av
Ġp il
ĠT es
ĠT áº¡m
ĠN ever
ĠH áº¿t
Ġ( +
ĠM áº£ng
ĠM iá»ħn
ĠB ach
ĠP ablo
ĠS uá»ĳt
Ġ2 19
ĠD ak
ĠCh áº£i
ĠG uy
ĠG am
ĠNh Æ°á»£c
ĠNh á»Ľ
ĠnhÃł u
il ly
Ġy oga
ĠX ong
Ġpro ject
ĠW all
up le
Ġtu Ã½
Ġst ored
qu áº£
ĠJ ones
ĠAn t
ph á»¥
ack s
Ġ18 03
Ġ18 76
Ġnot ably
av ender
Äĳ Æ°a
Ġ17 76
ĠSt ar
Kh en
Ġme et
Gi áº£
ish es
Ġam id
oph er
aw s
Ġreg istered
ich ol
ĠKhu Ã´n
Ġany where
Ġte en
Ġdescri bes
ĠAc tion
man ual
vironment al
ĠRes istance
Ġ189 1
Ġ178 2
Ġscre en
IS T
Ġlat est
pred ict
Ġturn ing
Ġeas y
Ġphosph olipid
Ġregard ed
Ġregard less
IN T
rand n
Ġacet aminophen
Ġsubsequent ly
ĠProgram ming
Ġrib osome
ĠHá»Ĺ n
ww w
ĠHam burg
Dis c
Ġchalleng es
Ġsubstanti ally
Ġlimit ations
ĠGard ner
Ġinterval s
ĠDat abase
sack ievirus
( *
) ".
, )
. _
7 22
? ...
C ro
D á»ĩt
D iet
D MARDs
E d
F ar
G onorrhea
K Ã½
L iver
L IN
L STM
L aryngitis
M Ã£
M Ã¢u
N Ã´ng
N Ã©t
O mega
P N
P ac
R ange
S ec
S á»Ľm
S chedule
T iáº¿c
V B
V ir
V Ã²ng
V á»«a
X a
X á»Ń
X iv
b as
c áº£
c ong
c ially
c ision
d ynamic
e u
e han
f lash
h ellaswag
j ei
k or
k inh
k ov
m Ã´
m id
n áº¥u
o ok
o ass
p a
p romised
p EF
r Ã©
r andom
s á»Ń
t Ãłn
t qdm
v ular
x it
z i
£ n
® µ
¯ å¾
± t
Ã Ĵ
Ã Ļ
æ £
æ ¯
æ Ľ
ç ®
ç ķ
è ±
Ġ Ã³
Ġ Ã¹
Ġ uyá»ĥn
Ġ Ã©o
Ġ ):
á» ¨ng
áº ®
Ġt ension
Ġt aste
Ġc up
Ġc pu
Ġc ublas
Ġc fg
Ġc ortex
Ġc igar
ĠÄĳ ay
Ġv esic
Ġl áº£
Ġl á»įng
Ġh en
Ġh Ã©o
Ġh eard
Ġh ellaswag
Ġb áº¹
Ġb ever
Ġb ite
Ġb rush
Ġb radykinesia
Ġm iti
Ġm ill
Ġm Æ°á»Ľp
Ġs ets
Ġs la
Ġtr ia
Ġtr iá»ģn
Ġtr áº«m
Ġk ing
Ġn Ä©a
Ġd ro
Ġd il
Ġd á»ģn
Ġd izziness
Ġp ink
Ġp ediatric
Ġp epsin
Ġnh á»ģn
Ġg Ã£
Ġg áº·m
ĠT áº£n
ĠT ypes
ĠT uberculosis
Ġkh áº¡c
Ġng Ã¡t
Ġng áº¥y
Ġng uÃ´i
Ġph áºŃp
ĠN Ã´
ĠN iá»ĩm
ĠN ow
ĠN ICE
ĠN vtx
an ak
Ġr áº«y
Ġr hythm
in fer
in ete
on ography
er in
ĠC A
ĠC Ãºng
am il
en al
Ġqu áº¯c
ti ans
ĠÄĳá» ±c
ĠV y
ĠV ery
ong s
ĠH ong
ĠH á»Ľn
Ġx á»ķi
ch unk
ch ocardi
or ous
ĠcÃ³ ng
Ġhá» Ľp
Ġgi áº§u
ĠM Ã¡ch
ĠM ion
ĠM and
ĠM ortality
al most
ar ticular
Ġo z
ĠÄĲ áº©u
ed om
ĠB oy
ĠB á»Ĺng
ĠB onal
ĠB reast
ĠB acillus
ĠB ennett
ĠTh Ã©n
Ġin oc
Ġin appro
ĠL ep
ĠL ab
ĠL á»±a
Ġan aly
ĠTr iá»ĩn
ĠTr áº£o
ĠTr epon
ĠP ur
ĠP ear
ĠP and
it ro
Ġf roz
Ġcho sen
ro g
ro il
ro te
re ported
ĠS ain
Ġw aiting
Ġto ward
el ial
el ope
ic ates
ic able
ang i
ĠNg á»ĵi
Ġ2 60
ĠD áº¿
ĠD ark
ĠD SV
Ġra cial
ĠCh áº¡y
ĠCh annel
ĠA ff
om at
om ide
Ġgiá» ±t
th iá»ĩn
Ã© rin
id er
Ġ19 04
im edes
os amine
os omes
os keletal
ur red
Ġcon vert
Ġcon serv
ac illary
ac olon
ol ia
ol ute
et amine
ĠQu Ãª
ir a
um iputera
ĠI ly
ĠI EEE
Ġwith draw
ad ox
ĠKh áº£n
ĠR om
ĠR ococo
ĠX o
ĠX inh
ĠX áº£o
tr ies
ce ived
Th Ãºy
Ġdis tal
Ġdis continu
ess ive
ion ella
Ġpro gnostic
ÄĲ Ã¨n
ÄĲ á»£t
yp sin
ag ul
ap lasia
up uncture
19 10
Ġst ance
Ġst ud
Ġst aging
ment ed
Ġdi alysis
ĠF ever
ĠF ailure
ell ed
qu áºŃn
Ġsy mmet
Ġinc ons
Ġinc ont
Ġres olved
Ch Æ¡i
ph en
ĠO xy
ĠO CL
ill ing
", ...
pl en
ard ia
ffec ted
Ġem pt
ge e
ge ons
Ġad am
Ġad mitted
Ġrec all
Ġre jection
Ġmen tion
Ġwas te
Ġab und
Ġ12 85
Äĳ áº¿n
Äĳ áº·t
Ġtyp h
Ġhyp oxic
Ġel b
cur vy
oth ic
oth elial
Ġ17 71
Ġar Xiv
Ġper icarditis
Ġanti fungal
ĠSt able
gr ave
Ġdef icient
enti sts
ĠAl lerg
Ġ14 26
ten y
ĠThu á»³
Ġsc ales
Ġsc anning
con sum
18 92
ĠĠĠĠĠĠĠĠĠĠĠĠĠĠĠĠ ĠĠĠĠĠĠĠĠčĊ
Ġse em
Ġrep ro
oh r
io therapy
Ġtrans cription
Ġcoun ts
Ġnum b
pec tive
Ġund et
Ġnon linearity
Ġep ig
Ġstr ipping
cul oskeletal
Ġform ing
á»¡ i
á»¡ n
gen ase
ici an
art y
Ġ202 40
Ġgr aft
ok a
ok ine
17 85
Ġsub jects
Qu Ãª
other mia
Ġmal aise
Ġly ing
Ġthá»¥ t
30 3
Ġins ec
Ġrang ed
Ġu nh
Ġ24 9
ich en
olv ing
Ġproduc tivity
xy urea
Ġxu á»ĵng
Ġur ani
Ġmon otherapy
Ġend oscopic
ĠMar ia
Ġser ver
Ġsec ret
log ic
log SNR
Ġcent ers
Ġsim ian
Ġob jective
13 1
BN P
por ation
ĠPro cess
Ġgrad ual
Ġgrad ually
ĠFor ces
Ġappear ing
Ġlep ros
Ġpart y
Ġiniti ated
ĠEx pl
Ġte a
gi ao
Ġepilep sies
Ġsurg ically
An kylosing
Ġprovid ers
ĠCol by
Ġlim itation
Ġindic es
Ġinhib its
Ġinhib ition
Ġsex es
Ġcomb ines
och ond
grad ient
Ġwork er
Ġwork place
Ġent ers
Ġent ered
Ġsing er
ĠCan adian
Ġneuro trans
Ġpoly unsaturated
ator ial
trans fer
CR F
Ġå ¾
Ġå ħ
Ġpass age
Ġexp ans
ĠTreatment s
dec oder
AD S
Ġir ons
Ġir revers
Ġ189 4
Ġinflu ences
Ġfil tration
Ġlymph aden
ĠSch rÃ¶
Ġcontinu ing
hip ple
ĠIs lands
cuda Malloc
Mal nutrition
ru v
Ġgover ning
ĠArch imedes
coh olic
Ġpost ure
Ġpost ural
ĠEm pire
Ġloc i
ä¸ º
ĠEl li
Ġphen otype
Ġstrong er
ĠBar ack
Ġbro ken
Ġstig matiz
Ġevalu ations
ĠSe izures
Thu áºŃn
Ġwors ens
55 3
Ġprogram me
Ġpur pose
Ġclo ts
ĠRec ommend
åħ ¬
roc ardi
Ġlate x
Ġventric les
Ġmis diagnosed
Ġirrit ation
onn at
Ġexpress ed
sin ess
188 8
rov ascular
Ġlipid s
Ġappropri ately
Ex press
Ġsil ica
Ġcompos ition
Ġscler otherapy
CS F
Ġproper ties
Ġitch iness
larg est
RO LL
qkv r
Un ited
ĠAddition al
br ard
Ġeas tern
Ġdon or
Ġgang lia
æľ Ī
Ġadj unc
Ġmi RNA
tin uclear
Ġscratch ing
Ġminim ize
Ġrecord s
ĠCr ick
Ġfall s
Di phtheria
Ġinvestig ations
Ġthick ness
Ġsick ness
Ġcontrac ep
Ġbind s
lasm id
Ġspecial ized
å¾ ģ
Ġnor thern
ĠSen ior
ĠCor poration
Ġmaterial s
Ġbuff ers
Ġparas ite
Ġparas itic
ham mad
Ġauth ors
ĠMi B
Ġfocus es
accum ulation
Ġperiodon titis
Ġurban ization
Ġrifamp in
Ġadh es
ml p
glob ulin
Pre vention
ĠMu hammad
Ġtourn aments
Ġaccept able
Ġsuppress ed
Ġtempor al
ĠBá»ķ n
Ġflex ion
UV B
ĠAut oimmune
UN ROLL
Ġeros ive
Ġrap per
ĠPers ian
Ġsac roil
aric ella
Ġrelig ious
ĠWill is
Ġopi oid
Ġfract al
phosph olipid
Ġlaw s
chron ize
ç´ ¢
ĠStrateg y
ĠFran Ã§ois
How ever
Ġfig ure
Ġfig ures
Ġconver ted
Ġinhal ed
Ġ---------------------------------------------------------------------------- -
ĠMOS FET
cephal y
Ġiter ations
Infec tion
ĠDA SH
Ġcompeti tion
ĠShe ehan
Ging ival
Ġaphth ous
Ġanat om
ĠPediatric s
ĠSap a
Ġkeratin ocytes
Ġmicron utrient
bu ild
Ġprincip al
Ġsolv ers
itr ull
Ġcorrespond ing
Ġfluoroquinol ones
ĠSever us
ĠES R
Ġspont aneous
Ġantagon ists
Ġsust ained
Ġast rocyt
è· ¯å¾
Ġtent ative
Ġspecim ens
Ġestr adiol
Ġneurode generative
Ġexclud e
Ur inary
Ġhorn s
Und ernutrition
Ġchamp ions
absor ption
ĠProf essional
Ġspondylo arthritis
Ass ociated
ĠACP A
ĠMall on
Ġflor a
Ġoppon ent
Ġdistinc tion
Ġvictim s
Meas les
ĠAgricult ure
ĠHÃ© brard
ĠHum ans
ĠBout onnat
Ġpert ussis
Ġmedull ary
ophosph amide
ĠSerge y
ä½¿ çĶ¨
ĠMek ong
ĠNoise Schedule
ĠNever theless
oass ay
Ġbever ages
Ġtria d
ĠNvtx Range
ĠThÃ©n ardier
Ġinappro pri
Ġfroz en
ĠSain teny
ĠDSV H
Ġincont inence
ĠOCL C
Ġirrevers ible
ĠSchrÃ¶ dinger
è·¯å¾ Ħ
ĠNoiseSchedule VP
0 20
7 40
A nd
C or
D iá»ħn
G C
L S
P ers
T á»ĳi
U se
V acc
c Ã¢y
j amin
o tics
p ack
p ytorch
Ġ 00
áº ¬
Ġm áº©n
Ġs old
ĠT áº§ng
Ġph ung
Ġr Ã¬nh
Ġr Ã¢y
Ġr á»§a
ĠlÃł o
ĠC as
ĠC ox
am ed
Ġqu ery
ĠV inc
ĠV ÃĢ
ĠH P
ĠH ell
ĠH ome
or iented
Ġgi áº±ng
ĠM á»ı
ĠB Ãły
ĠB á»ĵi
Ġan no
it ors
ro ck
ĠS et
Ġ2 25
ĠD omain
ĠCh á»¥p
ĠK r
ĠG Ã¡nh
Ġ19 2
ol k
ut able
ĠI ss
ig ital
ĠKh en
ĠKh Ã³a
ĠX i
ĠE qu
ĠE LISA
19 14
ĠJ e
ph áº£i
Ġ18 36
Ġ17 78
Ġi Phone
ob e
gi Ãºp
ĠGr and
ĠInd ustr
ĠUN IX
enn ium
Ġ178 0
Ġenc ourage
oles terol
Ġfr amework
ĠBy zantine
arc ia
ĠlÃ´ gic
ĠWh it
ĠGreg ory
jo in
ĠRen Ã©
Ġmeal s
ĠQue en
Sy stem
ĠJac ob
1 18
6 27
9 27
A ug
B i
C IA
E ng
F S
F re
F rom
G á»Ĺ
G lossary
L C
L og
M Æ°á»Ŀng
M ao
M ore
N et
N ET
O TO
P ost
S outh
T ay
T áº¥n
T á»·
W hat
X H
c ape
c ade
d ed
d áº¡y
e ur
i ors
k n
l á»ĭch
l Ã£nh
m et
t iáº¿p
u rom
v ong
¨ NG
Ġt uyá»ģn
Ġt ex
Ġc ul
ĠÄ ©
Ġth au
Ġth Æ°á»Ľt
Ġl Ã¬
Ġl áº«m
Ġh ab
Ġh ipp
Ġb rief
Ġm L
Ġm ao
Ġm Ã©
Ġm ess
Ġm Ãµ
Ġch Ãły
Ġch au
Ġch eo
Ġs á»©t
Ġtr Æ°
Ġtr á»ĵi
Ġn á»įc
Ġn eo
Ġn Çİ
Ġd ic
Ġd ensity
Ã³ p
Ġg á»ĵ
ĠT s
ĠT ung
ĠT ext
ĠT arg
Ġkh iÃªng
ĠN i
ĠN Ãª
ĠN om
ĠN áº¯m
ĠN epal
Ġr ot
Ġr ow
on i
ĠC á»ĵng
ĠC Ãģ
ĠC ivil
Ġqu Ã¢y
ti er
ti sts
ĠV ar
ĠV Ãłi
ĠV Ã¡n
ĠH ill
ĠH Ã³c
Ġx á»Ńa
ch Æ¡i
ĠM ic
ĠM á»©t
ĠM oh
al o
ar l
ed a
ĠB A
ĠB at
ĠB iáº¿t
ĠB Ã´i
ĠB art
ĠB lockchain
ĠL as
ĠL ec
ĠL ib
ĠL enin
at tr
ĠP P
ĠP S
it ual
it tee
Ġf an
Ġf lash
Ġf irm
ĠS z
el lect
ic ide
ĠNg Æ°ng
ĠNg uyá»ĩn
ĠNg á»«ng
ĠD eb
ĠD NN
ĠD ictionary
ĠCh eo
ĠCh á»Ŀ
ĠA T
ĠA ustin
ĠK Ã´
ĠK áº¡n
ĠK amp
th á»©
Ġ19 27
ent ropy
ĠNh ung
un ar
ĠQu Ãł
um er
op y
st one
ĠR eo
ĠR andy
Ġ20 7
Ġ20 9
Ġdis tr
ess ions
Ġpro te
Ġ5 20
áº» n
ag ger
ati f
lu id
ĠE very
19 37
19 48
19 49
19 46
Ġco h
Ġst ock
Ġus er
ĠJ ules
Ġ10 7
Ch inh
Ch á»īnh
Ġ18 08
ill es
Ġ9 7
Ġ9 37
Ġca che
ory ne
ial ism
ys tic
Ġ15 7
Äĳ á»©a
Ġ17 4
ĠAss essment
olog ically
per g
Ġass ay
Kh áº£
ĠUn d
18 71
ĠDo umer
Ġtrans form
ĠTo Ãł
Gi áº¥m
Ġ50 3
Ġ} }}
17 6
Ġop tic
kh á»ĳi
Ġ24 8
ĠAs h
oy a
Ġ60 2
sp eech
ee k
sh uffle
ĠIS O
ĠFor rest
ĠGiá» ıi
ĠAd dison
ĠÎ ©
ĠÎ ´
arm an
Ho Ã¡
the orie
AR S
TV QH
St ephen
Ġdel ta
ĠPhil ip
Ġå Į
Ġcap able
ĠGal ile
Giá» įt
Ġ189 3
roph ic
Ġstat in
Ġchem istry
ĠIs aac
Ġmá»ı m
Ġdim ension
ä¸ Ģ
ĠBo ok
Ġstrong est
omp son
ĠIndi viduals
Ġtá»§ a
Ġeduc ational
ĠAng kor
Ġang i
ĠPhys ics
Ġcollec tion
alk ing
ĠRa j
ĠInt elligence
bi ological
ĠMo z
ĠNguy en
ĠOS S
Ġmicros cope
ĠRev iew
ĠRuss el
Ġrib onucle
ĠGPU s
Ġnap alm
ĠEs cherichia
ĠLeon ard
Ġsuff ix
Sw ift
Ġhapp en
ĠMont agn
Ġarch it
ĠMathematic s
omyc es
Ġexperim ental
ĠCardi ovascular
ĠComm ittee
ĠVis ual
UB TVQH
Ġsn printf
ĠCliff ord
Æ¯á»ľ I
Ġåį Ĺ
Ġerad ication
ĠGib bs
rib osyl
Ġáº¨ u
ĠCounc il
ĠFau re
Ġelectroph or
ĠElli ott
C an
F r
L avender
X e
] <
c ount
f Ã©
h ar
l m
p ass
w est
Ġ á»Ńng
Ġc áº±n
Ġc tx
Ġc ustom
Ġl iv
Ġh áº±n
Ġb r
Ġm Ã³
Ġs chem
Ġk n
Ġd iá»ĩp
Ġp iano
Ġnh Ã²m
ĠT iá»ĩc
Ġng Ã¹ng
ĠN á»Ńa
ĠN ormal
Ġr Ãº
Ġr áº·ng
ĠC M
ĠC á»ĳt
ch á»ĭ
ĠM anh
ĠM ach
ĠM iss
ar et
ĠB ron
ĠB erg
ĠTh á»£
ĠL ap
ĠS T
ĠS á»¯a
ĠS elf
Ġngh iáº¿n
ĠNg Ã´i
ĠG all
ĠG Ã³i
il a
ĠX ML
hi e
Ġex ce
Ġres et
ĠJ enner
ĠJ ersey
Ġ10 3
and er
Ġ* :
Ġ18 73
Nh iá»ĩm
ans as
Ġwe igh
low er
ult in
Ġ' \
10 4
Ġcomp ete
Ġ16 1
Ġsub s
Ġtre e
Ġdet ailed
Ġul timately
Ġappro val
Ġsim pl
Ġactiv ely
ĠAc et
ey er
Ġeff iciency
ĠMcG raw
39 9
Ġact ual
ĠAt t
Ġdim ensions
Ġplac ing
ĠUV A
ĠInfec tious
Ġlá»ģ u
ĠTechn ology
Ġaccoun ted
Ġconv inc
Ġlic ensed
Ġagre ement
overn ment
itiv ely
ĠAlger ia
ĠPolyn esia
ĠManh attan
! ",
. );
9 37
B ÃŃ
B en
C á»ı
C Ãºng
D I
F U
G b
G AN
H b
H áº¡n
K E
L áº¡
L iá»ģn
L á»¡
M ax
M eningococcal
N áº·ng
O V
O titis
P y
P le
Q uyá»ĥn
R F
R R
R Y
R áº¯c
R ANK
S K
S S
S Æ°ng
T Ãº
T á»Ļi
T á»ĳc
V p
] ).
] ))
b ul
b á»ı
b and
b Ãºn
b acterial
c á»Ńa
c anc
c ob
c ology
c ounter
d áº¡ng
f luenza
h u
h áº¡t
i ocytes
j Ã¶
k Ãªu
l Ãºc
l á»ħ
m Æ¡
m em
n Express
o ic
o eb
p n
p atient
p nea
q ua
r atory
r uff
s áº£n
s ense
s cheduler
t áº¯c
t áº¡o
t reatment
v n
v á»Ł
w hile
x l
x u
x Ã¡c
¨ ĺ
© æķ
° ¥
Ã ī
Ä ģn
å ¢
æ ·
æ İ
ç ¾
è ¯
ë Ī
ë °¥
Ġ á»Ľn
Ħ ë
Ġt á»ĭnh
Ġt one
ng u
Ġc ream
nh áºŃn
nh áº±m
ĠÄĳ anh
Ġth in
Ġv ocoder
Ġv itro
Ġl áº£o
Ġl ie
Ġl ived
Ġl abor
Ġl actic
Ġh anh
Ġh ereditary
Ġb áº½
Ġb áº¥p
Ġb á»ķi
Ġb and
Ġb float
Ġb ony
Ġb ites
Ġb eds
Ġm ent
Ġm ur
Ġm áº«n
Ġm arginal
Ġm arriage
Ġm issing
Ġch á»Ļt
Ġch Ã¡i
Ġch á»±c
Ġch á»ĵi
Ġch á»Ńa
Ġch lamydia
Ġs nee
Ġs uffer
Ġs eptum
Ġtr ick
Ġtr ied
Ġn ation
Ġn á»¥c
Ġn iÃªu
Ġn á»ĥ
Ġn áº¥c
Ġn á»ĩn
Ġd os
Ġd ors
Ġd ress
Ġp ed
Ġp ir
Ġp tr
Ġp uncture
Ġp lasmid
Ġnh Æ¡
Ġnh áº¡o
Ġnh áº¡n
Ġnh áº·ng
Ġnh áº©u
Ġg ao
Ġg áº§u
Ġg Ãłng
ĠT p
ĠT ur
ĠT iá»ĩm
ĠT á»ĥ
ĠT esting
Ġkh Æ°á»Ľc
Ġkh á»±ng
Ġph Ã´ng
Ġph ases
ĠN Ã©
an al
Ġr ng
Ġr á»į
Ġr oy
Ġr heumat
Ġr ises
Ġr ising
in oid
ĠC RI
am m
en viron
Ġtá» £n
Ġqu Ã¡ch
Ġqu áº³ng
ĠV Ãłm
ĠV III
ĠV ZV
ong ed
ĠH ÃŃ
ĠH áº¡ng
ĠH Ã©t
ĠH eal
ĠH INT
Ġx v
Ġx á»ĭ
Ġx Ãºm
ch áº£
Ġgi r
ĠM uá»ĳn
Ġ1 19
al gia
al imumab
ar ound
Ġo áº¯t
Ġo steo
ĠÄĲ T
ĠÄĲ á»ĭch
ĠÄĲ ak
ĠÄĲ ÃĤ
ĠB Ã¡n
ĠB ib
Ġin efficient
ĠL á»ĩnh
ĠL áº¡m
ĠL OOP
at ures
at ra
ĠTr Ã¹
ĠTr á»Ļn
ĠTr ail
ĠP ower
ĠP SC
ĠP iro
it ure
as th
as hi
Ġf aec
au x
ĠS á»Łi
ĠS áº£m
ĠS ult
ĠS teroid
ĠS py
Ġw ear
Ġw ris
Ġw ww
Ġto es
ic lovir
ĠQ uyÃªn
ĠD Æ°á»£ng
ĠD aily
ĠCh al
ĠCh Ã¨
ĠCh uá»ĳi
ĠA st
ĠA ges
ĠA ging
ĠPh Ã²
le ans
ĠK iá»ĩm
ĠK Ã¬m
ĠG ro
ĠG ood
ĠG OTO
us es
em ale
Ġthu á»Ľc
Ġ" [
id ence
ĠNh Æ°Æ¡ng
ur ance
ac lass
ol ly
Ġis lands
ĠQu Ã¡t
il ine
il ical
ĠI O
ĠI CD
lo fen
ad ine
st rain
ĠKh Ã¢u
ĠKh uáº¥t
Ġas c
Ġas ymmet
Ġbe am
Ġbe at
ĠR ice
ĠR arely
ĠR PG
tr Ãłn
tr acted
ce an
Th Æ°
ĠHo k
ĠHo ward
ĠHo over
ot ension
ot oxin
ry th
Ġpro inflammatory
ain fluenza
Ġ5 37
Ġal anine
Ġal amang
Ġ4 98
ag er
ĠW atch
ĠW ass
ĠW hipple
Ng áº«m
ab ama
ĠE Gb
Ġco ord
Ġcom mit
uc ts
ef l
qu Ãª
ug et
Ġex clusive
Ġex clusively
Ġ6 28
Ġres block
Ġres uming
Ġpr ur
ĠJ ay
Ch ickenpox
ĠAn emia
Ġim plant
Ġim possible
ph á»ĳ
erm atitis
ĠO nam
Ġ18 19
Ġ18 26
Ġ18 56
ill os
Ġvi ol
Ġ9 17
pl enic
ib ert
ard iac
Ġem py
-------- ---
he ic
Ġpar ainfluenza
ge olli
to ol
ew age
Ġre in
Ġre ticul
ĠdÃ¹ m
iv eness
ys ter
Ġ15 3
Ġ15 9
ff orts
Ġhyp otension
Ġcar xtÆ¡
tim esteps
ik i
Ġ17 1
ip per
ov al
Ġanti oxid
Ġun iversity
Ġun controlled
Ã©m ie
ud es
Kh Ã¡ch
Kh Ã©o
Ġsh r
Ġsh aft
Ġsh arp
Ġout weigh
Ġsc ript
Ġde emed
ect al
ect asis
ĠUn treated
18 79
Ġno ticed
Ġint elligence
Ġag grav
Ġover load
Ġover fit
Ã¨m e
12 5
ann a
Ġstr ing
Ġstr iking
Ġstr atif
Ġspec trum
Ġ[ ...]
Ġes ophageal
Ġform ulation
Ġ50 5
Ġinv ade
Ġinv asion
Ġmáº¹ o
Ġup sample
Ġgr ass
ĠBa hn
17 9
ĠâĢ ²
ĠÄĳu Ã´ng
Ġhy dration
Ġunder weight
son ian
Ġop posite
ĠAr med
ail les
Ġthá»¥ y
Ġsm ell
Ġrem edies
ĠbÃ© ng
ian a
Ġins ect
rol imus
rol onged
Ġu veitis
Ġmening i
Ġmening ococcus
Ġsa fer
Ġshould ers
Ġend ocarditis
Ġend othelial
() );
Ġser otypes
Ġáº¤ y
Ġbas eline
ĠtÃ¹ m
Ġmod erately
Ġactiv ating
Ġphys ically
195 8
num el
fer on
ilep tic
ĠPro b
att proj
Ġval ves
Ġgluc osamine
Ġhum idity
ae us
ĠNS UT
cl av
Ġle aves
uro s
Ġlep romatosis
ĠSc reening
iod on
quent ly
ĠEx tr
ah n
Ġvar iability
Ġcompl iance
gi áº·c
ax es
Ġ26 5
Ġdescri bing
Ġexpos ures
Ġdisc oid
Ġdisc ourage
An emia
cent ury
ows ki
Ġindic ative
Ġinhib iting
Ġed ges
ole mic
break s
Ġmicro glia
Ġmicro biome
ĠBr no
Ġpoor er
Ġve hic
reg ulated
AR RY
ĠCl inton
Ġoff icially
^{ \
ĠCar cinÃ´m
lad imir
ĠGo ats
Ġhem olytic
Ġdel ays
Ġax is
orr heic
ronch itis
ret in
app uccin
Ġhydro dist
Ġrefer ring
Ġblock ed
Ġblock ing
li oma
li ography
Ġbir ths
Ġir regular
uk i
astr itis
Ġradi ograph
Ġsaf ely
77 6
Ġeval loader
Ġmy elin
Ġmy ocl
Ġstat ins
ĠSch ick
Ġenc oded
ĠmÃ¹ n
ĠNor thern
soft max
Ġer adic
Ġlip s
ĠAt las
Ġher bal
Ġevery one
ĠNo el
Ġcr itic
Ġneut rin
Ġmel an
Ġair ways
Ġec onomy
LA E
Ġhal luc
Ġdim in
ĠhÃ£ nh
ĠEm peror
Ġrecogn ised
fc proj
ĠBo er
Ġphen ytoin
Ġexamin ing
ka ffee
Ġdefin itions
EC G
ĠSp ond
rup t
Ġprom otes
Ġsulf ide
emat osis
ĠWith in
åħ ĭ
roc ytes
Ġbehav iors
Ġultras onography
Ġç ¯Ģ
Ġexist ed
Ġcuda Free
Ġsol o
Ġchlor ination
Ġvir ul
Ġcarb amaz
Ġox it
Ġregion al
Ġfac ilit
iform is
Ġé ĺ®
Ġencephal opathy
Ġmag nes
Ġ76 1
ĠTum ors
Ġdry ing
Ġacqu iring
Ġelim inating
Ġclin ics
AP P
Ġsum mer
Ġnod ecay
ĠPo uget
ĠPen elope
Ġfat ality
Ġconcer ning
ĠDig gory
ĠDomin ica
ĠInfec ted
ĠInfec tions
æĺ ¥é
Ġtravel ing
Ġtoler ate
Car thy
ĠMor rison
Ġrelations hips
Æł n
Ġparticip ation
Ġparticip ants
Ġfed eration
lnf w
*) &
áĢ º
Hu á»ĩ
ĠNot able
Ġcontain er
ĠTyp hoid
Ġfatal ities
encl ature
Ġprescri ption
SP R
Ġimmunosuppress ants
cu h
Cl inical
å® ī
Ġintegr ase
cup ational
sl ices
uls ive
Ġmetast as
Ġmetast asis
Ġhepat ocytes
mat mul
Ġclai m
Ġherpes virus
Ġmicros copic
Ġaddress ing
Ġsynov ial
Ġsynov ium
Ġsynov iocytes
ĠAdv anced
Ġkill ed
ËĲ k
Hep atovirus
Ġabsor b
ĠâĨ Ĳ
ĠId entif
Ġfav our
open ia
Ġneurop athy
Ġneurop sychiatric
Ġschool s
Ġtransfer ase
Ġmyc obacteria
UV A
Ġmem antine
Ġprepar ed
ĠchÃµ ng
ĠIU CN
Ġfru it
Ġeosinophil s
Ġexacerb ations
ermat oph
calc iferol
Ġchalleng ing
Ġden oise
embed dings
Ġdomin ance
Ġcorrel ate
Ġreveal ed
Ġconsider ably
Ġlact ation
ĠRay mond
Ġaden ovirus
Tho áº¯t
otoxic ity
Ġdiscuss ion
ĠGerman y
Ġcommer cially
ĠFran z
Ġhemorrh age
Ġelectroly tes
çī ¹
Ġrul ing
Ġfer til
Ġinhal ation
Aut oimmune
Ap pro
áºł I
Ġcompar ison
sm all
Mar x
ĠCardi ology
ĠQue ens
Ġagre ed
Ġcannab is
Ev ent
æŀ ľ
ĠNÃĵ I
Ġtubercul in
Ġtubercul ous
Ġhemat opoietic
IB D
Nguy en
Ġmix ture
Ġtrepon emal
Ġtrepon ematosis
Ġhydroxy chloroquine
ĠOs ler
riti ous
Ġplu gs
Ġshell fish
Ġsoldi ers
Ġ>> >
aa S
ä¼ ļ
ĠèĮ ¹
Cereb ral
Ġflo or
Ġhol id
Ġenvel oped
Ġfluctu ations
Ġepidem iological
Ġterrit ories
nucle otide
Ġá ¼
Ġcholang itis
ĠSurve illance
Ul cerative
ĠEmer gency
æī ©æķ
Ġhá»Ń ng
ĠLevel s
Ġarmad illos
Ġmeg acolon
Sin usitis
ĠBud d
util s
wrap per
BU F
éĮ Ħ
ĠTrich ophyton
ĠPÃ© rig
lucur on
Ġfibrob last
Ġpic orn
ĠHarm and
Ġhoc key
ĠGrace y
ĠMak geolli
ĠPriv et
nod ecay
Ġber ries
Ġgar age
ĠMÃ¼n chen
resolution al
aceu tical
Ġmisc arriage
aner cept
Ġcigar ette
ĠTrepon ema
ĠIly a
Ġnumb ness
Ġneurotrans mit
Ġexpans ion
Ġlymphaden opathy
Ġsacroil iac
itrull inated
Ġdic lofen
ellect ual
Ġelectrophor esis
canc erous
jÃ¶ gren
Ġroy al
ĠCRI SPR
ĠPiro th
Ġwris ts
ĠWass ily
ĠBahn ar
appuccin o
Ġhydrodist ention
Ġneutrin o
ĠcudaFree Check
Ġcarbamaz epine
æī©æķ £
Ġdiclofen ac
5 20
B io
C urrent
D u
G lucose
K á»³
M Ã¢y
M achine
N Äĥng
Y WOR
b iology
c r
c el
e q
g el
m eta
r at
v Ãłng
Î Ń
ç ĸ
á» Ĥ
Ġt ask
Ġc red
Ġv s
Ġv Æ°á»£n
Ġl á»ĳ
Ġh Æ°á»Ľc
Ġb oy
Ġm Ãłnh
Ġk i
Ġph Ãłn
in eph
er ies
ĠC Äĥng
ĠC ass
ĠH I
ĠH on
ĠM arg
ĠÄĲ á»£t
ĠL á»ĵng
ĠL ate
ĠL iving
ĠS eb
ĠA ct
ĠK op
Ġ19 03
ĠKh á»§ng
ĠX anh
Th á»«a
hi re
ĠF le
ĠF ort
ĠF ull
Ġpr ices
ĠJ E
Ġ10 4
Ch á»©ng
Ġ18 15
Ġ12 9
Äĳ á»ĳt
Ġvá»ĩ t
ov anni
ĠSt ory
ish ers
ĠCon s
Ġ[ "
gen ic
put ational
ĠAr m
ĠTu á»³
Ġnew s
25 4
Ġbá»Ŀ m
ĠAd ams
over y
Ġ188 6
ole cular
ene gal
lin ois
Ġcos ine
ĠBe ng
Cá»¥ m
ĠErn st
Ġeng ine
áº¢ nh
Ġmob ile
anth em
ĠElec tron
World wide
Ġconjug ate
ĠTerm s
ĠIl linois
LIN E
ineph rine
( \
+ ,
8 76
B ad
C ertain
H á»Ĺ
H áºŃu
H all
K Ä©
K á»·
L D
L ao
M C
M Æ°a
M á»¡
P e
R isk
S Æ°Æ¡ng
T áº¡p
T ype
U sing
V áº¯c
] :
a fer
b inding
c á»ĳ
c ir
c ule
d f
d t
d ev
g g
h Ã²n
h á»ĵi
h uman
i Ã¨re
k Ã©o
k á»³
l á»Ľp
l á»±u
l ipid
m otor
n in
n ik
s ine
t áº·ng
t led
v Æ¡
v áº¥n
} =\
¨ æ
½ ®
Ã Ł
Å ¨NG
å ¦
è ī
è Į
è ĸ
é ¾
Ġ ;
Ġ á»¥
á» ĥn
ng uy
ng oáº¡i
Ġc Æ°u
Ġc ore
nh iá»ĩm
Ġth or
Ġth rash
Ġv Ã³
Ġv un
Ġl Ãºt
Ġh áº¯ng
Ġb Ã²n
Ġb Ãºp
Ġb áº¥c
Ġb lamed
Ġm and
Ġm omentum
Ġch Ãºi
Ġs ÃŃnh
Ġtr end
Ġk w
Ġn ao
Ġn á»Ľi
Ġd á»Ļng
Ġd Ã´i
Ġp Ã´
Ġp ure
Ġp ow
Ġnh Ã²e
Ġg á»Ļi
Ġg lycer
ĠT ed
ĠT áºŃn
ĠT ol
ĠT áº¯t
ĠT ag
Ġkh iÃªm
Ġng Ã¡ch
ĠN ick
ĠN Ã¢ng
ĠN ATO
Ġr Ã¨
Ġr á»¯a
on o
ĠC N
ĠC P
ĠC ry
ĠC ath
Ġqu á»ĩ
Ġqu ark
ti des
ĠH m
ĠH Ãºc
Ġhá» Ľt
Ġ( ...)
ĠM á»ĳc
ĠM odule
ĠÄĲ am
ĠÄĲ á»ķng
ed ef
ĠB ohr
ĠTh Æ°á»Ľc
ĠTh iá»ĩp
ĠTh ird
Ġin tention
ĠL ocal
ĠL STM
at oxin
ĠTr u
ĠP lasma
ĠP ET
Ġf ont
ĠS ti
ĠS us
el ing
ang elo
ĠNg Äĥn
ĠD Ã£
ĠD Ãłnh
ĠD uc
ĠCh Ãło
ĠCh á»«ng
ĠCh iÃªng
ĠPh á»ĵn
le q
ĠK iá»ģn
ĠG ates
th iáº¿u
th eta
Ã© r
Ġlo Ã©
id ium
Ġcon fer
ac u
il ing
ĠI Q
ĠI a
ev ant
ad ata
st ore
ĠR Ã©
ĠX I
ĠX u
ĠX Ã³m
Th Äĥm
ot ton
Ġ5 000
ĠW i
ĠW ave
Tr Ãºc
19 11
ho ff
Ġdi ver
ĠF e
ĠF ET
ĠF inn
uc ky
Ġex cell
Ġ6 44
ĠJ ust
ri k
ĠO cean
Ġ8 66
ĠY áº¿t
Ġmang an
ber st
ĠÃģ ng
Ġkháº£ m
ff er
Ġá» ¶
Äĳ á»Ļng
Äĳ Ã³ng
ik ipedia
Ġ17 90
Ġ17 44
ĠSt reet
ĠAl v
ĠAl abama
Ġj e
ren a
In valid
18 59
ĠTo y
Gi Ã¡m
val ence
cul ate
gen esis
Ġ13 3
Ġ13 9
Ġpol iovirus
Ġgr av
res earch
aw n
ĠAr r
ran di
Ġthá»¥ p
Ġvá»ı n
ins ic
Ġu á»·
ĠChu Ã´ng
32 4
ĠGiá» ĵng
Ġiniti atives
gi Ã¡
198 3
ĠAD P
Ġ193 1
Ġgu ide
que z
Ġprovid er
Ġz one
bo ol
ĠGu ardi
Giá» ¯
ĠAI C
Ġbias es
TT DL
Ġcogn ition
ĠBang kok
ĠSp read
Ġmac ro
Ġsulf ur
Ġmetab ol
Ġsol id
Ġnit rogen
188 4
åĲ Ľ
Ġ39 1
eti es
ĠPhys iology
Ġdeb ugging
Ġoper ations
OP A
Ġcollec tively
Ġsepar ated
æĺ ¯
Ġsel en
ĠNot es
Ġcontin ent
Ġsci entists
Ġprec ision
iro ch
Inf o
Ġpolyp eptide
Ġinher it
Ġ06 9
PE CT
ĠSpr ing
ĠCult ural
ĠTw itter
ĠWater gate
Syn tax
ĠTod ay
Ġpan el
ĠDÃ¬ u
ĠFlaviv iridae
ĠOrig ins
Spec ific
Barr Ã©
ĠSah ara
empor ary
ĠCand ida
Phys ical
Ġpsyched elic
Ġgá»Ŀ m
ĠSeo ul
ĠDioph antine
Ġcul tiv
ĠTarg et
ĠMontagn ier
KE YWOR
ĠQueens land
ĠGuardi an
Syntax Error
' "
) [
/ (
? )
B I
B áº£ng
C re
H iáº¿n
J ava
L ev
M y
N á»Ĺ
P AN
` :
b re
c c
d anh
f p
g ie
h Ã¹ng
h á»įc
l Ã²ng
m g
x e
z a
æ ³
Ġ erg
Ġ -----------
Ġt eas
Ġth áº¯n
Ġl á»±
Ġm ouse
Ġs á»įc
Ġd ynam
Ġd ynamic
Ġp ick
Ġnh áº¡i
Ġg ap
ĠT uyá»ĩt
Ġng á»Ŀi
ĠN ichol
Ġr ia
er ry
ĠC U
Ġa ward
ĠV á»Ł
ĠV Ã¢ng
ĠH or
ch olesterol
ĠM áº¡ch
ĠM ik
ĠM ean
ĠM ount
ar eness
ĠTh a
ĠTh rough
ĠL at
ĠL AN
at um
at orn
Ġan th
ĠTr ao
ĠTr avel
ĠS po
Ġw ait
ĠD oct
ĠK el
ec oming
ĠG og
ĠG av
ĠG arcia
Ġlo Ã¡ng
ĠNh iÃªn
ol m
et o
ĠGi ovanni
ĠR Ã¹a
ĠR ey
Th am
Th áº±ng
Th uyá»ģn
ĠHo w
Ġpro ved
ĠÃ Ģ
ĠF o
ĠIn iti
Ġ18 01
Ġ18 48
Ġ9 23
ens is
Ġ/ =
Ġ15 6
Ġcont ained
ĠAss istance
ĠAl len
ĠÄĳÃ´ la
Ġtrans lated
Ġgh Ã©m
aw ay
Ġref lect
NS W
ĠSc ott
Ġamong st
Ġshort ly
Ġfl aviv
Ġnho Ã¡ng
AD A
Ġinflu enced
Ġer rors
pe ti
Tu áº§n
sc reen
ĠBar s
Ġmass ive
Ex pected
ÃĤ u
Ġscal ing
Ġexec ute
oper atorn
ĠKar l
Ġcover ing
Co V
Ġsilic on
ĠNap ole
ĠRob in
á»Ĩ N
Ġkind s
Ġlic ense
ĠIr ish
ĠFol k
ĠGol gi
ĠMat th
ĠHeb rew
Cont act
Ġamid an
Ġliv est
Invalid SyntaxError
KEYWOR D
operatorn ame
+ --------------------------------
+ --------------------
, ]
, ..
3 60
4 60
6 40
8 19
: ,}
; ;
A v
B L
B et
B lock
B acterial
C áº©m
C áº·p
C IP
D áº¿
D á»įc
D ue
F i
F ever
F ran
F DA
F ungal
F amily
H e
I LE
I NG
L M
L O
L Ãºng
L aboratory
M Ã³ng
M ua
M á»«ng
M Æ°á»£n
N á»£
O o
R id
R ock
R NP
S áº¯c
S ur
S á»Łi
T áº¡
T Ã³c
U NSW
V I
V Æ°á»£t
V aricose
X áº©m
X CR
\ ,}
c áº§n
c Ã¢u
c ow
c ue
c les
c row
f o
f ol
h al
h inh
h á»ĵ
h á»į
k im
l it
l ai
l Ã½
l ers
l Ä©nh
l á»Ŀi
l iver
m ere
m ale
o Oo
p neum
p enicillin
p adding
q uyá»ĥn
r iÃªng
r astr
r axia
s ong
s Æ¡n
s evere
t iáº¿n
t el
t ting
t ario
v ent
w en
w arm
x Ã©t
x áº¿p
y x
y áº¿u
z ac
} )}
¢ ħ
¦ Ļ
ª NG
É Ļ
ã ĥ
å §
å ĭ
å İ
å Ĵ
ç ±
ç Ĳ
è Ĭ
è ¥¿
é ĺ®
ð ¡
ð ¢
Ġ á»Ŀ
ģ «
á» Ĭ
ng Ã¢m
Ġc ranial
ĠÄĳ Ãºm
Ġth á»ĳ
Ġth Ã²ng
Ġth Æ¡i
Ġth irst
Ġth áº¹o
Ġv ÃŃt
Ġv Ãªnh
Ġl á»¯ng
Ġl áº¿t
Ġl em
Ġl Ã³i
Ġl eather
Ġh ide
Ġb ond
Ġb umiputera
Ġm á»įn
Ġm ach
Ġm áº«m
Ġm Ã©c
Ġm orph
Ġm oment
Ġm umps
Ġch áº±ng
Ġch áº¡c
Ġch Ã³t
Ġs ector
Ġs ewage
Ġtr ained
Ġtr ache
Ġk ang
Ġk ick
Ġn áº¹p
Ġd t
Ġd y
Ġd Ãł
Ġd ent
Ġd áºŃm
Ġd loss
Ġd residual
Ġd entist
Ġd ucts
Ġp ia
Ġp ets
Ġp ony
Ġp MRI
Ġnh áº£
Ġnh en
Ġg on
Ġg od
Ġg erm
Ġg lass
ĠT iá»ĥn
Ġkh Ãªu
Ġkh Ã³m
Ġng Æ°Æ¡i
Ġph iá»ĩn
ĠN Ãºp
ĠN ien
an asal
Ġr Ã¹
Ġr Ãºm
Ġr oles
Ġr tol
in us
on at
on ary
on ies
ĠC in
ĠC Ãºp
ĠC HO
ĠC á»§a
ĠC KD
ĠC XCR
am it
am bo
en able
en zy
Äĥ k
ti se
ti tious
ĠH TT
ĠH ARRY
Ġx áº¯n
Ġx áº¹p
ch Ã¢u
Ġgi Äĥm
is l
is cher
ĠM ec
ĠM Ã£ng
ĠM use
ĠM atis
ĠM DR
ar oid
Ġo vers
Ġo wing
ĠÄĲ Ã¢u
ĠB Ã´
ĠB Ã²
ĠB Ã¨o
ĠB ey
ĠB ole
ĠL Æ°á»£c
ĠL á»Ļng
at he
Ġan tinuclear
ĠTr Ã¹m
ĠTr Ã¹n
ĠP all
it Ã¤
Ġf ight
Ġf open
Ġf close
au c
re quency
ĠS Ã³ng
ĠS AM
ĠS NP
ĠS how
Ġngh ÃŃa
ai ming
Ġw c
Ġw inter
Ġw rist
Ġto e
Ġto anh
Ġto ile
el apsed
ĠĠĠĠĠĠĠĠ ĠčĊ
ic l
ic z
ic ies
ic illin
ĠD á»ĭp
ĠD ynasty
ĠD VB
ĠCh Ãºt
Ġ== ================================
ĠA ge
ĠPh áº¿
le g
le on
ĠK S
ĠK ont
ĠK QH
ĠK ieu
om atosis
ĠG Æ°Æ¡ng
ĠG ren
ĠG art
ĠG ust
ĠG ett
us ke
us tice
th iáº¿t
th Ã¢m
th áº¥p
Ġ" %
ac ing
ac ids
ul ins
ol itan
Ġis cha
et ta
un cond
Ġe ase
od ay
ut or
ut rophil
il lo
il st
ir med
ĠI b
ev ision
lo ud
ter one
ad ed
ad elta
Ġ3 38
st ay
Ġfor ces
Ġfor tification
ĠGi ven
ĠR heumatoid
Ġor ally
tr á»©ng
Th áºŃt
ot ed
ers ely
Ġpro ges
Ġpro state
ÄĲ ang
ÄĲ á»Ŀn
Ġ5 50
Ġal umin
yp hoid
oc ar
oc ys
oc ont
oc ellular
ag ma
ĠU pon
lu ish
ĠW or
ĠW ide
Ng hi
Tr Æ°ng
ab yte
ĠE F
ĠE NA
ĠE CG
19 19
19 41
ho a
Ġco ating
Ġco eliac
Ġco ffee
Ġst aining
Ġst ability
Ġcom ing
Ġcom fort
Ġdi arr
ĠF ree
ell es
ex posure
qu Ã¡
Ġ6 18
Ġ6 76
ĠIn it
ĠIn itial
igh ter
ver ted
og astric
ant in
Ġpr en
ĠJ ar
ĠJ ef
Ġ7 68
pt on
Ġ10 75
Ch Ã¢u
Ch ild
uch i
und er
ph Ã²
ph rag
á»Ŀ ng
erm al
ĠO rac
ĠO thers
ĠO RS
Ġchu k
Ġ18 77
Ġ18 55
Ġat ol
Ġat tract
Ġ9 31
Ġ8 10
pl astic
te en
Ġgen T
ĠY in
eop les
ub un
ose i
Ġinfec ts
ome chan
Ġca v
mptom atic
ost atic
pro filer
ach ed
Ġtim ings
Ġrec essive
Ġre use
ber th
amp arts
Ġpre att
Ġab ilities
Ph Æ°á»Ľc
iv itis
ys burg
Ġ15 4
Ġ15 50
Ġ15 58
Ġblood y
Ġá» Ĳ
Äĳ á»«ng
Ġhyp o
Ġhyp ert
Ġinf ormal
Ġel ite
Ġel astic
ron id
ik es
ip es
ov ar
Ġar ises
Ġper fusion
Ġper ception
Ġper ceived
Ġanti rheumatic
Ġun infected
Ġ11 7
ĠSt atis
enc oder
Ġap ple
Ġne urom
gr aph
Ġpl ans
ven ile
Ġoc cas
Ġdef icit
enti virus
Ġmed ian
anc ing
amin ergic
Kh ÃŃ
Ġsh ift
Ġout patient
con dition
tis ed
18 7
Ġint olerance
ast ype
ĠĠĠĠĠĠĠĠĠĠĠĠĠĠĠĠ ĠĠĠĠĠĠĠĠ
ĠĠĠĠĠĠĠĠĠĠĠĠĠĠĠĠ ĠĠĠĠĠĠĠĠĠĠĠĠĠĠĠĠĠĠĠ
Ġse ques
ater nal
Ġpres en
Ġpres erv
rain e
Ġover active
Ġcl imb
Ġen able
Ġnon specific
rop o
rop in
rop out
rop athy
Ġret inol
ĠCon sequently
Ġimmun ological
Ġimmun ologic
red uce
Ġdec omp
Ġ100 9
ody nam
Ġinv ol
art a
Ġfai ls
Ġgr ade
res ume
oph aryngeal
yl ene
yl penicillin
put s
Ġop position
yc ardia
Ġlead ers
Ġinter medi
Ġdr inks
Ġind ication
Ġind oor
ĠHá»į a
ĠLan ka
ins ulin
Ġrang ing
olv ement
Ġpneum on
Ġloss f
Ġproduc tive
gs um
Ġacid osis
Ġmon ocytes
com mun
Ġtrá»¥ ng
Ġend osome
Ġend ovenous
form in
form ance
Ġser ovar
rit ant
Ġpresent ations
Ġob tain
Ġmain land
Ġmod ifications
ĠÃ´ tÃ´
Ġactiv ate
Ġphys iological
32 6
por ter
25 1
ĠPro v
Ġval vular
Ġbi os
Ġacc el
Ġacc id
ink ed
Ġle th
Ġlep er
Ġclass ically
oss ible
(" +--------------------
ĠGiá» ¡n
ĠEx p
Ġsw abs
press ions
gi áº£i
Ġvari ed
immun e
Ġelec ted
Ġcal ories
pr agma
min ute
als am
ĠMc N
arr h
Ġwater y
ĠÎ ¸
Ġconsid ering
Ġext ension
Ġz ona
Ġconf ined
xim ab
ĠDis tributed
Ġmicro cephaly
ĠGr iff
08 6
Ġsimilar ly
ĠPol aroid
Ġinj ectable
Ġche ese
Ġ29 9
Ãģ p
Ãģ Ãģ
Ġhep arin
Ġneuro fibrillary
Ġneuro cognitive
term inal
cum in
Ġ: ,
Ġ: ]
Ġdepend ent
ros copy
Ġax ial
ume au
sych ological
Al so
Ġpass es
vers ely
Ġtop ics
Ġexp end
Ġhydro x
Ġnec rotizing
38 3
ĠOn tario
Ġepid emiology
AD FA
ĠGal ibert
ĠGal leon
Ġreview s
Ġreview ed
ring e
Ġphot o
Ġrece ives
ters titial
Ġradi of
roph ils
path c
Ġclear ed
ĠSo áº¡n
CT TT
cuda Event
79 1
Ġtend erness
Ġhaem at
Ġmax T
Ġmax illary
Ġabs olute
ĠCO X
Ġisol ate
iat ors
Ġtechn ically
Ġeryth ema
Ġeryth ropo
pan ish
Ġple ura
54 1
sum s
Ġec onom
Ġmut ated
Ġvia ble
Ġinst ances
Ġhist amine
Ġet anercept
Ġeth moid
Ġeth anol
Ġslow ed
of ovir
ĠResearch ers
** *
Ġgl ioblastoma
Ġamino transfer
Ġmac rol
rup tion
activ ity
Ġexc it
Ġread ily
Ġach ieving
Ġnear by
Ġaccum ulates
Ġprogram mes
Ġallerg y
pred ictor
Ġsleep iness
Ġcuda Mem
ĠIndi ans
Ġirrit ability
Module List
ĠPer anak
Ġpe ers
Khu Ã´n
188 7
Ġplac enta
Ġsil ver
Ġtro uble
Ġscler osing
Ġinfer tility
åį ģ
ĠBi ang
åĲ İ
ĠSer um
Par vati
ĠBro ad
Ġmá»Ľ m
ĠGene ve
Ġexpl ained
Ġexpl icit
ĠCH D
ĠCH U
Ġglyc an
Ġaccur ately
Ġput t
Ġdop aminergic
ĠPhys icians
Ġsurround ed
178 7
eros exual
Ġdeb ilit
Ġdon ors
Ġemerg ence
Ġgang ren
tin ysh
Ġscratch F
uber cul
Ġrespond s
gl ut
Ġrestr ict
Ġregular ly
Ġtee ing
Ġcoron avirus
Ġhard core
ĠOb ject
ĠOb esity
Ġstool s
Er nie
ĠHer pes
Ġess entially
ĠMel ayu
AL Y
Ad amW
Hu á»³nh
Ġinduc tion
ĠÄĲá» ªNG
ĠAugust in
ns f
ĠFed eral
Ġyellow ish
Ġhom o
Ġfill ing
Ġsci entist
ym ph
ĠGR U
Ġattach ment
Ġtru Æ¡ng
ĠAntib iotic
Ġuncon ditional
ĠDiffer ent
Ġartic les
'] :
Ġexec utive
Ġatr esia
ĠRu á»Ļng
Ġindependent ly
ĠSmith sonian
ĠOper ation
Ġuns afe
Ġepileptic us
ĠCong enital
ĠMag n
Bu á»ķi
On ce
Ġbio fil
Ġcur able
Ġpredis poses
Ġos m
jo int
Ġburn s
Ġ66 2
Ġenh anced
--- +--------------------------------
dep ress
Ġconsistent ly
Ġing red
olar ization
Long Tensor
Ġcheck ing
ĠNum erous
Ġseas ons
ĠVol ume
Ġtour ism
Ġdirec tion
ĠWal d
We bsite
ĠRam Ã©e
Ġprepar ations
Ġinfiltr ation
ĠBeh avior
Ġundergo ing
Ġcomplement ary
Ġdermatoph ytes
Ġdomestic ated
Ġhet erosexual
ĠNG Æ¯á»ľI
ĠAnton off
ĠÂ ±
ĠDen ver
Ġcorrel ates
Ġconsider able
third s
Ġcomm and
Ġaggreg ate
Ġrhin ovirus
ĠPsych ological
ĠArab ia
high er
Ġide a
Ġdiscuss ed
ĠCollec tions
ĠIslam ic
ĠTer adata
Ġ{} ".
Ġdat aset
ç¿ ł
Ġswe ating
Ġarth ritic
Ġretin opathy
Ġhemorrh agic
Ġperm e
Ġperm itted
Ġfair ly
Ġassist ed
Ġcat arrh
cephal us
ĠMathematic al
omyc osis
Ġran ks
ĠDem ocratic
ĠEgyp tian
Ġcandid ate
ĠLÅ© y
Ging ivitis
Ġeti ology
Ġprol if
ancre atitis
Ġmineral s
Ġconcentr ations
Ġmicron utrients
á»ļ I
Ġod ds
Ġparent eral
Ġprompt ly
Ġcoup led
Ġcoast al
Ġpreced e
cudaMem set
cudaMem cpy
Ġsoldi er
ĠLeg ionella
Ġmit ochond
ĠFÃ© lix
Gu Ã©rin
Ġproj ections
éģ ĵ
Ġchat bot
Ġtrac ed
ĠLind sey
-------------------- +\
Ġhypothes ized
Ġheterozyg ote
ĠVers ailles
ĠClin ic
ĠBulg ari
Ġmount ain
Ġrod ents
ĠDunc an
Ġoverl ap
Ġplatel ets
ĠPrinc iples
cp z
ĠMcC oy
leb itis
Ġproxim al
Ġarteri osus
ĠJak arta
Ġbib liography
Ġconven ience
typ edef
Ġexplan ations
ĠRelativ itÃ¤
Multi ple
ĠTurn er
ĠDop pler
Dr ug
sup ported
Ġchron ically
umm ings
ĠWhe ther
Ġatten uated
Ġprednis one
Ġpurch ased
Ġcytoplasm ic
Ġabor tion
ĠPseud omonas
Mil itary
Inc reased
Ġthiaz ide
Ġnut ritious
ĠLabor ie
ĠKor ot
Ġweal thy
Ġvalpro ate
rimin ator
ĠMicrosp orum
**) &
ĠUgand ans
CU DNN
elec tron
ĠKok ubun
ĠRy osei
ĠRan ch
ĠBah rain
Sec ret
ç® ı
Ġsla ve
chocardi ography
ĠAff airs
Ġrepro duce
Ġundet ectable
Ġstigmatiz ation
ĠRecommend ations
Ġadjunc t
ĠMic ron
ĠUnd ernutrition
Ġgir ls
ĠÄĲÃĤ Y
ĠChal umeau
Ġempy ema
clav ul
Ġhalluc inations
Ġmetastas ize
lipid emia
Ġlivest ock
Bet ween
Rid dikulus
warm up
ambo o
ĠMatis se
Ġfopen Check
Ġfclose Check
ĠKont um
ĠGart ner
ĠGett ysburg
uske gee
Ġproges terone
ocys tis
ocont act
ĠOrac le
Ġoccas ions
Ġdecomp ens
Ġintermedi ates
("+-------------------- ---+--------------------------------
Ġradiof requency
ĠcudaMem cpy
ĠPeranak an
Ġdebilit ating
tinysh akespeare
("+-----------------------+-------------------------------- --------------------+\
1 10
B r
B Ã£i
L R
M e
M ac
P C
P aul
V iral
b Ãł
c le
c á»±c
m áº·t
m iá»ĩng
n ard
o C
o e
s ki
y aki
Ġ Ãºng
Ġt on
Ġh an
Ġm Ã²ng
Ġm Ãºt
Ġs á»¥c
Ġn á»ī
Ġnh á»ħu
ĠT on
ĠT ake
ĠT ogether
ĠN áº¡n
ĠN áº¡p
an in
in form
Ġqu inine
Ġthá» ĩ
ĠM em
ĠM iáº¿ng
ĠB Äĥng
ĠTh á»ıa
ĠL á»Ńa
á»¥ n
ĠP V
ro us
re qu
ĠS av
ĠS pe
ĠD S
ĠD NS
ĠPh Æ¡i
ĠG ump
us ter
th Æ°Æ¡ng
Ġbá»ĭ a
od a
ĠI F
ev sky
ĠKh Ã³
ĠR ose
Th á»Ń
ot on
ĠW olf
ab a
ĠE ric
iz on
19 23
Ġst e
Ġst yle
ug e
Ġ18 29
pl ication
he im
ĠlÃ¡ y
Ph iÃªn
tim er
Ġ17 73
Ġ14 5
Ġ16 72
Ġno i
ĠKho Ã¡ng
11 3
Ġláº½ o
orn av
ier ce
gi áº£
ĠBr as
ra el
Ġ186 9
Ġcontrib ution
ĠIs rael
ĠAp ol
Ġreplac ing
off icial
ĠDav is
Ġli u
ĠBu iltInFunction
Ġpe er
Ġpal sy
elv in
ĠAg ency
ĠPic ornav
Tim eline
ĠSab in
ĠBen jamin
Ġdomin o
onom i
áº¤ n
ĠFact ors
Ġcompati ble
ĠMaj estic
ĠExpl or
ribosyl ation
Ġschem e
ĠSpo tify
" ..
) *
+ }}}
2 19
9 39
C Ã¡t
C AM
D ocuments
D OPA
E D
F C
F lor
H L
H HV
J os
J oint
J EV
K áº¹o
M Ã¢m
M odel
N a
N ay
N áº¥u
O A
P ET
R L
S Æ¡
S en
S il
T ao
X o
Y uri
b Ã¡n
c oder
d ri
e tic
f arin
k as
k á»ĭch
k now
l ace
l ator
m Ã¬
m ai
m Ã¨
m áº¹
n it
n Ã©m
p rom
r Ã´ng
s r
t á»ĳ
t áº¿t
t áº¡p
v iÃªn
v Æ°Æ¡ng
v iá»ĩn
v Ã¹ng
v acc
x uÃ¢n
x ÃŃt
y er
¦ éĮĦ
³ ģ
Ã ±
Ç Ĳng
Î ·
Î ¸
Ð °
â ī
å ·
å ł
ç µ
è ħ
è Īŀ
è ¨ĺ
é ĸ
é ¤ħ
Ġ ),
Ġ áº£m
Ġ %.
Ġ áĢ
Ġ áŀ
Ġ à»
á» ¤
Ġt Ãło
Ġt ac
Ġt ab
Ġt alking
Ġc ation
Ġc odes
ĠÄ ĥ
nh o
ĠÄĳ áº±m
Ġth ym
Ġl Ã¹
Ġl ies
Ġh Ã¢n
Ġh Ã¡ch
Ġh Ã³i
Ġb f
Ġb rom
Ġm un
Ġch or
Ġch á»¯ng
Ġch á»į
Ġch áº¡o
Ġs Ã¡n
Ġs Æ°a
Ġs áºŃm
Ġs ari
Ġtr Ã¡c
Ġk Ã¨o
Ġn á»ĩ
Ġd á»ģ
Ġd val
Ġp ict
Ġp air
Ġnh Ã¡p
Ġg Äĥng
Ġg lo
Ġg ather
ĠT Ã©t
ĠT Ãºy
ĠT opical
Ġkh Ã²
Ġng an
ĠN u
ĠN as
ĠN AM
Ġr ob
in cha
er k
ĠC Ã¡p
ĠC lear
ĠC ire
ĠC off
ĠC ushing
Ġtá» ģ
Ġqu inol
ĠV on
ĠV nExpress
ĠH i
ĠH á»ĳ
ĠH el
es tr
es ides
Ġx er
Ġx áº¯c
ch á»©
ch á»Ŀ
ĠcÃ³ t
is ine
is cu
ĠM Ã¡n
ĠM Ã¡u
á»± t
ĠÄĲ uá»ĳng
ĠB M
ĠB am
ĠB Ã£
ĠB á»ĳc
ĠB ord
ĠB ox
ĠB ob
ĠTh Ãº
ĠTh iá»ĥm
Ġin ox
ĠL áºŃt
ĠL eo
ĠL oÃłi
ĠL áº©u
ĠL á»±u
ĠTr av
ĠP la
ĠP BS
Ġf estival
re es
ĠS id
ĠS áº¯t
ĠS leep
ung un
ĠD ust
ĠD rew
ĠD uck
ĠCh at
ĠCh ÃŃch
ĠCh á»©t
ĠA reas
ĠA BC
le ment
ĠK ong
ec tives
om bo
ĠG ang
ĠG et
ĠG are
Æ¡n ev
th á»©c
th Æ°á»£ng
th áº¯ng
th áºŃm
id en
ĠNh á»¥
ĠNh á»ĵi
Ġquan ti
Ġquan tit
ev in
st oy
st roke
ĠGi Ãºp
ĠGi Æ¡nev
ĠR á»ĳt
if def
Ã¨ s
ĠHo Ã¡n
ess el
ers et
Ġpro jection
Ġpro files
ts theorie
Ġ5 29
Ġ4 14
oc lass
ag ram
ĠW ord
Ng uyá»ĩt
Ġkhu Ã¢ng
Tr á»©ng
19 30
19 07
19 43
tic ks
se en
Ġso Ã¡n
ĠIn tr
igh ting
og ne
ant e
ore a
Ch em
Ch iáº¿u
ĠkhÃŃ t
Ġ18 2
Ġ18 35
Ġ18 46
est e
Nh áº±m
Ġsp iroch
Ã´m Ã©t
Ġem phas
Ġrec onstr
ew ing
one ogenesis
Ph á»ĳ
av an
yro sine
Ġ12 3
Ġ12 4
Ġwh y
Ġwh ites
Äĳ ang
Äĳ Æ¡n
Äĳ á»Ŀi
tim edia
ĠSt andard
Ġdu á»Ĺi
ĠAss embly
enti ty
Ġ14 13
Ġ14 71
anc a
18 96
18 97
Ġsome thing
ĠĠĠĠĠĠĠĠĠĠĠĠĠĠĠĠ ĠĠĠĠĠĠ
Ġse gment
ler c
ĠChá»§ ng
16 5
Ġam b
Ġcons ult
Ġgh ita
Ġ13 5
Ġpol io
Ġhy al
son s
yc le
ĠAr row
els us
az en
à¸ £
à¸ µ
form s
log roup
13 9
ĠKhu Ã´ng
Ġhu Ã½t
ĠPro blems
Ġmet ric
Ġ90 4
Ġsw itch
Ġchá»Ŀ n
ĠâĪ Ŀ
ats u
Ġ26 3
Ġ22 9
de hy
#### ###
ĠWar fare
Ġcomb ine
ĠBr Ã©
ĠBr aun
ĠBr aque
Ãģ M
ĠLu ang
Ġfl av
ĠCl aud
ĠCl ostr
Ġorig ins
ĠCho ang
rim inal
39 8
ĠDe ngue
OR A
Ġphot os
ycl ic
Ġpul s
ĠSch war
ĠSch afer
Ġelev ation
ĠMalay an
ĠEr d
ä¸ į
Ġvan illa
ĠJo e
Thu á»Ł
Ġpur in
elu xe
ĠVi rology
ĠRec ording
ili ar
ĠBro thers
aig ht
mb ox
Ġwar farin
ĠAug us
fl atoxin
ĠMor timer
ĠMo on
åı ²
ĠÆ¯ ng
Ġtru i
ĠHand book
à¸¡ à¸ķ
à¸² à¸§
ĠGh á»ģnh
áº¾ N
ĠTrá»« u
ellig ent
Ġfeed back
ĠIU PAC
ĠLor enz
ĠHug uette
ĠSum atra
ĠGar nier
ĠBio chemistry
Ġwr ong
usc le
ĠCÃ© zan
ĠCult ure
å¯ ¦éĮĦ
å¼ º
Ġlith i
Ġlith ium
ĠBP C
ĠLÃ© on
é¢ ¨
ĠMichel angelo
---------------------------------------------------------------------------------------------------------------------------------------------------------------------------------------------------------------------------------------------------------------- ----------------------------------------------------------------------------------------------------------------------------------------------------------------------------------------------------------------------------------------------------------------
bacter ium
ĠKent ucky
ĠHistor ical
ĠDie go
ç§ ĭ
Ġimmig rants
åĬ ¨
ĠGag arin
æĺİ å¯¦éĮĦ
èĩ ª
ĠPrac tice
Ġdegrad ation
ĠMap Reduce
ĠAbr ams
tz mann
åĢ ¼
ĠDir ac
Ġteach ing
################################ #######
ĠKH XH
Ġå¤ ©
ĠCount y
ĠEver ett
ĠKro gh
ĠAlban y
Ġnick el
ĠBeat les
ĠClau de
Ġsynthes izer
Vir tual
ĠDark ness
Ġstud ents
Ġhab its
ĠnÇİ m
ĠKamp ong
oryne bacterium
perg illus
Ġarchit ecture
ĠLap lace
èĸ Ħ
Ġexcell ent
Ġinherit ance
Ġflaviv irus
ĠJef frey
ĠGriff ith
ĠRelativitÃ¤ tstheorie
ĠCire bon
ungun ya
ĠGiÆ¡nev Æ¡
ĠClaud ine
ĠCÃ©zan ne
A E
C as
D Ä©
H oÃłi
I G
M iáº¿n
M ari
N Æ¡i
N UM
R ev
S áºµn
V Ã´
V ai
V á»ĩ
W illiam
Y ou
[ ]
a qu
b est
b ase
c á»¥
d eveloped
f ound
g ian
k ed
k top
l ib
n a
p ower
t áº¿
t Ã´i
} "
Ä ĵ
Ġc it
Ġth áº§u
Ġl á»§ng
Ġb uy
Ġb ai
Ġb rand
Ġm ÃŃ
Ġm ap
Ġm á»įng
Ġch ances
Ġs at
Ġs áº¥p
Ġs ched
Ġtr áº·c
Ġkh á»ĭt
ĠvÃł n
ĠN iá»ģm
in in
ĠV oi
ĠH á»ĳi
ĠH il
ĠH end
ĠH á»ıi
ĠM ir
ar ct
ĠB lu
ĠTh áº£
Ġin te
ĠL ion
ĠL ister
ĠP ul
as car
re verse
ĠS á»Ńa
Ġto áº¡
ic er
ic us
ic ot
Ġho s
ĠCh Ã³
ĠG a
th rough
Ã© ric
ĠQu á»·
ad i
ĠR od
ĠX P
tr áº¡ng
Th i
Th á»ĳng
ÄĲ áº¿
oc kh
ther a
ug u
og rad
eo ff
Ġ18 40
ge on
to le
Ġ17 65
ov ich
ĠcÃł u
ind ex
Ġbu ilt
Ġcomp ile
ĠPar acetamol
ĠMal aria
In t
Ġcol lect
NA TO
Ġret ro
par ison
ox yl
aw k
Ġinter actions
Ġbá»ķ n
ĠMar keting
hy dr
Ġacc ident
ĠAd am
ah l
Ġvari ance
Ġcontrol s
Ġgroup ed
ĠSy d
ĠEn vironmental
Æ¯ á»Ľc
ĠMicro biology
Ġcour t
Ġstat ement
ĠSing le
ĠMa jor
Ġvan i
ER S
Ġeas ier
Ġoper ation
bit r
Ġfin ally
ĠMag azine
ĠPH P
hydro xy
Med ical
Ġsudden ly
ĠBay es
ĠFin ally
ĠFol lowing
thu áºŃt
ĠMer lin
ĠFlaviv irus
Ġcategor ized
ĠAth ens
ĠEffec tive
Ġceleb r
Ġprostagland in
PAN ET
ĠCU DA
% âĢĵ
' ])
) "
, :
, ),
0 25
1 12
6 91
8 20
8 50
9 30
B ia
B á»ı
B Ãªnh
B LE
C Æ°á»Ŀi
C anh
C rabbe
C Å¨NG
D G
D op
D á»ħ
D ean
D onald
D ermatoph
D ropout
E lec
F allo
G r
G al
H ol
H Ã¨
H and
H ead
H á»įa
J ean
K idney
L ang
L áº§u
L á»Ĺi
L ouis
L ymph
M od
M ain
M Ã¡u
N áº¯ng
P o
P ress
P ierce
R el
R ON
R ising
R ADS
S IV
S put
T Ãł
T Ã¡i
T um
V VA
W KV
X á»©
\ ;
b áº¯c
b Ãºt
b eat
b Ã©o
b ull
b irth
c áº¥p
c arry
c ause
d istance
d uk
d residual
e on
e zing
e Ag
f ed
f inal
f ictive
g aly
g wick
h s
h áº¡
h om
h iddens
h awk
i qu
j ar
j ol
k er
k off
l ab
l ication
l min
l iaz
m ang
m á»©c
m ation
m ie
m ail
m outh
m issions
m atches
n m
n Ãªn
n ull
n eph
n py
o a
o tid
p ers
p ap
r ences
r iting
s kin
s ickle
t á»ĳi
t Ã¢m
t ropin
u ous
v est
v uls
w s
w ealth
w alt
x q
x áº»
z se
} /
} )\
¥ m
Ã įt
Ï Į
Ð ¾
Ñ Ĥ
å Ĥ
å ©Ĩ
æ ¬
æ ı
æ ®µ
é Ĺ
Ġ á»ĳ
Ġ á»©a
Ġ era
Ģ ç´¢
Ĩ æ²
áº ¶
Ġt ing
Ġt ell
Ġt ack
Ġt ied
Ġt yrosine
ng Ã´n
Ġc áº±m
Ġc ran
Ġc uff
Ġc ivil
Ġc Æ°á»Ŀm
Ġc otton
nh Æ°á»Ŀng
ĠÄĳ áºŃt
ĠÄĳ iá»ĥu
Ġth áº«n
Ġth iáº¿c
Ġth rive
Ġv ig
Ġv áº±n
Ġv áº¹t
Ġv elocity
Ġl Ã¨
Ġl á»ĳn
Ġl Ã¢ng
Ġl Ãºn
Ġl az
Ġl arynx
Ġl unar
Ã¡ ll
Ġh ind
Ġh oney
Ġb áºŃp
Ġb áº¥u
Ġb á»©t
Ġb ru
Ġb áº·m
Ġb umps
Ġb orders
Ġb ottom
Ġb ogey
Ġb luish
Ġm áº£
Ġm ast
Ġm áº¿ch
Ġch uá»ĳc
Ġch ond
Ġch ains
Ġs á»ī
Ġs áº¯ng
Ġs eal
Ġs oles
Ġtr á»©
Ġtr Ã¡m
Ġtr Ã³t
Ġtr ich
Ġk ernicterus
Ġn áºŃp
Ġn Äĥn
Ġn il
Ġn Ãºng
Ġn uá»ĳi
Ġn ik
Ġn ails
Ġn icot
Ġd áº§y
Ġd ex
Ġd Ãłu
Ġd ull
Ġd row
Ġd osing
Ġd ense
Ġp ay
Ġp up
Ġp itch
Ġp estic
Ġp onies
Ġp eoples
Ġnh áº£m
Ġnh Æ°á»Ľn
Ã³ zse
Ġg rain
Ġg ained
Ġg lin
ĠT S
ĠT W
ĠT RA
ĠT OD
ĠT uskegee
Ġkh ang
Ġkh Ãło
Ġng á»į
Ġng Ã³c
Ġph Æ°
Ġph Ã¨
Ġph thisis
Ġph á»¡n
ĠN ec
ĠN eal
an osis
Ġr Æ¡
Ġr ose
Ġr ew
Ġr ich
Ġr arer
in ates
in tra
in ference
on vuls
ĠC ast
ĠC res
ĠC ycl
ĠC ortic
ĠC EN
am cin
en em
en ames
en ergy
Ġtá» įt
Ġqu áº»
Ġqu eo
Ġqu áº¹o
Ġqu áº¹t
ĠV áº£
ĠV Ã²
ĠV aricella
ĠH ard
ĠH ugh
ĠH ead
es thetic
Ġx p
Ġx áº¹t
ch Ãº
ch Ãºa
ch mark
or f
Ġgi Ã¹m
is aka
ĠM C
ĠM H
ĠM Ã¡c
ĠM áº¡i
ĠM Ãº
ĠM Æ°a
ĠM ash
ĠM ening
ĠM AA
ĠM insky
ĠM á»ĺ
al ay
al bum
ar achnoid
Ġo pt
ĠÄĲ iá»ĥu
ĠÄĲ á»Ŀ
ĠB one
ĠB ible
ĠB ret
ĠTh om
Ġin equ
ĠL áº¡o
ĠL áº¥n
ĠL áº¹
ĠL áº¯m
ĠL áº¡y
ĠL ast
ĠL ock
ĠL entivirus
ay as
Ġan a
Ġan us
Ġan ion
Ġan omal
ĠTr á»Ł
ĠTr agic
ĠP ut
ĠP ID
ĠP CP
ĠP AS
ĠP ino
ĠP orter
ĠP rolonged
ĠP UVA
it Ã©
as aki
Ġf n
Ġf ell
Ġf use
Ġf acts
Ġf write
au ter
Ġcho ices
Ġcho lest
ro lam
ro gram
re le
ĠS A
ĠS is
ĠS Ãºc
ĠS ex
ĠS lang
ĠS exual
ĠS VC
ĠS tigma
ĠS jÃ¶gren
Ġw at
Ġw ins
Ġw ool
Ġw ave
Ġto Ã©
ĠĠĠĠĠĠĠĠ ĠĠĠĠ
ic ion
ic ular
ic its
Ġho ars
ĠNg áº©n
ĠNg á»Ľ
ĠQ U
ĠD amp
ĠD rex
ĠD MARD
ĠD epending
ĠD eluxe
Ġra g
Ġra ises
ĠCh á»©
ĠCh anh
ĠCh aban
ĠCh aig
ĠA G
ĠPh en
ĠPh áº¥n
ĠPh Ã©t
ĠK as
ĠK ah
ĠK ened
ec al
ec tively
om nia
ĠG áº¡c
ĠG á»Ńi
th Ã³c
th epatic
id ym
os plen
Ġcon ser
ac les
ac ellular
ol uble
un omide
Ġdo áº¡nh
od ine
od ial
ut tate
ir rel
um walt
Ġy ield
op ol
op ress
ĠI LAE
ad ai
ad esh
st ed
st at
st ories
ĠGi Ã³ng
ĠGi etz
ĠGi rolam
ĠR Æ¡
ĠR á»ģn
ĠR amparts
ĠX Ã¬
ĠX ray
tr Æ°á»Ŀng
Ġ20 4
Ġ20 50
ce tic
Ġ- =
ĠHo áº¡ch
ĠHo urs
ot omy
Ġdis able
Ġdis ulf
Ġdis tributed
Ġdis puted
ess ation
ess ary
ep razol
ep ileptic
Ġpro d
ain ting
ÄĲ o
ÄĲ Ã´
ÄĲ Æ°Æ¡ng
ÄĲ iá»ĩu
Ġ5 78
oc cur
oc aps
ag a
ag an
ag ia
ag gr
ag netic
ap ulmonary
ati al
ua ble
ab ling
ĠE X
ĠE bers
ĠE SC
ĠE berth
19 06
ho ur
ho bia
rom al
Ġco unc
Ġdi vers
ĠF as
ĠF el
ĠF ang
ĠF ew
ĠF NA
ĠF antine
ĠF amily
ĠF onda
uc chi
di v
Ġex amine
Ġex clusion
Ġ6 22
Ġac tress
Ġac upuncture
Ġac know
igh th
og y
ant adine
ĠJ oy
ĠJ Ã³zse
pt osis
ore active
Ch á»¥p
ĠAn kylosing
Ġim ported
erm in
ĠO m
ĠO kin
Ġ18 05
est ation
Ġ8 92
Ġ8 59
Ġ8 49
Ġnot es
Nh Æ¡n
pl asty
all ergic
eop ath
ub ic
Ġsp ores
ss avirus
ue ux
Ġem ission
pro file
pro BNP
ach eal
to bytes
Ġad alimumab
Ġre activation
act ylitis
Ġpre S
Ġpre lim
Ġcá»Ń i
Ph a
Ph u
Ph á»§
Ġhas attr
out lier
Ġ12 88
Ġwh ilst
Äĳ Ãª
Äĳ Ã¡i
Äĳ áº¡o
Äĳ un
Äĳ Ãºng
Äĳ á»ĭnh
Ġtyp ing
las ts
las ting
las ms
Ġhyp onat
tim ization
Ġdia phrag
Ġ17 40
kin umab
ip ients
ov itch
Ġar m
Ġar s
Ġar ri
Ġar my
Ġar achnoid
Ġper it
Ġanti hist
Ġanti phospholipid
Ġanti depress
Ġun ita
Ġun lik
Ġun nec
Ġcont ents
ĠSt orm
ĠSt udi
ĠSt ones
Ġap art
Ġap olip
Ġne ither
Ġ+ +
Ġbut t
Ġbut ter
ight on
Ġdef ine
Ġdef icits
Ġmed iated
Ġmed iators
sy mptomatic
amin es
arg aff
Ġcomp an
Ġcomp ound
Kh iáº¿n
Ġsh ut
Ġsh aking
Ġsh Ä«
ren n
In di
ĠUn seen
tis one
18 98
Ġint ens
Ġint ellectual
Ġyear ly
Ġse b
Ġrel ate
Ġrel atives
Ġrel ieving
Ġrel evant
cess ive
Ġcol le
Ġcol lo
Ġcol ored
dis h
Ġwor th
12 98
ann on
ealth y
Gi Äĥng
Ġsup erv
16 34
apy rus
ĠCon vention
ĠCon well
ĠCon ference
Ġtra ff
Ġstr aight
Ġimmun otherapy
Ġcons ist
Ġdec ide
Ġdec ade
Ġ100 5
par tum
Ġpain less
á»µ t
Ġ50 304
Ġinv ented
Ġinv ading
Ġ} ;
Ġpol icies
Ġrecommend ing
ĠHai g
Ġgr az
17 2
17 91
Ġsub sid
Ġsub contin
Ġsub arachnoid
Ġtw enty
ines terase
ĠâĢ ĺ
ĠâĢ ł
lure a
Ġhy d
Ġhy brid
our aging
Ġmal lets
Ġtre es
Ġop ening
ĠAr nold
ĠAr isaka
Ġinter face
Ġperson ality
Ġreturn ing
Ġgro in
Ġear s
30 6
are z
kh Ã¡ng
ĠZ ero
ĠZ orth
ĠZ umwalt
Ġins till
Ġins pect
Ġnumber ed
ĠLam ar
Ġdiffer ing
ĠVT GC
be tics
}} }}
}} _{\
Ġdet ecting
Ġimpro per
Ġur tic
Ġur inate
Ġnhá»Ŀ n
Ġtrá»¥ i
Ġapp lying
ĠMar quez
Ġser ves
Ġsec rete
log ging
dia gnosis
Ġhelp ing
sp ir
Ġtum our
Ġob st
Ġob ese
Ġmain stay
ck pt
Ġmod alities
ĠLa enn
ĠIS SN
por ting
ĠPro tes
Ġbi opsies
Ġhum id
ĠNS C
ĠFor um
ĠFor bes
Ġmet aplasia
Ġinh abit
Con tent
iod othyronine
ano tic
ivers e
Ngh Ã¬n
ĠEx posure
ĠEx ercise
gi Ã¡n
ĠLy mph
27 4
ĠâĪ Ĺ
Ġmin ister
Ġtransm iss
Ġ26 9
ĠDi ary
pr im
ĠOther wise
Ġkid s
Ġpred icting
Ġrev ised
hen ius
Ġlim iting
Ġext ending
Ġev olving
Ġmus cular
han a
Ġbre eding
ĠWar ner
Ho áº·c
Ġcu DNN
ient ation
Ġderm is
ĠLu Ã´ng
Ġshort age
Ġhand ic
Ġhand ling
Ġneuro prot
yphil itic
Ġion izing
Ġgenetic ally
AR B
AR T
AR NI
Ġfam iliar
Ġset tle
Ġball s
Ġball ad
Ġintr auter
VN CH
St udies
ĠUN CL
Ġhem olysis
Ġhe el
35 4
Ġax es
ogn ized
Ġmechan ics
Al lerg
Ġå ı
Ġå ľ
ĠRes ource
ĠPot sd
ĠNe onatal
Ġhydro cor
Ġhydro xyc
Ġrefer ral
38 29
Ġsyn cy
Ġsyn onym
ĠGal lo
Ġtreat able
Ġdys pnea
OR T
Ġphot op
Ġsan ator
Ġradi ographic
Ġcolon ies
Ġbreath s
Ġmy ocarditis
Ġclear ing
Ġenc odes
Ġenc oding
Ġwhe ezing
Ġ36 2
(( -
ĠAb el
Ġsurv iving
Ġsurv ived
Ġequ atorial
ĠWood ruff
Ġcr amps
Ġneut rophils
Ġ55 1
ĠChar ner
Ġga ve
Ġavoid ance
opath s
sum mation
Ġec ocide
Ġrest ored
ĠAm b
(' .
Ġrecogn ize
uccess ful
aps one
ĠEl ls
ĠBo ett
ĠPr adesh
Ġslow er
NF E
ĠMus culoskeletal
ĠTour ison
let es
Ġdefin ing
ĠMos cow
ĠPl aces
ER D
Ġpsych osocial
Ġke ysh
kines ias
ara ath
ĠSp ain
Ġstig mas
Ġread mitted
Ġprom iscu
ĠSm oking
ON E
itu ximab
ump ing
Ġ58 1
ĠNH S
Ġclo th
Ġclo tting
ĠRec ent
Ġsleep ing
Ġimpair ments
Ġbreak s
onn a
itor ing
66 2
Ġcard inal
ĠAlex ei
Ġnit rat
Ġclub head
mod ified
BC G
Ġchlor ine
ĠCommon wealth
Ġarg parse
Ġscler os
ĠMac lear
Ġpen is
åĲ Ī
Ġtemper atures
TB S
å¤ «
`` `
atis m
Ġmag iÃª
QL VNCH
ope nh
äº Į
Ġweak ened
Ġprefer ence
Ġdeb ated
Ġclin ic
Com plications
ĠPubl ishers
Ġdistingu ishing
ĠPen ang
US PSTF
ĠDr ang
Ġphosph oryl
Ġminim izing
ĠRep ort
ĠLine ar
ĠOc cupational
Ġdeg rees
Ġclos ed
Ġrespond ing
mar ks
Ġsun screen
Ġpal m
Ġpal p
Ġpal ms
57 21
common ly
Ġcontrac ting
Ġglut amate
æĺ ¥
ĠSpec ific
ĠHay den
Ġsqu irrel
Ġintest ines
lev ated
ĠTNF Î±
åĪ ĩ
Ġofficial s
lnf b
gress ive
amus cular
Ġeng age
ĠMo ise
ĠÄĲá» ĺ
Ġure a
åı ¯
Ġver tical
second ary
Ġintegr ity
DR B
ĠAg ain
ĠInf luenza
ä½ ©
ĠHipp ie
Ġhom osexual
ĠWil kins
Ġshe et
Ġfill ed
Ġhair s
Ġhepat ocellular
gar is
ĠTR H
ĠRel ating
Go at
ĠCour se
ĠGai duk
Ne uro
accum ulated
Ġguid ed
Ġsynov itis
Im pressions
Ġdeform ities
det ach
ĠMod erate
Ġexhi b
Ġpartners hip
osinophil ic
At opic
TF CC
chol in
ĠUl timately
ĠUl tras
Ġabsor bed
Ġpredis pose
ĠMore over
arb amide
Ġile um
syn c
kho Ã¡
ospor ins
Ġnap al
Ġseas onal
Ġvalid ate
Ġflex ibility
Ġaggress ively
Ġleuk ocytes
Ġleuk ocyte
Ã§ et
Ġmem set
ĠActiv ism
Ġcath eters
Ġinfiltr ate
Ġinfiltr ates
Ġbroad ly
Ġge ometry
Ġexacerb ate
Ġrá»¥ t
ĠHis panic
ĠMarc ovitch
Rec ent
Rec ommend
éŁ³ é¢
ĠFall s
gu ided
ĠInv ader
Ġhapp ens
ĠNig er
Ġide al
Ġpig s
ĠCre ighton
Ġdri ving
ameth asone
Ġretin yl
æĹ ¥
chy ov
acent esis
oct urnal
Ġfair way
Ġrul ers
ĠHal berst
Ġconver ting
ĠKhrush chyov
Ġfore head
lup us
Ġspect roscopy
ĠID H
dd d
augh ton
Ġthyro globulin
Ġank les
ĠPhot ograph
Î¹ ÏĤ
Ġrub ella
Lenin ist
ĠEgyp t
Ġcompeti tions
Ġbenz ylpenicillin
Ġswim mer
Ġbelief s
Ġcandid ates
Gene tic
ä¾ ¯
ĠNik ita
Ġbil ateral
Ġaphth ae
Ġthous ands
Ġunaw areness
Ġpenal ties
Ġthal ass
ĠTod d
ĠLag range
idi oides
ĠGol den
Ġdoub t
Ġprop ag
Ġreflec ted
Ġfluoroquinol one
è¡ Į
ĠDet ectives
Ġnotice able
Ġantic onvuls
ĠRous sel
Ġanalog ues
Ġheterozyg ous
gam ma
Ġbran ch
ĠDow d
ãĢ ģ
ãĢ Ĥ
Ġquestion able
ĠDunc anson
Ġclar ithromycin
Ġplatel et
ĠHom ecoming
Det ailed
Viet cong
åº ¦
Ġviv o
Ġpenet rate
Ġimmig ration
Her pes
Ġnas ogastric
ĠSky hawk
odend rog
Es ophagitis
Ġbath s
Ġhaz ard
Ġneg atively
Ġneigh bor
Ġneuros yphilis
Ġanalges ics
Ġpigment ation
Ġacetylchol ine
Mc Carthy
ĠMeth otrexate
ĠProduc tion
ĠPlan et
Ġporphy ria
ĠDam age
ĠFernand ez
Bl ank
Ġattrib utable
Ġath le
ĠDD IM
Ġstun ting
Ġcellul ose
system ic
Ġju ice
Ġcrypt ococcal
Del mas
Ġumb ilical
Ġneph ropathy
Ġpent osan
Ġgest ational
Ġoste omyelitis
Ġrab bits
Ġprostit ution
ĠWern er
Ġcoal ition
Ġinstit utions
Ġsusp icion
ĠBarb ara
Ġosteop orosis
ĠBrow ne
ĠEc ocide
Battle field
å¹ ³
æ´ ª
ĠCed ar
ĠBased ow
ifi GAN
Ġincl usion
ĠConfl icts
ĠPhilos ophy
Ġnitro fur
ĠBI áº¾T
èĭ ±
Ġplas mas
ĠNÃ ¥m
Ġances try
ĠTrain or
ĠDur ie
ĠKi ang
Ġcounsel ing
Ġadminister ing
Ġvertebr ae
ĠSed gwick
Nav al
Ġindig enous
ĠHein l
Arch ival
Nik ita
æ£ Ģç´¢
æ¯ Ķ
Ġmiti gate
Ġsymmet rical
Ġempt ying
Ġelb ows
ĠStable ford
Ġcontracep tion
å¾ģ æ£Ģç´¢
Ġanatom ical
Ġastrocyt oma
ĠSergey evich
Ġinappropri ate
Ġanno unced
Aug ust
ĠLec lerc
ĠPP sh
ĠPS ORS
ĠSz Ã¡ll
ĠPhilip ines
Ġconvinc ing
Ple urisy
ç¾ ħ
ĠHeal ey
Ġfaec es
ĠWatch men
efl unomide
Ġmyocl onic
Ġdimin ished
Ġvirul ence
çī¹ å¾ģæ£Ģç´¢
Appro ximately
Marx ist
ĠTol stoy
ĠTag liaz
ĠCath olic
ĠDuc anson
ĠAlv arez
Ġteas po
crow ding
rastr ucture
èĬ ±
Ġkang jei
Ġ================================== ================
ĠENA BLE
commun icable
ĠMcN aughton
Ġhomo zyg
Ġcatarrh alis
ĠKorot koff
clavul anate
Ġglo ves
ĠGare th
Ġquanti ties
dehy de
ĠSchwar z
Elec tron
Fallo ut
Sput nik
VVA W
Ġlunar ization
Ġdrow siness
Ġglin ides
ĠTOD O
ĠNeal e
ĠCEN TO
ĠMash able
ĠMAA G
ĠBret ton
ĠLock ard
Ġfwrite Check
Ġhoars eness
ĠDamp ier
ĠDrex ler
ĠChaig neau
ĠKened y
odial ysis
ĠGietz elt
ĠGirolam o
ocaps id
aggr in
ĠJÃ³zse f
ĠOkin awa
Ġprelim inary
Ġunlik ely
Ġunnec essary
Ġapolip oprotein
Ġsubcontin ent
ĠZorth ian
ĠLaenn ec
ĠProtes ts
Ġintrauter ine
ĠUNCL OS
ĠPotsd am
Ġhydroxyc arbamide
Ġsyncy tial
ĠElls berg
ĠBoett cher
Ġkeysh ift
éŁ³é¢ ĳ
ĠHalberst am
ĠTagliaz ucchi
) <
) ):
) âĢĶ
3 14
A K
B iá»ĩn
D á»įn
M o
M u
N á»ķi
R á»Ńa
T unes
V s
b l
c s
c ao
d Ã²ng
g ers
h ttp
} -
áº ¨
Ġt uple
Ġl on
Ġl áº·t
Ġl áº±n
Ġb ounds
Ġnh Ã²a
ĠT CM
Ġng á»«
Ġph ao
ĠN á»£
ĠC oc
ĠC ule
Ġa fric
ti um
ĠV á»ı
ĠV ladimir
ĠH CM
ch ai
ĠM ain
ĠM ans
ĠM á»³
ĠM ob
ĠÄĲ Ã¨n
ĠL is
ĠP on
ĠP eyer
ĠS áºµn
ĠS eg
ĠS enegal
ĠD Ã¢y
ĠA le
ĠG M
ĠG Ãł
em i
ut ton
ĠÄĳo Ã¡i
ig en
ĠR out
Th iá»ģn
ĠHo us
ĠE N
Ġco at
ĠF ire
og roup
Ġpr ice
Ġ10 9
ĠAn im
Ġ18 79
Ġ18 33
Ġ9 79
ov iridae
ĠSt at
ĠSt ell
ĠSt ore
Ġ' ,
ĠAl pha
Ġcomp are
ond er
Ġme ant
Ġme eting
Ġi Tunes
Ġgh á»ģ
Ġinv erse
oph thal
kh ÃŃ
ĠZ e
be gin
cri ptions
Ġend ocytosis
Ġser ogroup
ĠChu á»Ĺi
por ts
ire c
Ġká»ī nh
Ġ188 1
ĠPol y
man uel
ĠRo ad
ĠNe ural
ĠEd mond
sc ience
99 9
Sh ake
Car l
ĠEp stein
Ġfocus ing
phosph ate
Intern et
ĠChrist opher
Ġpack s
Ġdiv ision
ĠBab ylon
zan ia
ĠFlor ida
ĠVari ola
bohydr at
Ġ(+ )
ĠCule x
) =\
, -
0 15
2 10
2 30
3 20
5 34
= {
B Ã¡n
B á»ĥ
C Æ°
C ur
C áº£ng
C ell
C áº§m
F F
F all
G iáº¿ng
H ist
L es
L Æ°Æ¡ng
L ai
L áº¯ng
L á»£i
L á»Ľp
M ong
M Ã¡i
M ich
P V
P eter
Q G
R ES
R NN
S á»£i
T e
T á»©c
T áº¡ng
V al
V áºŃn
V á»±c
V á»ı
] ),
b ell
c á»ķ
c áºŃn
d x
d y
d am
e the
g ot
h er
h ans
h ard
l ar
l ung
l áºŃp
l ag
m il
m á»¡
m ake
m Æ°á»£n
n one
n Ãºi
n man
q quad
r b
r Ãª
s ur
u h
u is
u ation
v á»£
x iv
x ophone
x sackievirus
£ ½
Ç Ķ
Î º
á ¹
á ¿
æ °
ç «
ç Ń
è ©
è ´
è Ĥ
ī a
Ń ļ
Ġt iá»ħu
Ġt arge
ng Å©
ng he
Ġc in
Ġc áº¯c
Ġc ab
Ġc atal
ĠÄĳ Ãªnh
Ġth Ã¢y
Ġv ec
Ġv Ã¨
Ġv Æ¡i
Ġl id
Ġl ag
Ġl Ã©p
Ġl Ã¹m
Ġh Ã¹
Ġh Ãºc
Ġh ttp
Ġb Ã´
Ġb áº·t
Ġm s
Ġm áº§u
Ġm Ãło
Ġm Ã¡ch
Ġch am
Ġch ong
Ġch un
Ġs hi
Ġs end
Ġs á»Ŀn
Ġtr Ã¡t
Ġtr áº¡o
Ġtr ib
Ġtr Æ°á»Ŀn
Ġn Ã©p
Ġd Æ¡
Ġd iá»ģu
Ġd Ã¡o
Ġd áº»
Ġd á»ĳt
Ġd áº«m
Ġd ictionary
Ġd eoxy
Ġg lam
ĠT iá»ĩp
Ġkh am
Ġkh á»īnh
Ġng á»Ľ
Ġph á»©t
ĠN B
ĠN M
ĠN Ãły
ĠN el
ĠN áº¥m
Ġr áº¿
Ġr iver
ĠC B
ĠC od
ĠC áº¡nh
ĠC orynebacterium
Ġtá» ıng
Ġqu áº§ng
ĠV áº¿t
ĠV áº½
ĠV á»įc
ĠV enez
ĠH un
ĠH ari
es ley
Ġx Æ°á»Ľc
Ġx Ãºp
ch t
ch Æ°Æ¡ng
ch á»©a
ch annel
or ted
Ġgi Ã¨m
is ph
Ġ( '
Ġ( <
Ġ( âī
ĠM R
ĠM Ã¹ng
ĠM ing
ĠM ann
ĠM TV
ar is
ar xiv
ĠÄĲ ang
ĠB á»Ļc
ĠB áº·c
ĠL U
ĠL ex
ĠL ake
ĠL enn
at on
ay ed
ĠTr áº£
ĠTr Ã¢u
ĠP i
ĠP áº£
ĠP ig
as p
re con
ĠS ÃŃnh
ĠS ep
ĠS ri
ĠS ide
Ġw aves
el come
ic enn
Ġho e
ĠNg ao
Ġ2 14
Ġ2 11
ĠD re
ĠD Ã¢u
ĠD áº«n
ĠD á»ħ
ĠD Æ°á»¡ng
ĠCh e
ĠCh ay
ĠCh iÃªn
ĠCh Ã©n
ĠA o
ĠA bs
ĠA rena
ĠPh áº¡t
ĠPh ill
ĠK eller
ĠG un
ĠG Ã¶
Ġlá» ıi
us al
th áº¡ch
th á»ĥ
ent ine
os hi
ĠNh á»©t
ĠNh á»±t
ur able
ac to
ac ial
ac bon
ul o
ul ph
ol ith
ĠQu ÃŃ
od ia
Ġhiá»ĩn Tiáº¿t
ĠI A
ĠI nh
ĠI DE
ĠI van
st ad
st able
ĠKh Ã¡t
Ġfor est
ĠGi Ã²
ĠGi áº»
ĠR as
ĠR Ã´m
tr á»Ŀi
Ġ20 45
Th ree
ĠHo f
Ġ= >
ot en
ot ts
ess e
ion ic
ÄĲ Ã¡
ÄĲ Ã³n
fec t
Ġngo Ã£n
ag ers
ĠU sing
ap es
Ng Ãłn
ĠE a
19 13
19 44
Ġby te
Ġco eff
Ġco xsackievirus
ĠF ox
ĠF ey
ĠF uture
ĠF ront
Ãµ a
qu al
qu ar
qu ery
ug in
Ġ6 79
Ġ6 73
á»ģ m
ĠJ ud
ĠJ ST
Ġ10 1
Ch ao
Ch á»£
Ch áº¥m
and al
ĠO t
ĠO ur
Ġ18 14
Ġ18 38
Ġ18 49
Ġat m
ĠY ear
ĠY ale
ĠY ears
ak h
ne ti
Ġre ality
ous tic
Ġpre f
Ph Æ°á»Ŀng
Ph á»¥ng
Ġ12 25
Äĳ á»Ļc
Äĳ áº£o
Äĳ á»įc
Ġel ast
Ġcar oten
Ġ17 35
Ġ17 85
Ġ17 96
ĠSt u
ign in
gr unge
ick e
ism uth
ĠAl ps
Ġ14 8
Ġ30 7
Kh áº¯c
ĠPar sons
Ġ16 13
tis tic
18 32
18 22
18 01
18 72
ĠTo xic
ĠCon v
Qu ery
Qu á»³nh
ob a
sor ted
ail ing
ail le
14 00
14 09
els en
Ġ` (
ĠII B
Ġsa xophone
15 1
15 7
Ġmon oxide
rit z
sp ring
Ġnew er
Ġben chmark
Ġbi od
24 0
Ġmu á»Ļi
Ġ90 7
ĠtrÃ¹ n
ĠSá»Ń ng
over ed
Ġconf l
ĠMan uel
itch f
Ġcu i
for ce
26 2
ĠSh ell
Ġprot ected
ĠCar lo
la is
ĠOr d
Ġsu Ã´ng
ĠdÃ² m
Ġincid ent
ĠSch o
ĠAp plications
rec ted
cep ts
AM A
ĠCo ast
IS O
IS BN
omet er
Ġmac roc
ĠCont emporary
ele ev
åħ «
68 7
Ġvo á»įc
ĠBu ild
Ġvir t
Ġ98 1
Ġæ Ŀ
Ġ76 00
Com putational
mar in
meth yl
ĠCamb odia
ĠChamp a
æĸ ¹
fact orial
BS D
Ġcry st
Ġutil ity
ĠDes ign
ĠRuss ell
Ġvá»© c
ĠBl um
ĠMend eleev
çĶ Ł
Co up
Ġvá»ī a
ĠBol tzmann
text style
ĠAnn a
Ġtrack ing
ĠÐ ¡
å¤§ è¶Ĭ
ĠComm ission
ĠMas ters
Ġstream ing
quad ratic
Ġmanufact uring
Ġsqrt f
ĠForm s
Num ber
ĠVH TTDL
Ġleng ths
Oper a
Ġnucl it
ĠKe ith
âģ Ħ
lein er
ĠElectr ic
Ġngá»ķ n
ĠKur t
ÃĻ NG
inete enth
ĠWhit ney
Ġtex ts
Ġdistr ict
ĠGalile o
Ã©r ard
ĠToy ota
ĠArr henius
ĠHTT P
ĠMuse um
ĠGren ada
ĠÄĥ ng
Ġnik en
ĠThom son
ĠAgain st
Ġtarge ting
ĠRÃ´m a
ĠFey nman
ĠJST OR
B y
B ang
B oth
C lass
D iá»ĩn
F urther
H om
L eg
N U
O K
S ub
S áº¯p
S cal
V Ã¢ng
b ti
d á»±
g á»Ńi
j ected
k u
l inh
l á»Ľn
m o
n u
n om
s q
t v
v Æ°á»Ŀn
ng oÃłi
nh e
ĠÄĳ ung
Ġb ub
Ġd áºŃt
Ġd ates
Ġg áº¡c
ĠT ax
ĠT otal
Ġng Æ°á»£ng
ĠN ord
er r
ti a
ĠH DL
ĠH ahn
ch áº¿t
Ġgi Å©a
ĠM Ã©
ĠM ind
ed onia
ĠB ag
ĠB usiness
ĠL ight
ĠP GS
Ġf it
ĠS á»©a
ĠS ARS
Ġw atch
Ġw rote
ĠD J
ĠD Ã²
ĠD Æ¡i
ĠD VD
ĠG PS
ĠG othic
th á»§
ia cin
00 00
ur u
ul y
et es
op hie
Ġ3 90
ĠGi Ãł
ĠR yan
Th á»©c
ÄĲ á»ķi
end ium
ag ascar
ap top
ĠW hat
19 29
ĠF AST
qu is
ĠJ ose
Ch ar
ĠAn ne
ĠAn dro
and on
ak es
lud ing
iv ia
Ġ15 8
Ġass embly
Ġ16 60
iss ipp
cer n
omm od
ric ia
ok en
Qu áº£
kh Ã³
rit er
ious ly
Ġgre y
Ġlay out
Ġhand led
ĠSh er
Ġ178 3
ĠAt tention
ru á»Ļt
Ġevery thing
Ġec ology
Ġ38 4
burg h
Ġ_ ,
Ġprior ity
)} ,
ĠHung er
casion al
ĠOpen AI
ĠLibr aries
car otene
Ġbeg un
Ġgran it
ĠCong ress
ĠGabriel le
sw ing
------------ ---
áº¦ Y
tu á»³
Ġinser ted
ÃĮ NH
Ġshif ted
ĠGener ator
Ġhundred s
Ġcorrec tion
ĠBeng al
Cre ate
ĠGog h
ĠMatth ew
ĠBras il
onomi yaki
ockh olm
Ġaccident ally
ĠSyd ney
ĠHous ton
ĠAndro id
( **
, ))
0 14
7 29
A round
A lex
A Î²
B D
B ro
B á»ķ
B ig
C s
C á»±c
C á»¥c
C ab
C áºŃu
C Ã¡m
C TV
D PM
E ach
E ven
E vidence
E lect
G reat
G erman
H T
H AV
H CV
J azz
J apan
K Z
K iá»ĥu
L iá»ģu
L Ã³ng
L ight
L oss
L ayerNorm
L ORA
M Ã¹ng
M ix
M GB
N ausea
O s
O ral
P r
P ain
P ool
P atients
P ulmonary
P oor
P soriatic
R ule
R oseola
S im
S Ã³c
S CD
S igns
S ON
S urgery
S epsis
T an
T yphoid
U á»ĳng
V V
V is
V ery
Y L
\ \
_ ()
a fter
a ffected
b á»ĳ
b Ã¡o
b áº¯p
c an
c á»§
c Å©
c ated
c ks
c omm
c emia
c yt
c ross
c ranial
c iferol
c ached
d b
d oc
d ys
d dp
d icated
d ifferentiated
d agger
e nh
e ither
f s
f ine
f ive
f ixed
f ried
g lo
g one
g way
h eo
h ift
h params
h epatic
i ography
j ury
k áº»
k ungunya
l Ã´
l iá»ĩt
l Æ°á»¡ng
l ins
l icted
l stm
m á»ĵi
m ps
m ota
n en
n á»¯
n á»Ļi
n á»ĭnh
n uclear
n icious
o j
p ting
p age
p sych
r ates
r EF
s Ã¡ng
s ors
s elling
s igmoid
t á»Ń
t Ã¡i
t á»¥c
t á»ĳc
t Ã¹y
u ate
u int
v c
v Å©
v áºŃn
v á»«a
w ang
w ord
x k
x x
y les
y lase
} '
} ;
Å Ĥ
Å ĭ
Ï į
å Ļ
æ ¥
æ ¿
æ ģ
æ Į
æ Ķ
ç ·
ç Ī
ç ľ
ç Ł
ç ¯Ģ
ç ½®
è ½
é ¥
ì §Ģ
Ġ á»±c
Ġ á»ĭch
Ġ uter
Ġ à¸ģ
Ġ ä¹
Ġ icterus
Ģ àº
Ĭ ļ
Į ì
ł ¼
Ġt s
Ġt iá»ģu
Ġt Ã¡t
Ġt áº±ng
Ġt ight
Ġt ons
ng a
Ġc Ã²ng
Ġc roup
Ġc essation
nh Äĥm
ĠÄĳ iáº¿ng
Ġth Äĥn
Ġth áº¡p
Ġv Ã¡i
Ġv áº©n
Ġv Ã¨o
Ġv ast
Ġv Ã³i
Ġv eter
Ġl ia
Ġl Æ¡i
Ġl Ãªnh
Ġl stm
Ġl ichen
Ġl eflunomide
Ġh Ãª
Ġh Ã¡c
Ġh Ãªn
Ġh un
Ġh uÃ¢n
Ġh ence
Ġh ern
Ġb us
Ġb od
Ġb Ãªu
Ġb ow
Ġb red
Ġb amboo
Ġm iá»ĩt
Ġm Æ°á»Ŀng
Ġm Ã¨n
Ġm iss
Ġm ature
Ġch in
Ġch Ã²m
Ġch ancre
Ġs Äĥm
Ġs Ã²ng
Ġs uc
Ġs eat
Ġs arcoidosis
Ġs curvy
Ġtr em
Ġtr áº£m
Ġtr aps
Ġtr asi
Ġtr ypsin
Ġk iá»ģng
Ġn Ã¡
Ġn áº·c
Ġn áº»
Ġn Ã¹i
Ġn utrient
Ġn ephritis
Ġn urungji
Ġd an
Ġd á»±c
Ġd Ã£o
Ġd logits
Ġd preatt
Ġd apsone
Ġp ere
Ġp ione
Ġp ock
Ġp enic
Ġp ills
Ġp umps
Ġnh uá»ĳ
Ġg ag
Ġg ender
Ġg yokuro
Ġg lioma
ĠT el
ĠT áºŃt
ĠT ab
ĠT á»³
ĠT yph
Ġkh iÃªn
Ġng Ã¡p
Ġph Ãł
Ġph Ãłng
Ġph Ã¹ng
ĠN áº£
ĠN á»ķ
ĠN Ãło
ĠN TB
ĠN Æ¡m
an tibodies
Ġr im
Ġr á»Ļp
Ġr á»ĭt
Ġr nn
Ġr á»ĭn
in itis
in verse
on ide
er ic
er ge
er thyroidism
ĠC Ã¡o
ĠC ef
ĠC á»įc
ĠC NS
ĠC ode
ĠC riteria
am yloid
en oic
Ġqu ar
Ġqu áº·n
Ġa w
Ġa er
Ġa for
Ġa cetic
Ġvá» į
ĠV in
ĠV atic
ĠH an
ĠH Ã²
ĠH ink
ĠH eg
ĠH emat
es ophageal
es cue
Ġx á»ĳc
Ġx á»Ľi
Ġx sumi
ch áº¿
ch Ã¹a
ch ond
or ec
Ġhá» Ľn
is ai
is tive
Ġ( ~
ĠM áº¡
ĠM uch
ĠM TB
ĠM CH
ĠM ercury
ĠM OE
ĠM nÃ´ng
al amine
Ġo int
Ġo mp
Ġo phth
ĠÄĲ á»ĵi
ĠÄĲ iá»ģm
ĠÄĲ Äĥk
ĠB all
ĠB á»ĥ
ĠB ond
ĠB ird
ĠB á»ĺ
ĠB SD
ĠB acteria
ĠB alsam
ĠB TBS
ĠTh iáº¿p
ĠTh ompson
Ġin ten
ĠL uy
ĠL iá»ģu
ĠL ing
ĠL ive
ĠL á»¥a
ĠL áºłI
at ric
at ypical
Ġan ast
Ġan eur
Ġan Ã©mie
ĠTr o
ĠP Ãº
ĠP ir
ĠP ÃŃa
ĠP AT
ĠP layers
ĠP renn
ĠP itchf
as ites
as eptic
Ġf ch
Ġf ist
Ġf als
Ġf MRI
Ġf uros
Ġf ainting
Ġcho lec
Ġcho lin
ro plasty
ĠS ac
ĠS Ã©t
ĠS ant
ĠS ix
ĠS panish
ai c
Ġw olf
Ġto Ã¡ng
Ġto wn
el lo
ic ode
ic idal
Ġho arse
ang a
ang le
ĠNg á»Ļt
ĠNg á»įn
ĠD iÃªm
ĠD iss
ĠD ave
[...]
