{"<s>":0,"<pad>":1,"</s>":2,"<unk>":3,"<mask>":4,"!":5,"\"":6,"#":7,"$":8,"%":9,"&":10,"'":11,"(":12,")":13,"*":14,"+":15,",":16,"-":17,".":18,"/":19,"0":20,"1":21,"2":22,"3":23,"4":24,"5":25,"6":26,"7":27,"8":28,"9":29,":":30,";":31,"<":32,"=":33,">":34,"?":35,"@":36,"A":37,"B":38,"C":39,"D":40,"E":41,"F":42,"G":43,"H":44,"I":45,"J":46,"K":47,"L":48,"M":49,"N":50,"O":51,"P":52,"Q":53,"R":54,"S":55,"T":56,"U":57,"V":58,"W":59,"X":60,"Y":61,"Z":62,"[":63,"\\":64,"]":65,"^":66,"_":67,"`":68,"a":69,"b":70,"c":71,"d":72,"e":73,"f":74,"g":75,"h":76,"i":77,"j":78,"k":79,"l":80,"m":81,"n":82,"o":83,"p":84,"q":85,"r":86,"s":87,"t":88,"u":89,"v":90,"w":91,"x":92,"y":93,"z":94,"{":95,"|":96,"}":97,"~":98,"¡":99,"¢":100,"£":101,"¤":102,"¥":103,"¦":104,"§":105,"¨":106,"©":107,"ª":108,"«":109,"¬":110,"®":111,"¯":112,"°":113,"±":114,"²":115,"³":116,"´":117,"µ":118,"¶":119,"·":120,"¸":121,"¹":122,"º":123,"»":124,"¼":125,"½":126,"¾":127,"¿":128,"À":129,"Á":130,"Â":131,"Ã":132,"Ä":133,"Å":134,"Æ":135,"Ç":136,"È":137,"É":138,"Ê":139,"Ë":140,"Ì":141,"Í":142,"Î":143,"Ï":144,"Ð":145,"Ñ":146,"Ò":147,"Ó":148,"Ô":149,"Õ":150,"Ö":151,"×":152,"Ø":153,"Ù":154,"Ú":155,"Û":156,"Ü":157,"Ý":158,"Þ":159,"ß":160,"à":161,"á":162,"â":163,"ã":164,"ä":165,"å":166,"æ":167,"ç":168,"è":169,"é":170,"ê":171,"ë":172,"ì":173,"í":174,"î":175,"ï":176,"ð":177,"ñ":178,"ò":179,"ó":180,"ô":181,"õ":182,"ö":183,"÷":184,"ø":185,"ù":186,"ú":187,"û":188,"ü":189,"ý":190,"þ":191,"ÿ":192,"Ā":193,"ā":194,"Ă":195,"ă":196,"Ą":197,"ą":198,"Ć":199,"ć":200,"Ĉ":201,"ĉ":202,"Ċ":203,"ċ":204,"Č":205,"č":206,"Ď":207,"ď":208,"Đ":209,"đ":210,"Ē":211,"ē":212,"Ĕ":213,"ĕ":214,"Ė":215,"ė":216,"Ę":217,"ę":218,"Ě":219,"ě":220,"Ĝ":221,"ĝ":222,"Ğ":223,"ğ":224,"Ġ":225,"ġ":226,"Ģ":227,"ģ":228,"Ĥ":229,"ĥ":230,"Ħ":231,"ħ":232,"Ĩ":233,"ĩ":234,"Ī":235,"ī":236,"Ĭ":237,"ĭ":238,"Į":239,"į":240,"İ":241,"ı":242,"Ĳ":243,"ĳ":244,"Ĵ":245,"ĵ":246,"Ķ":247,"ķ":248,"ĸ":249,"Ĺ":250,"ĺ":251,"Ļ":252,"ļ":253,"Ľ":254,"ľ":255,"Ŀ":256,"ŀ":257,"Ł":258,"ł":259,"Ń":260,"á»":261,"áº":262,"Ġt":263,"ng":264,"Ġc":265,"ĠÄ":266,"nh":267,"Ãł":268,"ĠÄĳ":269,"Ġth":270,"Æ°":271,"ĠĠ":272,"Ġv":273,"Ġl":274,"Ã¡":275,"Ġh":276,"čĊ":277,"iá»":278,"Ġb":279,"Ġm":280,"Ġch":281,"Ġs":282,"Ġtr":283,"Æ°á»":284,"Ġk":285,"áº¿":286,"Ġn":287,"á»Ļ":288,"Ġd":289,"Ġp":290,"Ġnh":291,"áº¡":292,"Ã³":293,"Ã¢":294,"Ãª":295,"Ġg":296,"Ã´":297,"iá»ĩ":298,"ĠT":299,"á»ĳ":300,"Ġkh":301,"áº£":302,"Ġng":303,"Ġph":304,"ĠĠĠĠ":305,"Ã¡c":306,"ĠvÃł":307,"ĠN":308,"an":309,"á»§":310,"áº¥":311,"Ġr":312,"Ãªn":313,"in":314,"uy":315,"on":316,"er":317,"Æ¡":318,"Ã´ng":319,"Ġq":320,"Ã¢n":321,"á»ĭ":322,"ĠlÃł":323,"áºŃ":324,"iáº¿":325,"ÃŃ":326,"==":327,"ĠC":328,"Ã¬":329,"am":330,"Æ°á»£":331,"en":332,"Ġcá»§":333,"Ġtá»":334,"áº§":335,"Ġqu":336,"Ġcá»§a":337,"Ġa":338,"Æ°á»Ŀ":339,"Äĥ":340,"Ġvá»":341,"Ġthá»":342,"ti":343,"ĠcÃ¡c":344,"ĠÄĳá»":345,"ĠV":346,"ong":347,"áº¡i":348,"ĠH":349,"á»Ļt":350,"Ľi":351,"es":352,"Ġx":353,"ch":354,"or":355,"ĠcÃ³":356,"Ġhá»":357,"Ġgi":358,"Ġthe":359,"is":360,"Ã£":361,"áº¥t":362,"Æ°á»£c":363,"Ġ(":364,"iá»ĩt":365,"ĠM":366,"iá»ģ":367,"Ġ1":368,"áº¯":369,"al":370,"Ã²":371,"ar":372,"Ãº":373,"ĠÄĳÆ°á»£c":374,"Ġo":375,"Ġmá»Ļt":376,"á»±":377,"ĠÄĲ":378,"á»¯":379,"ed":380,"á»Ł":381,"ĠNam":382,"ĠB":383,"ĠTh":384,"Ã¬nh":385,"á»©":386,"Ġin":387,"ĠL":388,"at":389,"ay":390,"Ġtrong":391,"Ã¹":392,"uyá»":393,"inh":394,"áº·":395,"iáº¿n":396,"Æ°á»Ľ":397,"iÃªn":398,"ĠViá»ĩt":399,"á»¥":400,"Æ°Æ¡":401,"Ãły":402,"Ãłnh":403,"Æ°Æ¡ng":404,"Ġof":405,"Ġan":406,"ĠTr":407,"Æ°á»Ŀi":408,"ĠP":409,"it":410,"áº§n":411,"ÃŃnh":412,"Æ°á»Ŀng":413,"as":414,"Ġvá»Ľi":415,"Ġf":416,"Äĥm":417,"au":418,"iá»ģu":419,"Ġcho":420,"ĠkhÃ´ng":421,"ro":422,"á»Ļng":423,"re":424,"ĠS":425,"Ġngh":426,"ai":427,"iá»ĩn":428,"ĠngÆ°á»Ŀi":429,"Ġw":430,"Ġto":431,"á»ĵ":432,"ung":433,"el":434,"ĠĠĠĠĠĠĠĠ":435,"ĠÄĳÃ£":436,"uá»ĳ":437,"Æ°á»Ľc":438,"iá»ĥ":439,"ic":440,"Ġho":441,"ang":442,"ĠnhÆ°":443,"á»¯ng":444,"Ġhá»į":445,"áº£i":446,"á»į":447,"Ã¢y":448,"ĠNg":449,"áº¿t":450,"áºŃt":451,"tion":452,"Ġand":453,"á»ĩ":454,"á»Ļc":455,"Ġ2":456,"ĠQ":457,"ĠD":458,"Å©":459,"Ġthá»ĥ":460,"á»ķ":461,"ĠnÄĥm":462,"áº£n":463,"ao":464,"áº§u":465,"anh":466,"á»Ń":467,"á»Ļi":468,"Ġra":469,"ĠCh":470,"Ġnhá»¯ng":471,"Ãłi":472,"Ãłng":473,"ĠĠĠ":474,"áº¿n":475,"Ã¹ng":476,"Ġá»Ł":477,"Ġ==":478,"ing":479,"ĠA":480,"ĠPh":481,"le":482,"Ġtá»«":483,"á»ĳng":484,"ĠK":485,"Ãłn":486,"áº±":487,"Ã¡t":488,"Ŀi":489,"ĠÄĳá»ĥ":490,"ec":491,"om":492,"Ã¡nh":493,"áºŃn":494,"ĠG":495,"Ã¡ng":496,"ĠÄĳÃ³":497,"Ġgiá»":498,"..":499,"Æ¡n":500,"Ġlá»":501,"us":502,"ĠvÃło":503,"ĠnÃły":504,"em":505,"áº·c":506,"á»¹":507,"á»ĳi":508,"th":509,"Ä©":510,"Ġthu":511,"Ã¡i":512,"Ġ\"":513,"ĠquÃ¢n":514,"áºŃp":515,"ĠthÃłnh":516,"iÃª":517,"ia":518,"00":519,"Ã©":520,"iá»ĩu":521,"Ã½":522,"Ġlo":523,"id":524,"Ġsá»±":525,"Ġ19":526,"ĠÄĳáº¿n":527,"Ã¡p":528,"ģn":529,"ent":530,"áº±ng":531,"ħn":532,"Äĥn":533,"im":534,"áº¯c":535,"Ġkhi":536,"Ġvá»ģ":537,"Ġhá»įc":538,"os":539,"ĠÄĳá»ĭ":540,"ĠnÃ³":541,"Ġsá»ĳ":542,"ĠNh":543,"Äĥng":544,"uyÃªn":545,"ur":546,"Ãło":547,"Ġbá»ĭ":548,"ĠchÃŃnh":549,"Ġcon":550,"ac":551,"ĠnÆ°á»Ľc":552,"áº©":553,"á»©c":554,"Ġchiáº¿n":555,"Ã¡o":556,"Å©ng":557,"iá»ģn":558,"iáº¿t":559,"á»ī":560,"Ã¡n":561,"ĠcÃ´ng":562,"Ġláº¡i":563,"ul":564,"ol":565,"Æ°á»£ng":566,"--":567,"Ã²n":568,"á»±c":569,"Ġis":570,"áº¡o":571,"et":572,"ĠdÃ¢n":573,"ĠMá»¹":574,"ĠlÃłm":575,"Ġdá»¥":576,"Ġnhiá»ģu":577,"ĠÄĳáº§u":578,"ĠcÅ©ng":579,"áº¡n":580,"±c":581,"uyá»ģn":582,"ĠmÃł":583,"Ġmá»":584,"áº¥y":585,"un":586,"Ã´i":587,"ĠnhÃł":588,"ĠkhÃ¡c":589,"Ġcáº£":590,"Ġe":591,"Ã²a":592,"Ã¢u":593,"ĠQu":594,"Ãºc":595,"Ġdo":596,"ly":597,"Ã¢m":598,"áº£ng":599,"od":600,"ÃŃch":601,"ĠtrÃªn":602,"uá»ĳc":603,"Ġquan":604,"ut":605,"Ġtáº¡i":606,"á»ı":607,"ation":608,"á»ĩnh":609,"il":610,"),":611,"áº«":612,"á»ĭch":613,"Ġthá»Ŀi":614,"ĠÄĳá»Ļng":615,"iá»ĩc":616,"ve":617,"Ġsá»Ń":618,"Ġhiá»ĩn":619,"ĠnhÃ¢n":620,"ith":621,"ĥn":622,"Ġtiáº¿":623,"ĠĠĠĠĠĠĠ":624,"uyá»ħn":625,"ir":626,"Ġchá»ī":627,"áº¯t":628,"ĠhÃ²a":629,"Ã³a":630,"um":631,"áº·t":632,"ĠÄĳá»ĭnh":633,"Ġy":634,"áº¡ng":635,"áº£o":636,"uá»Ļc":637,"Ġnháº¥t":638,"Ġchá»§":639,"Ġdá»¥ng":640,"Ġsau":641,"á»¥c":642,"ĠCá»Ļng":643,"áº½":644,"ĠÄĳá»ĵ":645,"op":646,"ĠI":647,"á»ĳc":648,"ĠcÃ²n":649,"Ġwith":650,"áº¡t":651,").":652,"âĢ":653,"Ġthá»©":654,"Ġviá»ĩc":655,"Ã²ng":656,"ĠcÃ¡ch":657,"Ġthá»±c":658,"ĠhÆ¡n":659,"Ãºng":660,"ev":661,"lo":662,"ĠcÆ¡":663,"Ã´n":664,"Ġhoáº·c":665,"Ġpháº£i":666,"áº¥p":667,"Ġthá»ĳng":668,"ĠthÃ¬":669,"ĠngÃły":670,"ĠhÃ¬nh":671,"ĠÄĳá»ģ":672,"ter":673,"uyáº¿t":674,"ĠthÆ°á»Ŀng":675,"iá»ĥn":676,"ĠTrung":677,"Æ°a":678,"ĠQuá»ĳc":679,"Ġlá»Ľ":680,"áº«n":681,"Ġloáº¡i":682,"===":683,"ĠÄĳo":684,"áº¡c":685,"ĠNguyá»ħn":686,"Ġtheo":687,"áº¥u":688,"ig":689,"ĠlÆ°á»£ng":690,"ad":691,"á»©ng":692,"ĠthÃ¡ng":693,"Ġká»":694,"Ġmiá»ģn":695,"Ġ3":696,"Ġtháº¿":697,"á»įi":698,"iÃªu":699,"ĠhÃ³a":700,"Ġ===":701,"st":702,"á»«":703,"iá»ĥu":704,"ĠKh":705,"Ġfor":706,"Ġbáº±ng":707,"Ġas":708,"Ġkho":709,"...":710,"Ã¡ch":711,"ĠphÃ¡t":712,"Ġbe":713,"áº¥n":714,"£p":715,"ĠGi":716,"uáº¥t":717,"Ġhai":718,"Ġbá»ĩnh":719,"ĠR":720,"iá»ĥm":721,"Ġtá»ķ":722,"ĠX":723,"Ġsinh":724,"Ġlá»±c":725,"if":726,"Ġgia":727,"Ġhá»£p":728,"iá»ĩp":729,"Ã¨":730,"ĠtÃŃnh":731,"Æ°á»Ł":732,"Ġor":733,"ĠlÃªn":734,"á»ķi":735,"tr":736,"Ġtranh":737,"áº¿u":738,"ĠhÃłnh":739,"Ġ20":740,"ce":741,"Th":742,"Ã³ng":743,"Æ°á»Łng":744,"Ġ-":745,"Ġbá»Ļ":746,"Ġhá»Ļi":747,"ĠHo":748,"ĠnhÆ°ng":749,"uyá»ĩ":750,"á»£":751,"Ġcuá»Ļc":752,"Ġ=":753,"Ġlá»Ľn":754,"Ġtrá»ĭ":755,"Ġare":756,"Ġtáº¿":757,"ot":758,"Ġtá»±":759,"Æ¡i":760,"ĠÄĳi":761,"ĠÄĳiá»ģu":762,"ĠthuáºŃt":763,"eas":764,"Ġdis":765,"ĠÄĳá»ĳi":766,"Ġtáº¡o":767,"ess":768,"ĠláºŃp":769,"Ġsáº£n":770,"Ä©a":771,"Ġsáº½":772,"ĠváºŃt":773,"Ġkáº¿t":774,"ĠThe":775,"ĠmÃ¡":776,"iá»ĩm":777,"ion":778,"Ġxuáº¥t":779,"ep":780,"ĠcÃ¹ng":781,"ers":782,"Ġgiá»¯":783,"ĠÄĳÆ°á»Ŀng":784,"ĠÃ´ng":785,"ĠĠčĊ":786,"hi":787,"á»ĵng":788,"ĠvÄĥn":789,"ry":790,"Ġpro":791,"ĠÄĳá»ĵng":792,"Æ°á»Ľng":793,"ts":794,"ĠÃ":795,"iti":796,"ĠtrÃ¬nh":797,"áº¡ch":798,"âĢĵ":799,"áº©m":800,"Ġtá»Ń":801,"ain":802,"ÄĲ":803,"Ġbáº£n":804,"á»ĵi":805,"Ġcá»©":806,"Ġ5":807,"ĠPhÃ¡p":808,"Ġtiáº¿p":809,"Ġvá»ĭ":810,"ĠlÃ½":811,"Æ°ng":812,"end":813,"ĠtÃ¡c":814,"Ġal":815,"Ġhá»ĩ":816,"ĠÄĳá»Ļ":817,"##":818,"Ġpháº§n":819,"yp":820,"ĠphÆ°Æ¡ng":821,"ĉĉ":822,"ĠÄĳáº¡i":823,"Ġdá»±":824,"Ġmá»Ľi":825,"ĠÄĳÃ¡nh":826,"Ġ4":827,"Ġbiáº¿n":828,"fec":829,"Ġngo":830,"ĠtrÆ°á»Ŀng":831,"uyá»ĩn":832,"oc":833,"áº»":834,"ĠnÃªn":835,"Ġcháº¥t":836,"Ġgá»įi":837,"Ġthá»ĭ":838,"ĠÄĥn":839,"ĠnÃ³i":840,"ag":841,"Ġgiá»Ľi":842,"Ġliá»ĩu":843,"ĠBáº¯c":844,"ĠnguyÃªn":845,"Ġcao":846,"Ġqua":847,"áº¡nh":848,"ĠdÃ¹ng":849,"ĠU":850,"ine":851,"ap":852,"ati":853,"ĠnghÄ©a":854,"lu":855,"ĠnháºŃn":856,"ua":857,"ĠtrÆ°á»Ľc":858,"Ġráº±ng":859,"ĠthÃ´ng":860,"Ġcan":861,"Ġráº¥t":862,"ĠW":863,"á»Ĺ":864,"á»Łi":865,"ĠhÃłng":866,"Ng":867,"Ġkhu":868,"Ġchá»©c":869,"Ġtruyá»ģn":870,"Ġon":871,"ĠÄĳá»Ļi":872,"Ġnhau":873,"iá»ħn":874,"arry":875,"Ġhay":876,"Ãºt":877,"ĠvÃ¬":878,"ĠMinh":879,"Ġquá»ĳc":880,"áº¯ng":881,"iÃªm":882,"ĠchÃºng":883,"ĠÄĳá»ķ":884,"ate":885,"Ġquyá»ģn":886,"----":887,"Tr":888,"ĠphÃ¢n":889,"Æ°u":890,"up":891,"ab":892,"áº¯n":893,"Ġtrá»Ł":894,"uá»ĳi":895,"áºŃu":896,"ĠE":897,"ĠCÃ¡c":898,"Ġtháº¥y":899,"Ġthá»©c":900,"Ãªm":901,"ĠnÄĥng":902,"áº©n":903,"ĠQuÃ¢n":904,"Ġtiáº¿n":905,"á»ĵm":906,"ĠtoÃłn":907,"Ġphá»§":908,"ĠÄĳáº·c":909,"iz":910,"Ġta":911,"á»įng":912,"Ġdá»ĭch":913,"Ġcháº¿":914,"19":915,"Ġdiseas":916,"áº¹":917,"ĠtiÃªu":918,"ho":919,"Ġmáº·t":920,"Ġmay":921,"Ġgiáº£":922,"Ġtu":923,"Ġby":924,"ĠliÃªn":925,"rom":926,"ear":927,"ÃŃa":928,"ĠbÃ¡nh":929,"Ġco":930,"ĠnhiÃªn":931,"uyá»ĥn":932,"Ġtá»Ľi":933,"Ġst":934,"Ã¡m":935,"ĠÄĳiá»ĥm":936,"Ġgá»ĵm":937,"Ġtriá»ĥn":938,"Ġthuá»Ļc":939,"tic":940,"ment":941,"Ġcom":942,"Ġlu":943,"ated":944,"ĠTÃ¢y":945,"ĠĠĠĠĠĠĠĠĠĠĠ":946,"se":947,"ĠVÄĥn":948,"Ġdi":949,"áºŃy":950,"ĠF":951,"ell":952,"á»Ńa":953,"Ġgian":954,"ere":955,"Ġbáº¯t":956,"ĠxÃ£":957,"ĠmÃ¬nh":958,"Ġtá»¥":959,"áº§y":960,"ther":961,"Ġváº«n":962,"Ġso":963,"Ġkinh":964,"ex":965,"uc":966,"Ġtrung":967,"á»Ľ":968,"Ġtá»ĳ":969,"ĠÄĳáº¥t":970,"Ãµ":971,"Ġthat":972,"ĠÄĲáº¡i":973,"ĠbÃªn":974,"áº¥m":975,"ef":976,"qu":977,"Ġnghá»ĩ":978,"Ġbao":979,"ĠtáºŃp":980,"Ã©p":981,"Ġsy":982,"ĠÄĲÃ´ng":983,"Ġinc":984,"áº³":985,"ĠcÃ¡i":986,"Ġbiá»ĩt":987,"áº§m":988,"ĠtÄĥng":989,"Æ°á»Ľi":990,"ĠÄĳá»ĭa":991,"di":992,"ĠnÃło":993,"\".":994,"Ġus":995,"Ã©t":996,"ug":997,"Ġex":998,"ĠÄĳá»ģu":999,"Ġ6":1000,"ist":1001,"ity":1002,"Ġdisease":1003,"ical":1004,"uá»ĳng":1005,"Ġchiáº¿":1006,"Ġtrá»įng":1007,"000":1008,"Ġthá»§":1009,"ĠsÄ©":1010,"ĠphÃ³ng":1011,"Ġsá»ĳng":1012,"eat":1013,"Ġcáº¥p":1014,"ĠÄĳÃ¢y":1015,"Ġgiá»¯a":1016,"ĠmÃ¡y":1017,"áº£nh":1018,"ĠHÃł":1019,"Ġpháº©m":1020,"Ġcáº§u":1021,"ĠIn":1022,"ĠvÃ¹ng":1023,"uá»ĳn":1024,"Ġac":1025,"igh":1026,"Ġres":1027,"ĠSÆ¡n":1028,"ver":1029,"Ġha":1030,"ĠÄĳá»ķi":1031,"Ġquáº£":1032,"ĠÄĳang":1033,"Ġtiáº¿ng":1034,"Ġbiáº¿t":1035,"Ġká»³":1036,"Ġphá»ĳ":1037,"Ġhiá»ĩu":1038,"áº¯m":1039,"á»ķng":1040,"á»ģ":1041,"Ġcá»©u":1042,"ĠÃ½":1043,"á»ĵn":1044,"ĠTrong":1045,"á»įc":1046,"Ġláº§n":1047,"ĠHarry":1048,"Ġgiáº£i":1049,"ĠngoÃłi":1050,"áº³ng":1051,"og":1052,"Ġtin":1053,"ĠtÃ¬nh":1054,"ĠÄĳoÃłn":1055,"Ġ197":1056,"á»¯a":1057,"ĠDÃ¢n":1058,"ĠviÃªn":1059,"áº±m":1060,"Ġkhoáº£ng":1061,"áº¡m":1062,"ĠphÃŃa":1063,"itis":1064,"Ã³n":1065,"Ġrá»ĵi":1066,"ant":1067,"īnh":1068,"ĠgÃ¢y":1069,"Ġpr":1070,"ĠJ":1071,"Ġ7":1072,"ĠgiÃ¡o":1073,"ĠtÆ°Æ¡ng":1074,"Ġchá»ĳng":1075,"pt":1076,"ĠphÃ¡p":1077,"ĠtÃŃch":1078,"ĠsÃ¡ch":1079,"ore":1080,"ĠâĢĵ":1081,"áº£y":1082,"Ġyáº¿u":1083,"ĠtÃªn":1084,"Ġtá»Ļc":1085,"Ġ10":1086,"Ch":1087,"Ġ201":1088,"Ġthiáº¿t":1089,"Ġá»©ng":1090,"ĠtiÃªn":1091,"ted":1092,"ĠthÆ°":1093,"ĠquÃ¡":1094,"ĠphÃ²ng":1095,"Ġbáº£o":1096,"Ġchá»©ng":1097,"ĠbÃ¬nh":1098,"Ä©nh":1099,"ĠthÃªm":1100,"Ãªu":1101,"Ġphong":1102,"Ġquyáº¿t":1103,"ĠAn":1104,"Ġba":1105,"Ġdiá»ħn":1106,"ri":1107,"Ġim":1108,"ĠtÃ¢m":1109,"Ġ.":1110,"Ġnghiá»ĩp":1111,"á»Ŀi":1112,"Ġnhá»ı":1113,"uch":1114,"Ã¬n":1115,"ĠLÃª":1116,"und":1117,"ĠdÃłi":1118,"Ġvá»¥":1119,"Ġviá»ĩn":1120,"Ġtrang":1121,"Ġfrom":1122,"Ġcá»ĳ":1123,"and":1124,"Ġnháº¡c":1125,"Ġcáº§n":1126,"eo":1127,"Ġtháº§n":1128,"Ġtá»ķng":1129,"Ġbá»ĳ":1130,"Ġhá»ĵ":1131,"ĠgiÃ¡":1132,"ph":1133,"á»Ŀ":1134,"ĠÄĳáº¡o":1135,"erm":1136,"ĠmÃ´":1137,"Ġ*":1138,"á»įn":1139,"ĠsÆ°":1140,"Ġnay":1141,"elf":1142,"uÃ¢n":1143,"Ġthay":1144,"ĠnÆ¡i":1145,"Ġhave":1146,"ĠkhÃŃ":1147,"ĠO":1148,"Ġtrá»£":1149,"ĠGiáº£i":1150,"Ġhoáº¡t":1151,"Ġchu":1152,"Ġáº£nh":1153,"Ġbá»Łi":1154,"ack":1155,"Ġ18":1156,"orm":1157,"ill":1158,"Ġvá»±c":1159,"est":1160,"Ã¬m":1161,"Ġtá»īnh":1162,"Ġat":1163,"Ã©o":1164,"Ġvi":1165,"á»ĭnh":1166,"\",":1167,"ĠÄĳÆ°a":1168,"Ġ9":1169,"ĠLiÃªn":1170,"Ġ200":1171,"Ġ8":1172,"Ãºp":1173,"Ġit":1174,"Ġbinh":1175,"ĠMá»Ļt":1176,"ence":1177,"Ã¹a":1178,"ĠsÃ¡ng":1179,"ext":1180,"uyáº¿n":1181,"ĠHá»ĵ":1182,"Ġnot":1183,"LÃłng":1184,"Ġná»ķi":1185,"ÃŃt":1186,"ĠÃ¢m":1187,"ĠgÃ¬":1188,"iáº¿u":1189,"ĠthÆ°Æ¡ng":1190,"Ġkhá»ı":1191,"Ġchuyá»ĥn":1192,"ure":1193,"Nh":1194,"á»«ng":1195,"ĠTráº§n":1196,"ary":1197,"pl":1198,"Ġtay":1199,"ĠdÆ°á»Ľi":1200,"Ġlá»ĭch":1201,"ans":1202,"Ġmáº¡nh":1203,"ally":1204,"Ġdáº¡ng":1205,"ow":1206,"ĠlÃ£":1207,"te":1208,"ens":1209,"Ġtriá»ĩu":1210,"Ġlá»£":1211,"«a":1212,"ĠmÃ³n":1213,"Ġcau":1214,"ĠÄĳá»Ļc":1215,"Ġmáº¡ng":1216,"ĠchÃŃ":1217,"ĠBá»Ļ":1218,"uá»ĵn":1219,"Ġgiáº£m":1220,"Ġgen":1221,"ĠY":1222,"Ġbiá»ĥu":1223,"ĠbÃ¡o":1224,"ĠĠĠĠčĊ":1225,"Ġdáº«n":1226,"ĠChÃŃnh":1227,"ĠÄĳiá»ĩn":1228,"ĠTá»ķng":1229,"ĠDÆ°Æ¡ng":1230,"Ġdá»±ng":1231,"á»ħ":1232,"ĠtráºŃn":1233,"Ġháº¿t":1234,"á»ģn":1235,"Ġtá»¥c":1236,"ĠvÅ©":1237,"all":1238,"Ġbá»ı":1239,"iÃªng":1240,"Ġwhi":1241,"eop":1242,"Ġgiá»Ŀ":1243,"Ġcuá»ĳi":1244,"ies":1245,"ĠxÃ¡c":1246,"Ãºa":1247,"ĠbÃłi":1248,"Ġbáº¥t":1249,"Ġsang":1250,"Ġvua":1251,"evel":1252,"ĠtÃłi":1253,"ĠÄĳáº¥u":1254,"iá»ħ":1255,"ĠHoa":1256,"ĠÃ¡p":1257,"ĠÄĳÆ¡n":1258,"ub":1259,"Ġtho":1260,"so":1261,"ose":1262,"Ġcá»ķ":1263,"Ġsp":1264,"ĠÄĳoáº¡n":1265,"ĠÄĳÃ¬nh":1266,"Ġtham":1267,"ĠÄĳá»©":1268,"ĠchÆ°a":1269,"ĠváºŃy":1270,"áº·ng":1271,"Ã¨o":1272,"Ġmá»¥c":1273,"Ġsá»Ł":1274,"Ġ{":1275,"ss":1276,"Ġgiao":1277,"ak":1278,"Ã´m":1279,"Ã³c":1280,"Ġmang":1281,"reas":1282,"ĠĠĠĠĠĠĠĠčĊ":1283,"ĠgiÃºp":1284,"ĠtÆ°á»Ľng":1285,"ting":1286,"Ã£i":1287,"Ġcá»Ļng":1288,"eople":1289,"20":1290,"ib":1291,"Ġpháº£n":1292,"Ĺi":1293,"ĠtÃ¬m":1294,"Ġ/":1295,"ĠhoÃłn":1296,"ard":1297,"ĠNá»Ļi":1298,"ĠtÃ´i":1299,"á»³":1300,"Ġinfec":1301,"ĠnghiÃªn":1302,"ue":1303,"Ġ196":1304,"Ãłm":1305,"###":1306,"Of":1307,"Ġká»¹":1308,"mpt":1309,"Text":1310,"ome":1311,"Ġca":1312,"endOf":1313,"endOfText":1314,"ne":1315,"ffec":1316,"Ġsá»©c":1317,"Ġphá»¥c":1318,"irus":1319,"Ġkáº¿":1320,"Ġgáº§n":1321,"'s":1322,"mptom":1323,"ĠthÆ¡":1324,"ost":1325,"ĠNguyÃªn":1326,"ĠBÃ¬nh":1327,"ĠxÃ¢y":1328,"Ã³m":1329,"gn":1330,"ĠÄĳá»Ŀi":1331,"Ġmáº¥t":1332,"ĠthÃŃch":1333,"Ġquy":1334,"Ġem":1335,"áº¯p":1336,"áº·p":1337,"ory":1338,"Ġká»·":1339,"Ġkiáº¿n":1340,"ĠlÃºc":1341,"ĠtÆ°":1342,"ĠtÆ°á»£ng":1343,"Ġmá»Ł":1344,"--------":1345,"Ġ0":1346,"ĠcÃ¢y":1347,"Ġváº¥n":1348,"he":1349,"Ġdá»¯":1350,"ĠLong":1351,"Ġcá»¥":1352,"ĠTuy":1353,"ĠĠĠĠĠĠčĊ":1354,"pro":1355,"Ġxuá»ĳng":1356,"Ġpar":1357,"áº¡y":1358,"Ġthuyáº¿t":1359,"Ġhá»Ļ":1360,"ĠÄĳáº·t":1361,"Ġ195":1362,"ach":1363,"ge":1364,"ĠbÃło":1365,"Ġminh":1366,"to":1367,"ĠtrÃŃ":1368,"Ġblo":1369,"mon":1370,"Ġpeople":1371,"Ġban":1372,"ĠthÃ¢n":1373,"Æ°á»£u":1374,"Ġad":1375,"ĠNhÃł":1376,"Ġtá»«ng":1377,"Ġchung":1378,"Ġtim":1379,"Ġrec":1380,"ations":1381,"ĠmÃłu":1382,"ew":1383,"Ġnáº¿u":1384,"Ġkhoa":1385,"lud":1386,"ĠHu":1387,"odel":1388,"ĠÃŃt":1389,"Ġháº¡n":1390,"ĠnhÃ¬n":1391,"Ġrá»Ļng":1392,"Ġláº¥y":1393,"Ġre":1394,"ĠmÃ¡u":1395,"ĠlÃ¡":1396,"Ġtriá»ģu":1397,"Ġcáº£m":1398,"Ġlá»£i":1399,"Ġmen":1400,"ous":1401,"Ġdiá»ĩn":1402,"Ġkhá»ıi":1403,"====":1404,"ĠdÃ¹":1405,"Ġwhich":1406,"one":1407,"áºµ":1408,"Ġchá»¯":1409,"Ġsymptom":1410,"ever":1411,"Ġphá»ķ":1412,"á»ĥ":1413,"Ġthá»ĭt":1414,"ort":1415,"Ġwas":1416,"Ġnguá»ĵn":1417,"Ġcung":1418,"Ġngá»¯":1419,"ber":1420,"eatment":1421,"Ġcell":1422,");":1423,"ial":1424,"amp":1425,"ĠkÃ½":1426,"Ġalso":1427,"iá»ħm":1428,"act":1429,"ĠvÃ´":1430,"Ġpre":1431,"ĠĠĠĠĠĠĠĠĠĠčĊ":1432,"ĠphÃ¡":1433,"Ġmuá»ĳn":1434,"ıi":1435,"Ġchiáº¿m":1436,"ĠAnh":1437,"ĠQuáº£ng":1438,"ĠÃģ":1439,"áº¡p":1440,"Ġviáº¿t":1441,"Ġself":1442,"ĠphÃ©p":1443,"ĠhÆ°á»Łng":1444,"Ã£o":1445,"ĠsÃ¡t":1446,"Ġlá»ħ":1447,"ĠhÆ°á»Ľng":1448,"Ġá»§":1449,"Ġcá»Ń":1450,"osis":1451,"Ġab":1452,"Ph":1453,"Ġkiá»ĩn":1454,"tions":1455,"ĠcÃ¡":1456,"Ġhas":1457,"out":1458,"Ġtháº¯ng":1459,"Ġmá»Ĺi":1460,"av":1461,"Ġtinh":1462,"ors":1463,"Ķng":1464,"Ġná»¯a":1465,"Ġkháº£":1466,"ĠSau":1467,"yro":1468,"ĠhÃ¡t":1469,"Ġkiá»ĥm":1470,"int":1471,"isk":1472,"iv":1473,"Ġlá»Ŀi":1474,"Ġcá»Ńa":1475,"Ġmá»įi":1476,"Ġtáº¥t":1477,"Ġphá»¥":1478,"Ġ12":1479,"Ġanh":1480,"ys":1481,"ĠThÃ¡i":1482,"Ġ15":1483,"Ġtiá»ģn":1484,"Ġblood":1485,"ugh":1486,"ĠLÃ½":1487,"Ġinclud":1488,"Ġsymptoms":1489,"ĠcÃłng":1490,"Ġtrá»±c":1491,"ĠtrÃ²":1492,"ĠthÃ¡i":1493,"ĠThÃłnh":1494,"ĠNhá»¯ng":1495,"ĠsÃ´ng":1496,"ĠtrÃºc":1497,"ff":1498,"ĠNgh":1499,"ĠCÃ´ng":1500,"ĠtoÃ¡n":1501,"ĠrÆ°á»£u":1502,"Ġnhiá»ħm":1503,"oÃłi":1504,"Ġá»":1505,"Ġif":1506,"ĠkÃŃch":1507,"ĠlÆ°á»£c":1508,"Ġmáº¡ch":1509,"ĠChÃŃ":1510,"Ġhuyáº¿t":1511,"Ġwh":1512,"ĉĉčĊ":1513,"ĉĉĉ":1514,"Ġná»Ļi":1515,"ĉĉĉčĊ":1516,"ser":1517,"Ġvá»«a":1518,"ĠlÃ£nh":1519,"ĠrÃºt":1520,"Ġtreatment":1521,"ĠÄĳa":1522,"Ġchi":1523,"Ġná»ģn":1524,"Ġwe":1525,"Äĳ":1526,"ĠcÃ¢u":1527,"Ġtáº¥n":1528,"ĠHoÃłng":1529,"Ġcáº£i":1530,"Ġtyp":1531,"Ġtháº¥t":1532,"áº¿p":1533,"ath":1534,"ĠčĊ":1535,"ĠÄĳá»§":1536,"tive":1537,"vid":1538,"Ġlá»ĩ":1539,"Ġhoa":1540,"ĠchÃ¢u":1541,"Ġsao":1542,"Ġchia":1543,"Ã¹y":1544,"Ġvirus":1545,"Ġdanh":1546,"Ġrisk":1547,"ĠÄĳÃ³ng":1548,"las":1549,"Ġnghiá»ĩm":1550,"ĠNgÃ´":1551,"ĠbÃłn":1552,"ĠbiÃªn":1553,"ĠrÃµ":1554,"ĠThanh":1555,"ĠÄĲÃ¬nh":1556,"á»ĳn":1557,"ĠÄĲÃł":1558,"ĠKá»³":1559,"ĠviÃªm":1560,"Ġhyp":1561,"áºŃm":1562,"ĠÄĳáº£o":1563,"Ġthuá»ĳc":1564,"Ġ====":1565,"ild":1566,"ĠlÆ°u":1567,"Ġká»ĥ":1568,"Ġthan":1569,"Ġnghá»ĭ":1570,"ĠyÃªu":1571,"CÃ¡c":1572,"ĠlÃłng":1573,"Ġsáº¯c":1574,"ents":1575,"Ġinf":1576,"yroid":1577,"Ġel":1578,"Ġmore":1579,"ĠNÃ³":1580,"Ãºi":1581,"ron":1582,"Ġbay":1583,"Ġkhiáº¿n":1584,"Ġcáº£nh":1585,"Ġtráº¡ng":1586,"Ġcar":1587,"Ġlá»Ľp":1588,"Ġhuy":1589,"cur":1590,"Trong":1591,"ely":1592,"ĠchÃ¢n":1593,"Ġchá»ĭ":1594,"tim":1595,"ord":1596,"ĠkhÃ³":1597,"Ġháº¡t":1598,"Ġdia":1599,"ĠÄĳá»Ļt":1600,"ĠlÃ²ng":1601,"ates":1602,"á»Ĺi":1603,"Ġcháº¿t":1604,"Ġxem":1605,"Ġthi":1606,"Ġvá»ĩ":1607,"oth":1608,"Ġcoi":1609,".<":1610,"Ġgiai":1611,"mun":1612,"ĠĠĠĠĠĠĠĠĠĠĠĠĠĠĠ":1613,"ĠháºŃu":1614,"ĠChiáº¿n":1615,"á»£i":1616,"ĠriÃªng":1617,"ik":1618,"Ġ17":1619,"ĠtrÆ°á»Łng":1620,"Ġcas":1621,"ĠnÃ´ng":1622,"ĠnhÃ³m":1623,"Ġtuyáº¿n":1624,"ĠNinh":1625,"á»©t":1626,"ĠtÆ°á»Łng":1627,"):":1628,"kin":1629,"ĠHá»Ļi":1630,"Ġngay":1631,"Ġ//":1632,"ip":1633,"ize":1634,"ov":1635,"Ġar":1636,"Ġkhai":1637,"ĠtuyÃªn":1638,"Ġbáº¡n":1639,"Ġnam":1640,"Ġcáº¥u":1641,"ĠkhÃ¡ng":1642,"įng":1643,"Ġper":1644,"ĠNháºŃt":1645,"ĠÃĶng":1646,"Ġanti":1647,"iáº¿ng":1648,"Ġchá»©":1649,"ĠHiá»ĩp":1650,"ĠcÃ´":1651,"ĠÄĳÃ¡":1652,"ĠlÃ¢u":1653,"ular":1654,"ĠHÃ¡n":1655,"Ġtá»ĵ":1656,"Ġngoáº¡i":1657,"Ġun":1658,"ĠHáº£i":1659,"ĠphÃª":1660,"Ġquáº£n":1661,"Ġthis":1662,"ĠTá»«":1663,"Ġbeen":1664,"ice":1665,"Ġ11":1666,"Ġgáº·p":1667,"Ġthanh":1668,"The":1669,"Ġcont":1670,"ĠSt":1671,"Ġtuá»ķi":1672,"Ġfo":1673,"Ġmá»©c":1674,"ign":1675,"Má»Ļt":1676,"Ġcommon":1677,"enc":1678,"áº£m":1679,"Ġhigh":1680,"Ġincreas":1681,"Ġsai":1682,"ĠbÃł":1683,"ance":1684,"Ġxanh":1685,"Ġtá»ĳt":1686,"age":1687,"ĠXuÃ¢n":1688,"Ġhuyá»ĩn":1689,"Ġsuch":1690,"Ġap":1691,"Ġne":1692,"Ġ+":1693,"Ġnguy":1694,"Ġtháº§y":1695,"ĠNÄĥm":1696,"ĠcÃł":1697,"ĠNhÃ¢n":1698,"Ġmáº¯t":1699,"ĠChÃ¢u":1700,"Ġtá»©":1701,"ide":1702,"low":1703,"ĠniÃªn":1704,"Æ°á»¡":1705,"ĠTheo":1706,"gr":1707,"ĠÄĳem":1708,"Ġchuáº©n":1709,"Ġdu":1710,"Ġbut":1711,"Ġnhiá»ĩm":1712,"Ġother":1713,"ese":1714,"Ġnhanh":1715,"ĠkhÃ¡ch":1716,"ight":1717,"ģm":1718,"Ġxáº£y":1719,"evelop":1720,"Ġnháº±m":1721,"áº¹p":1722,"ĠÃ¡o":1723,"ead":1724,"ind":1725,"ĠlÃŃnh":1726,"Ġpl":1727,"ven":1728,"Ġbáº¡i":1729,"ĠTÃ´ng":1730,"ick":1731,"ĠAss":1732,"NÄĥm":1733,"olog":1734,"á»Ļn":1735,"Ãłu":1736,"ĠluáºŃn":1737,"Ġoc":1738,"Ġthiáº¿u":1739,"ou":1740,"Ġnáº±m":1741,"Ġdef":1742,"ĠXÃ´":1743,"enti":1744,"ĠGÃ²n":1745,"ĠÄĳá»©ng":1746,"ĠchÆ°Æ¡ng":1747,"Ġnghe":1748,"ĠÄĳáº¡t":1749,"á»«a":1750,"ĠnháºŃp":1751,"ism":1752,"ĠQuang":1753,"ĠÄĲáº£ng":1754,"Ġtá»ĵn":1755,"Ġmed":1756,"ione":1757,"ult":1758,"Ġcaus":1759,"Ġ199":1760,"Ġtáº£":1761,"ĠvÃłng":1762,"Ã©m":1763,"ĠgÃ³":1764,"Ġtiáº¿t":1765,"ĠbÃ¡n":1766,"iáº¿m":1767,"Ġai":1768,"á»ĳt":1769,"Ġnáº·ng":1770,"Ġ'":1771,"Ġmodel":1772,"Ġdevelop":1773,"ĠAl":1774,"Ġmá»ģm":1775,"ive":1776,"ud":1777,"ermione":1778,"Ġtráº»":1779,"Ġbiá»ĥn":1780,"iff":1781,"eal":1782,"Ġ14":1783,"Ġchá»ĭu":1784,"á»Ľi":1785,"áº«u":1786,"Ġtiá»ĥu":1787,"Ġused":1788,"tern":1789,"tein":1790,"ĠKhi":1791,"lam":1792,"ĠngÃłnh":1793,"Ġxe":1794,"sy":1795,"Ġ194":1796,"acter":1797,"Ġtá»·":1798,"ĠlÄ©nh":1799,"ual":1800,"per":1801,"ĠchuyÃªn":1802,"ĠSÃłi":1803,"mer":1804,"áº©u":1805,"ĠÄĳÃ´":1806,"Ġcháº¡y":1807,"ays":1808,"Ġbu":1809,"Ġmost":1810,"Ġáº¥y":1811,"Ġduy":1812,"anc":1813,"ten":1814,"ĳng":1815,"NgÃły":1816,"loat":1817,"Ã¨n":1818,"Ġmáº¯m":1819,"Ġrau":1820,"ĠsoÃ¡t":1821,"Ġhá»ıi":1822,"ĠmÃ£":1823,"Ġcases":1824,"Ġung":1825,"Ġchuyá»ĩn":1826,"ĠcÄĥn":1827,"Ġj":1828,"ĠÄĳÃ´ng":1829,"Ġhá»Ĺ":1830,"Ġthá»§y":1831,"10":1832,"ld":1833,"Æ°á»£t":1834,"amin":1835,"ĠngÃ´i":1836,"Ġass":1837,"arg":1838,"Ġghi":1839,"Ġ30":1840,"ĠmÃ¹a":1841,"Ġcomp":1842,"ĠÄĲá»©c":1843,"Ġsuy":1844,"Ġru":1845,"Ġtrá»¯":1846,"Ã¹i":1847,"Ġ198":1848,"ĠbÆ°á»Ľc":1849,"istant":1850,"Ġcuá»ĳn":1851,"á»§y":1852,"oid":1853,"Ġlá»ĩnh":1854,"ĠkÃ©o":1855,"Ġháº§u":1856,"Ġkhá»Łi":1857,"ks":1858,"Ġhoáº¡ch":1859,"ĠThu":1860,"Ġsho":1861,"Ġchá»įn":1862,"Ġtá»©c":1863,"ĠNgoÃłi":1864,"Kh":1865,"we":1866,"ĠPar":1867,"Ġman":1868,"Ġoccur":1869,"Ġsh":1870,"ĠxÃ©t":1871,"Ġvai":1872,"ĠTáº¿t":1873,"Ġout":1874,"Ġgiá»ĳng":1875,"ĠnÃ£o":1876,"ĠmáºŃt":1877,"able":1878,"Ġdá»ħ":1879,"Ġsc":1880,"Ġxa":1881,"urn":1882,"ĠÄĳÃło":1883,"Ġdiá»ĩt":1884,"ĠÄĳÃ¡ng":1885,"ĠTrÆ°á»Ŀng":1886,"Ġdá»±a":1887,"Ġred":1888,"Ġgá»ĳc":1889,"ĠÄĲá»ĭnh":1890,"Ġ#":1891,"Ġ16":1892,"Ġcháº³ng":1893,"eart":1894,"ĠváºŃn":1895,"Æ°á»¡ng":1896,"ĠhÆ°Æ¡ng":1897,"ĠchÃ¡":1898,"ile":1899,"ren":1900,"Ġtráº£":1901,"ĠMal":1902,"Harry":1903,"con":1904,"Ġde":1905,"Ġnhiá»ĩt":1906,"Ġeffec":1907,"iss":1908,"ĠÃĤ":1909,"Ġtá»ĳi":1910,"ĠRon":1911,"Ġcá»±c":1912,"ĠchÃº":1913,"ĠCÃ³":1914,"ĠngÃ´n":1915,"á»ĳm":1916,"Ġda":1917,"Ġcáº¡nh":1918,"IV":1919,"ĠNhÆ°ng":1920,"uá»ĳt":1921,"Ġbá»Ļt":1922,"ĠUser":1923,"ific":1924,"Ġuá»ĳng":1925,"ĠAssistant":1926,"ĠtrÃło":1927,"In":1928,"ĠvÃłi":1929,"ĠÄĲá»ĵng":1930,"¯u":1931,"ĠtrÆ°ng":1932,"Ġcháº¥m":1933,"á»ĭp":1934,"ĠÄĳoÃ¡n":1935,"ÃŃn":1936,"Ġchild":1937,"ect":1938,"Ġá»§ng":1939,"Ġkhá»ĳi":1940,"ĠUn":1941,"Ġprotein":1942,"tis":1943,"Ġná»¯":1944,"18":1945,"Ġlao":1946,"oci":1947,"Ġno":1948,"Ġint":1949,"Ġvong":1950,"ĠsÃ¢u":1951,"Ġyear":1952,"Ġtháº¥p":1953,".\"":1954,"ĠcÃ¡o":1955,"ĠLÆ°u":1956,"Ġcause":1957,"Ġsome":1958,"ast":1959,"Ġhá»ĵi":1960,"Ġdáº§n":1961,"Ġquanh":1962,"áº©y":1963,"unc":1964,"ĠÄĳÃ¢u":1965,"Ġháº¡":1966,"ond":1967,"Ġxá»Ń":1968,"Ġinfection":1969,"ĠphÃ¡o":1970,"ape":1971,"ĠÄĳáº§y":1972,"Ġme":1973,"cer":1974,"Ġkiá»ĥu":1975,"Ġbuá»Ļc":1976,"ĠÄĲiá»ģu":1977,"Ġsá»©":1978,"stem":1979,"ĠĠĠĠĠĠĠĠĠĠĠĠĠĠĠĠ":1980,"Ġinclude":1981,"ĠcÅ©":1982,"Ġbet":1983,"áº·n":1984,"ise":1985,"ĠVÆ°Æ¡ng":1986,"duc":1987,"ĠÄĳá»ı":1988,"ĠDiá»ĩm":1989,"Ġse":1990,"Ġhá»¯u":1991,"ater":1992,"Ġthá»ķ":1993,"ĠMáº·t":1994,"ma":1995,"Ġdiff":1996,"ĠÄĳÃ´i":1997,"ĠtrÃ¬":1998,"ĠBáº£n":1999,"ĠYÃªn":2000,"ĠCÃ¡ch":2001,"Ġuse":2002,"now":2003,"Ġniá»ĩm":2004,"ĠphÃ¹":2005,"Ġthose":2006,"ĠÄĳáºŃu":2007,"Ġkháº£o":2008,"Ġkháº¯c":2009,"200":2010,"ĠgiÃłnh":2011,"ĠthÃºc":2012,"uyá»ĩt":2013,"Ġliá»ĩt":2014,"Ġaffec":2015,"Ġwho":2016,"Ġháº¡i":2017,"Ġag":2018,"Ġrel":2019,"ĠvÃ²ng":2020,"Ġquáº§n":2021,"ĠÄĳÃłn":2022,"Ġcháº¥p":2023,"Ġrep":2024,"ıng":2025,"Ġgáº¡o":2026,"Ã²i":2027,"Ġdiagn":2028,"ĠĠĠĠĠ":2029,"ĠÄĳiá»ĥn":2030,"ĠPhÃº":2031,"Ġi":2032,"ĠnÃºi":2033,"Ġheart":2034,"Ġma":2035,"áºµn":2036,"oh":2037,"ĠhoÃłng":2038,"uchia":2039,"ampuchia":2040,"orch":2041,"Ġhiá»ĩp":2042,"ĠHuáº¿":2043,"io":2044,"ĠDo":2045,"ĠÆ°á»Ľc":2046,"Ġpres":2047,"ĠNgÆ°á»Ŀi":2048,"ute":2049,"rain":2050,"ĠÃ¡nh":2051,"Ġmáº¯c":2052,"ĠÃ¡n":2053,"ĠtrÃ¡i":2054,"ĠÄĳáº¿":2055,"ler":2056,"ĠTrá»ĭnh":2057,"ame":2058,"ĠmÃ´i":2059,"lamm":2060,"yle":2061,"Ġtrans":2062,"Ġhiá»ĥu":2063,"ĠdÃ²ng":2064,"ĠthiÃªn":2065,"tiv":2066,"Ġvu":2067,"Nguyá»ħn":2068,"Ġdung":2069,"Ġphi":2070,"----------------":2071,"ĠCampuchia":2072,"Ã£y":2073,"ĠmÃ¬":2074,"ĠchÆ¡i":2075,"ĠKho":2076,"ias":2077,"áºµng":2078,"Ġcáº¯t":2079,"ree":2080,"acc":2081,"Ġlow":2082,"á»±a":2083,"cess":2084,"ritis":2085,"ĠlÃ¢m":2086,"uld":2087,"ĠNáºµng":2088,"ĠloÃłi":2089,"ĠKhÃ´ng":2090,"Ġcol":2091,"ĠPhÃºc":2092,"ress":2093,"ĠtÃ¡i":2094,"ĠNgÃły":2095,"ĠHÃ²a":2096,"pos":2097,"Ġmáº·c":2098,"ĠxÃºc":2099,"back":2100,"Ġover":2101,"ĠluáºŃt":2102,"Ġcoun":2103,"iá»ģm":2104,"ĠphÃ¡i":2105,"Ġ{\\":2106,"ĠÄĳÃºng":2107,"ĠVÅ©":2108,"irst":2109,"Ġlevel":2110,"Ġnum":2111,"ĠHermione":2112,"ĠIt":2113,"ĠTo":2114,"Ġdá»¥c":2115,"pec":2116,"ĠKinh":2117,"Ã¨m":2118,"dis":2119,"ite":2120,"les":2121,"ĠtháºŃp":2122,"nd":2123,"Ġcl":2124,"Ġtuyá»ĥn":2125,"ĠÄĳau":2126,"Ġtheir":2127,"Ġláº¡c":2128,"ĠChá»ī":2129,"ĠThá»ĭ":2130,"ĠGia":2131,"Ġwor":2132,"ĠChá»§":2133,"Ġkháº©u":2134,"size":2135,"ari":2136,"NA":2137,"Ġen":2138,"12":2139,"Ġtráº¯ng":2140,"ann":2141,"ealth":2142,"Gi":2143,"Ġsáºµn":2144,"ative":2145,"me":2146,"Ġsup":2147,"Ġloáº¡n":2148,"Ġnáº¥u":2149,"ish":2150,"ĠCao":2151,"Ġund":2152,"dition":2153,"Ġá»ŀ":2154,"16":2155,"ĠluÃ´n":2156,"ery":2157,"ĠtÃ´n":2158,"Ġchá»Ĺ":2159,"ĠÄĲÃ¢y":2160,"Ġam":2161,"Ġdoanh":2162,"ĠtháºŃt":2163,"Ġmá»ĳi":2164,"Ġnon":2165,"apy":2166,"ĠTiÃªn":2167,"ications":2168,"rop":2169,"Ġchiáº¿c":2170,"Ġret":2171,"Ġep":2172,"ĠxÃ¢m":2173,"ited":2174,"ually":2175,"ĠkÃª":2176,"Ġsystem":2177,"ĠCon":2178,"Ġtra":2179,"Ġstr":2180,"Ġimmun":2181,"ĠHIV":2182,"Ġlá»ĳi":2183,"Ġspec":2184,"Ġsur":2185,"omm":2186,"ĠtÃ´m":2187,"Ġgo":2188,"ĠThis":2189,"ĠcÆ°á»Ŀng":2190,"Ġoften":2191,"Ġcons":2192,"uring":2193,"Ġ[":2194,"Ġgiáº¿t":2195,"red":2196,"Ġdec":2197,"Ġes":2198,"ĠsÃ¢n":2199,"ıa":2200,"ĠdáºŃy":2201,"Ġgá»ĳm":2202,"ĠhÃłm":2203,"port":2204,"Ġ100":2205,"Ġtá»ĭch":2206,"val":2207,"par":2208,"Ġfirst":2209,"Ġchildren":2210,"ern":2211,"ating":2212,"á»Ľp":2213,"Ġwere":2214,"nown":2215,"Ġskin":2216,"ert":2217,"Ġcells":2218,"ĠbÃ¡c":2219,"ric":2220,"cul":2221,"ociated":2222,"Ġtrá»Ŀi":2223,"ĠNáº¿u":2224,"ĠcÃ¡nh":2225,"Ġone":2226,"ĠGiang":2227,"self":2228,"Ġbom":2229,"ures":2230,"ox":2231,"Ġtrá»«":2232,"ĠphÃŃ":2233,"ĠÄĲáº¿":2234,"ĠquáºŃn":2235,"Ġgh":2236,"Ġthá»Ŀ":2237,"ĠgiÃ¡m":2238,"Ġbec":2239,"Ġphim":2240,"ĠÆ°Æ¡ng":2241,"Ġpháº¡m":2242,"ically":2243,"Ġthá»Ń":2244,"Ġchiá»ģu":2245,"á»įt":2246,"inal":2247,"Ġná»ĳi":2248,"Ġngáº¯n":2249,"Ġform":2250,"Sau":2251,"á»¡":2252,"ĠkhÃ´":2253,"Ġxáº¿p":2254,"Ġfloat":2255,"Ġtuy":2256,"Ġmuá»ĳi":2257,"iáº¿p":2258,"ward":2259,"Ġpain":2260,"Ġkhuáº©n":2261,"->":2262,"Ġpers":2263,"ke":2264,"Ġgan":2265,"ĠHÆ°Æ¡ng":2266,"ix":2267,"50":2268,"atory":2269,"ody":2270,"á»µ":2271,"ĠÃĤu":2272,"ĠthÃ´n":2273,"ĠĠĠĠĠĠĠĠĠĠĠĠčĊ":2274,"fter":2275,"ĠKiá»ģu":2276,"ĠphÃ¡n":2277,"Ġ50":2278,"Ġdáº¥u":2279,"Ġxung":2280,"Ġinv":2281,"ommend":2282,"ĠtrÃ¡nh":2283,"Ġ}":2284,"ĠTÃ¹y":2285,"eath":2286,"gen":2287,"ĠNghá»ĩ":2288,"Ġlá»¥c":2289,"Ġall":2290,"ĠchÃºa":2291,"ici":2292,"ement":2293,"Ġváº»":2294,"ĠÄĳáº£m":2295,"play":2296,"Ġpos":2297,"ĠtrÃł":2298,"Ġ13":2299,"Ġsign":2300,"Ġwhen":2301,"ĠHá»ĵng":2302,"ype":2303,"Ġrá»ĳi":2304,"Ġtai":2305,"art":2306,"ĠsÃłng":2307,"ĠkhÃ¡":2308,"Ġquay":2309,"á»Ľt":2310,"Ġnghá»ģ":2311,"Ġchá»©a":2312,"ple":2313,"ĠKim":2314,"ĠHuá»ĩ":2315,"ĠsÆ¡":2316,"Ġpol":2317,"ĠkhÄĥn":2318,"unction":2319,"ĠmÃ´n":2320,"Ġfai":2321,"áº§ng":2322,"Ġrecommend":2323,"ĠTháº¿":2324,"ormal":2325,"Ġmáº¹":2326,"Ġthyroid":2327,"Ġassociated":2328,"Ġup":2329,"Ġtuáº§n":2330,"Ġ202":2331,"Ġantib":2332,"ĠHai":2333,",...":2334,"Ġthiá»ĩn":2335,"Ġgr":2336,"Ġphá»Ł":2337,"style":2338,"lass":2339,"atch":2340,"á»ĩt":2341,"ĠBa":2342,"res":2343,"Ġháº¥p":2344,"Ġhá»įa":2345,"ok":2346,"ĠgiÃ¡p":2347,"ĠbÃ©o":2348,"Ġtáº¯c":2349,"Ã¢ng":2350,"ĠÄĳÃ¡p":2351,"17":2352,"Ġbáº¯c":2353,"Ġsub":2354,"Ġdue":2355,"Ġnhu":2356,"ĠngÄĥn":2357,"ĠvÆ°Æ¡ng":2358,"Ġtw":2359,"ines":2360,"neum":2361,"Ġsuá»ĳt":2362,"ĠThiÃªn":2363,"Ġâ":2364,"ĠÄĳÃªm":2365,"ults":2366,"Ãºn":2367,"Ġbá»©c":2368,"ĠTÃ¢n":2369,"ĠBan":2370,"ĠâĢ":2371,"ĠdÃ¢y":2372,"display":2373,"atic":2374,"ĠquÃ¡n":2375,"displaystyle":2376,"Qu":2377,"Ġtáº¡p":2378,"Æ°Æ¡i":2379,"ĠLup":2380,"ĠÄĲÆ°á»Ŀng":2381,"ĠcÆ°":2382,"ĠvÆ°á»£t":2383,"Ġmiá»ħn":2384,"Ġdá»©t":2385,"Ġáº":2386,"Ġcountr":2387,"ĠthuáºŃn":2388,"oph":2389,"ĠLÃło":2390,"á»Ľm":2391,"ness":2392,"Ġsuáº¥t":2393,"Ġtá»ĳc":2394,"Ġfact":2395,"ĠPháº¡m":2396,"thritis":2397,"ĠÄĳu":2398,"ĠnghÄ©":2399,"Ġinflamm":2400,"ĠvÃŃ":2401,"Ã£n":2402,"ob":2403,"ct":2404,"ĠtrÃ¹ng":2405,"ĠgiÃ¡c":2406,"ĠÄĳÃŃch":2407,"tics":2408,"ĠÄĳÃłm":2409,"Ġnhá»Ľ":2410,"Ġther":2411,"Ġtrá»Ļn":2412,"Ġthere":2413,"achine":2414,"other":2415,"yl":2416,"ĠGiao":2417,"lure":2418,"Ã³i":2419,"Ġtiá»ĩn":2420,"ĠSá»±":2421,"Ġhy":2422,"lob":2423,"ie":2424,"put":2425,"our":2426,"Ġtáº¥m":2427,"ween":2428,"Ġháº£i":2429,"ĠPhan":2430,"ium":2431,"Ġsong":2432,"ĠQuan":2433,"Ġbrain":2434,"ĠlÃ²":2435,"ams":2436,"Theo":2437,"ĠVÃ¢n":2438,"ĠnghiÃªm":2439,"ĠViá»ĩc":2440,"Ġmal":2441,"ĠLupin":2442,"Ġtháº³ng":2443,"ĠnÃ³ng":2444,"ĠÄĲiá»ĩn":2445,"Ġ1975":2446,"Ġunder":2447,"Ġvá»įng":2448,"ĠhÆ¡i":2449,"Ġmua":2450,"Ġxin":2451,"ĠTriá»ĩu":2452,"ĠkÃ¨m":2453,"Ġxo":2454,"Ġdes":2455,"son":2456,"aw":2457,"ĠrÃłng":2458,"Ġtre":2459,"Ġknown":2460,"Ġop":2461,"ĠlÆ°Æ¡ng":2462,"yc":2463,"cal":2464,"iet":2465,"ass":2466,"ĠAr":2467,"Ġdeath":2468,"ĠParis":2469,"ĠgÃ³p":2470,"Ġmáº¥y":2471,"Ġthey":2472,"der":2473,"Ġlead":2474,"Ġinter":2475,"ĠÆ°u":2476,"ID":2477,"Ġly":2478,"ĠUS":2479,"ĠMachine":2480,"bet":2481,"á»Ńi":2482,"Ġbacter":2483,"Ġpati":2484,"ĠĠĠĠĠĠĠĠĠ":2485,"Ġperson":2486,"Ġtáº§ng":2487,"sor":2488,"ough":2489,"lack":2490,"ĠÄĳiá»ĩu":2491,"ĠsÃ³ng":2492,"ĠÄĳen":2493,"atitis":2494,"Ġná»Ńa":2495,"Ġthá»«a":2496,"ĠbÃŃ":2497,"ulation":2498,"fig":2499,"Ġcháº¯c":2500,"ĠTham":2501,"ĠDu":2502,"Ġafter":2503,"ĠcÆ¡m":2504,"Ġlan":2505,"Ġreturn":2506,"Ġlong":2507,"Ġdr":2508,"ble":2509,"ran":2510,"Ġyears":2511,"Ġtháº£o":2512,"ail":2513,"Ġbáº¯n":2514,"ĠchÃ¹a":2515,"Ġchiáº¿u":2516,"Ġtime":2517,"Ġpop":2518,"Ġinto":2519,"ace":2520,"ĠLÃ¢m":2521,"Ġtruyá»ĩn":2522,"ĠTá»ķ":2523,"Ġkháº¯p":2524,"ĠPhong":2525,"Ġabout":2526,"Ġthro":2527,"ĠbÃ²":2528,"Ġplay":2529,"ĠBÃł":2530,"Ġthá»¥":2531,"Ġpha":2532,"ĠchÃ³ng":2533,"ĠcáºŃn":2534,"ĠMáº¡c":2535,"ĠGen":2536,"ĠxÆ°a":2537,"Ġlevels":2538,"ĠÄĳáº©y":2539,"«ng":2540,"Ġtá»ķn":2541,"ronic":2542,"Ġind":2543,"ĠWay":2544,"ized":2545,"vidence":2546,"ĠHá»į":2547,"ĠcÃ¢n":2548,"Ġkáº»":2549,"Ġgiáº£n":2550,"ĠLan":2551,"ĠtÃłu":2552,"ĠchÃºt":2553,"Ġkhiá»ĥn":2554,"Ġrá»«ng":2555,"Ġcá»¥c":2556,"Ġcháº·t":2557,"ital":2558,"Ġbetween":2559,"Ġsev":2560,"Ġincreased":2561,"ĠWayback":2562,"Ġvá»ı":2563,"Ġsá»Ľm":2564,"Ġngá»ĵi":2565,"Ġfailure":2566,"įc":2567,"14":2568,"ĠBáº£o":2569,"BÃ¡nh":2570,"ton":2571,"ĠtÃłn":2572,"197":2573,"Ġvacc":2574,"Ġsm":2575,"ĠpháºŃn":2576,"Ġpo":2577,"Ġrem":2578,"Ġfol":2579,"Ġgro":2580,"ĠcáºŃp":2581,"ĠthÄĥm":2582,"Ġláº«n":2583,"Ġchá»īnh":2584,"Ġlá»Ńa":2585,"Ġear":2586,"ĠGiÃ¡o":2587,"Ġphá»ĳi":2588,"Ġtá»¥i":2589,"Ġáº©m":2590,"eral":2591,"Ġhel":2592,"Ġnghi":2593,"ology":2594,"nam":2595,"Ã³t":2596,"wever":2597,"Ġnáº¯m":2598,"Ġonly":2599,"Ġthese":2600,"ĠbÃ©":2601,"ĠĠĠĠĠĠĠĠĠĠĠĠĠ":2602,"ĠchÃŃn":2603,"Ġbáº§u":2604,"ĠphÆ°á»Ŀng":2605,"ĠquÃª":2606,"ĠBiÃªn":2607,"Ġtan":2608,"ĠthÆ¡m":2609,"Ġcá»±":2610,"ĠhoÃ¡":2611,"wn":2612,"Ġbá»ķ":2613,"Ġkiáº¿m":2614,"ĠPhá»§":2615,"ions":2616,"))":2617,"á»·":2618,"Ġresp":2619,"model":2620,"Ġmáº«u":2621,"til":2622,"ĠÄĳÃ²i":2623,"ĠÄĲá»ĥ":2624,"ase":2625,"evice":2626,"ĠtÃŃn":2627,"Ġkim":2628,"30":2629,"are":2630,"omen":2631,"ust":2632,"iá»ĩng":2633,"Ġtes":2634,"Ġá»ķ":2635,"ĠBÃ¡t":2636,"kh":2637,"led":2638,"Ġquá»µ":2639,"emia":2640,"Ġfound":2641,"ĠÄĳÃłi":2642,"Ġlá»Ļ":2643,"ĠÄĳá»¡":2644,"ĠxÆ°Æ¡ng":2645,"ĠdÃły":2646,"ins":2647,"den":2648,"rid":2649,"ĠÄĳáº¹p":2650,"ian":2651,"els":2652,"Ġcáº§m":2653,"ĠthÃ´i":2654,"ĠÄĳá»£":2655,"Ġphá»©c":2656,"itamin":2657,"Ġty":2658,"Ġná»ķ":2659,"Æ°á»Ľp":2660,"Ġevidence":2661,"Ġkia":2662,"ĠtÃ¹y":2663,"ĠZ":2664,"Ġins":2665,"Ġhá»§y":2666,"Ġtwo":2667,"ĠxÃ´i":2668,"utri":2669,"Ġnumber":2670,"ĠCÆ¡":2671,"Ġreg":2672,"ĠlÃ¢y":2673,"Ġrang":2674,"ĠLam":2675,"Ġsá»£":2676,"Ġtype":2677,"read":2678,"Ġvá»ĳn":2679,"Ġnháº¹":2680,"Ġ25":2681,"ĠPháºŃt":2682,"ĠNew":2683,"onia":2684,"ility":2685,"Ġhealth":2686,"Ġdáº§u":2687,"its":2688,"type":2689,"ulti":2690,"rol":2691,"Ġu":2692,"Ġ24":2693,"11":2694,"ich":2695,"ĠÄĳá»įc":2696,"ĠHÃ³a":2697,"ĠNgá»įc":2698,"ational":2699,"az":2700,"ĠmÃłng":2701,"Ġdá»ĭ":2702,"Ġdiffer":2703,"ĠVT":2704,"ĠNhiá»ģu":2705,"yt":2706,"Ġkm":2707,"Ġthiá»ĩp":2708,"ĠHÆ°ng":2709,"ĠÄĲáº¿n":2710,"Ġláº½":2711,"ĠPhÃ²ng":2712,"ĠkÃŃnh":2713,"ĠnÃ©m":2714,"ĠbÃły":2715,"ms":2716,"ĠtháºŃn":2717,"ĠTáº¡i":2718,"ĠbÃ³ng":2719,"Ġtorch":2720,"Ġhá»ĵng":2721,"ĠThiá»ĩu":2722,"Ġsá»ĳt":2723,"olv":2724,"Ġsá»Ńa":2725,"icro":2726,"Ġtrai":2727,"Ġdep":2728,"Ġpneum":2729,"ĠTrÃłng":2730,"ickle":2731,"Ġ`":2732,"ĠthÆ°á»Łng":2733,"ĠngÅ©":2734,"Ġcha":2735,"Ġtráº¥n":2736,"Ġloss":2737,"Ġkhá»ıe":2738,"eck":2739,"Ġbody":2740,"ĠĠĠĠĠĠĠĠĠĠĠĠĠĠĠĠĠĠĠ":2741,"Ã©n":2742,"Ġsá»£i":2743,"á»¯u":2744,"be":2745,"Ġmening":2746,"yroidism":2747,"}}":2748,"Ġxáº¡":2749,"ĠII":2750,"ĠnÆ°á»Ľng":2751,"Ġproduc":2752,"ĠÄĳÆ°Æ¡ng":2753,"ĠTu":2754,"xy":2755,"Ġtruy":2756,"Ġgá»Ńi":2757,"ĠtÃ¡n":2758,"Ġliá»ģn":2759,"Ġdet":2760,"Ġbiá»ĩn":2761,"Ġhypoth":2762,"Ġ40":2763,"Nhá»¯ng":2764,"Ġsa":2765,"ĠsiÃªu":2766,"ĠtÃ¢y":2767,"Ġgiáº¥y":2768,"Viá»ĩt":2769,"ĠÄĳáº£ng":2770,"ĠVÃ¬":2771,"ĠBlack":2772,"Ġxu":2773,"Ġthiá»ĩt":2774,"ĠdÃłnh":2775,"Ġmiá»ĩng":2776,"ality":2777,"Ġimpro":2778,"gan":2779,"Ġcá»©ng":2780,"Ġusually":2781,"ied":2782,"Ġvui":2783,"Ġcai":2784,"ĠgÃ¡i":2785,"oáº¡i":2786,"Ġháº¡ng":2787,"15":2788,"Ġngang":2789,"ĠphÃ¬":2790,"ĠSn":2791,"ĠAs":2792,"ĠKá»¹":2793,"gs":2794,"ĠchÃ¡y":2795,"uce":2796,"ĠUnited":2797,"orn":2798,"Ġtrao":2799,"Ġacid":2800,"cular":2801,"Ãµi":2802,"Ġ<":2803,"NhÃł":2804,"cri":2805,"Ġduring":2806,"Ġngon":2807,"Ġgiá»įng":2808,"Ġhiá»ĥm":2809,"ĠÃ¡c":2810,"Ġur":2811,"Ġruá»Ļng":2812,"Ġnhá»Ŀ":2813,"Ġsevere":2814,"Ġmon":2815,"Ġngá»«ng":2816,"Ã¡u":2817,"com":2818,"Ġmai":2819,"ĠPhÆ°Æ¡ng":2820,"ĠÄĳáº¡n":2821,"Ġlif":2822,"ĠtrÃ¡ch":2823,"ency":2824,"Ġsáº¯p":2825,"Ġbuá»ķi":2826,"Ġmany":2827,"ND":2828,"ĠsÃºng":2829,"Ġtrá»¥":2830,"Ġits":2831,"Ġapp":2832,"Ġcá»ĳt":2833,"Ġtherapy":2834,"Ġtrá»ĳng":2835,"Ġgene":2836,"ĠÃģnh":2837,"Å©i":2838,"betes":2839,"ĠtÆ°Æ¡i":2840,"Ġshould":2841,"ĠHáº¡":2842,"land":2843,"Ġnáº¿p":2844,"emb":2845,"ĠxuyÃªn":2846,"Ġul":2847,"ohn":2848,"Ġgáº¯n":2849,"à¸":2850,"ĠĠĠĠĠĠĠĠĠĠĠĠĠĠčĊ":2851,"Ġháº¯n":2852,"Ġngá»«a":2853,"Ġdiagnosis":2854,"Ġend":2855,"Ġdiseases":2856,"form":2857,"Ġrequ":2858,"Ġappro":2859,"ĠdÆ°á»¡ng":2860,"ication":2861,"ĠKhoa":2862,"Ġluyá»ĩn":2863,"ities":2864,"Ġinfections":2865,"ĠThÃ´ng":2866,"Ġbá»ĳn":2867,"Ã£ng":2868,"Ġbáº¡c":2869,"oy":2870,"ĠchÃ¡u":2871,"oÃłn":2872,"Ġváº¡n":2873,"Æ°á»Ŀn":2874,"ĠMar":2875,"()":2876,"?\"":2877,"_{":2878,"Ġquang":2879,"á»¥p":2880,"ĠHá»¯u":2881,"ĠLáº¡t":2882,"Ġ60":2883,"Ġser":2884,"ĠTá»Ń":2885,"ĠThÆ°á»£ng":2886,"Ġsec":2887,"ĠkÃªu":2888,"ĠTÆ°":2889,"ĠSa":2890,"ĠDuy":2891,"ĠHá»įc":2892,"str":2893,"ĠtÃ¡ch":2894,"ĠchÃ¨o":2895,"ĠkhÃºc":2896,"Ġtráº£i":2897,"ĠBÃ¡nh":2898,"Ġgá»Ĺ":2899,"Ġkhá»Ľp":2900,"Ġpress":2901,"Ġage":2902,"log":2903,"Ġreduc":2904,"Ġbá»įn":2905,"itive":2906,"Ġprev":2907,"Ġcountries":2908,"meric":2909,"dia":2910,"udi":2911,"ĠÃŃch":2912,"Ġthuyá»ģn":2913,"Ġká»ĭch":2914,"Ġchá»§ng":2915,"luc":2916,"rit":2917,"Ġáº¤":2918,"ĠmÃºa":2919,"Ġcháº£y":2920,"Ġbas":2921,"ĠBáº±ng":2922,"Ġcaused":2923,"ĠthÆ°á»Ľc":2924,"ata":2925,"Ġindi":2926,"Ġcent":2927,"Ġmáº¡i":2928,"Ġhelp":2929,"Ġprogr":2930,"sp":2931,"ĠtháºŃm":2932,"ĠgÃ³i":2933,"ition":2934,"ĠcÃ¡n":2935,"Ġro":2936,"ĠthoÃ¡t":2937,"ĠbÃ¡t":2938,"Ġchronic":2939,"Ġfunction":2940,"utrition":2941,"oun":2942,"Ġsever":2943,"ĠngÆ°á»£c":2944,"ause":2945,"eps":2946,"Ġlik":2947,"ĠthÃ¹":2948,"Ġgáº¯ng":2949,"Ġcor":2950,"ĠtrÆ°Æ¡ng":2951,"ĠtÃ¹":2952,"Ġxá»©":2953,"CÃ³":2954,"Ġtum":2955,"ĠJohn":2956,"Ġthrough":2957,"ĠÄĳá»ĭch":2958,"ible":2959,"ĠtrÃ²n":2960,"Ġtáº§m":2961,"Ġsim":2962,"Ġincluding":2963,"ĠlÃ£o":2964,"ĠxuÃ¢n":2965,"Ġpresent":2966,"ĠÄĳá»ģn":2967,"Ġcanh":2968,"ĠTriá»ģu":2969,"Ġcauses":2970,"Ġjo":2971,"Ġob":2972,"ius":2973,"ĠLá»ĭch":2974,"lear":2975,"inical":2976,"ĠhoÃł":2977,"ee":2978,"ood":2979,"ĠthÃº":2980,"Ġnew":2981,"ization":2982,"Ġid":2983,"Ġaut":2984,"iasis":2985,"Ġmain":2986,"ĠmÆ°u":2987,"ĠChÃº":2988,"ĠlÃ¢n":2989,"sh":2990,"ĠchÃ¨":2991,"Ġdecreas":2992,"Ġpressure":2993,"âĢĿ":2994,"Ġá»§y":2995,"Vá»ģ":2996,"Ġlá»£n":2997,"Ġdinh":2998,"Ġtá»ı":2999,"Ġpneumonia":3000,"round":3001,"ck":3002,"Ġmod":3003,"ash":3004,"ĠÄĳÃ¡m":3005,"ĠbÃºn":3006,"earch":3007,"ney":3008,"ination":3009,"ĠÄĳá»©a":3010,"Ã¡y":3011,"ĠÃ©p":3012,"ĠTá»±":3013,"ĠhÃ¹ng":3014,"¦y":3015,"ĠNÃ´m":3016,"ĠÃ´":3017,"Ġchua":3018,"Ġcháº£":3019,"196":3020,"Ġsung":3021,"ĠLa":3022,"á»¥ng":3023,"hy":3024,"13":3025,"Ġvitamin":3026,"Ġ|":3027,"Ġrecommended":3028,"ĠTuyÃªn":3029,"imer":3030,"ĠÄĳÃºc":3031,"ĠChÃºa":3032,"Ġactiv":3033,"ĠchÃ³":3034,"Ġtá»Ļi":3035,"ĠKhu":3036,"rent":3037,"ock":3038,"Ġphys":3039,"Ġcancer":3040,"Ġ&":3041,"ĠthÃ¡c":3042,"ious":3043,"Ġtuyá»ĩt":3044,"Ġdáº¡y":3045,"Ġcáº¥m":3046,"ĠTÃ´i":3047,"ĠIS":3048,"Ġresult":3049,"Ġaffected":3050,"Ġneed":3051,"Ġcá»Ŀ":3052,"vidual":3053,"ade":3054,"ĠThuáºŃn":3055,"Ġfollow":3056,"ĠphiÃªn":3057,"ĠPhi":3058,"Ġrate":3059,"195":3060,"ĠSnape":3061,"Ġless":3062,"ĠkÃ©m":3063,"ĠdÆ°Æ¡ng":3064,"Ġhá»©":3065,"ĠÄĲÃłi":3066,"ĠLá»ħ":3067,"Ġsickle":3068,"ĠtrÃ´ng":3069,"ĠgÃł":3070,"Ġinflammation":3071,"ĠVÃµ":3072,"Ġflu":3073,"ral":3074,"Ġrá»Ŀi":3075,"ĠcÆ°á»Ŀi":3076,"aul":3077,"illion":3078,"Ġá»¦y":3079,"amet":3080,"ĠtrÄĥm":3081,"ĠHag":3082,"ĠÄĳiÃªu":3083,"ĠkhÃ¡i":3084,"ĠChÃºng":3085,"BN":3086,"Ġben":3087,"Ġimmune":3088,"set":3089,"Ġá»ĳng":3090,"Ġboth":3091,"Ġpsor":3092,"Ġvá»¯":3093,"ĠChu":3094,"Ġhypothyroidism":3095,"Ġthang":3096,"ĠMalays":3097,"Ġkhuyáº¿n":3098,"Ġworld":3099,"Ġeffective":3100,"Khi":3101,"á»§ng":3102,"á»¥i":3103,"Ġhad":3104,"num":3105,"ule":3106,"Ãºy":3107,"ĠStates":3108,"olver":3109,"Ġwhere":3110,"Ġhu":3111,"fer":3112,"Ġtáº£i":3113,"ĠtáºŃn":3114,"Ġchá»¯a":3115,"ĠThá»Ŀi":3116,"Ġlinh":3117,"Ġchá»ĵng":3118,"ĠAmeric":3119,"Ġá»ķn":3120,"ĠHagrid":3121,"ĠMiá»ģn":3122,"Ġlá»įc":3123,"ilep":3124,"32":3125,"Ġhá»įp":3126,"heimer":3127,"ake":3128,"outh":3129,"Ġtrá»ĵng":3130,"ascular":3131,"ĠNháº¡c":3132,"old":3133,"Ġdiabetes":3134,"por":3135,"Ġlam":3136,"Ġláº¡nh":3137,"iver":3138,"ĠngÃ¢m":3139,"ĠLao":3140,"Ġfre":3141,"25":3142,"ier":3143,"ĠPro":3144,"áº¹n":3145,"Ġcháº·n":3146,"ĠHÃłn":3147,"uff":3148,"ample":3149,"ley":3150,"ĠÄĳÃ¨n":3151,"Ġsin":3152,"Ġwomen":3153,"ndrom":3154,"ĠVÄ©nh":3155,"Ġthuáº¿":3156,"Ġwill":3157,"att":3158,"acqu":3159,"Ġdrug":3160,"Ġruá»Ļt":3161,"ĠphÃºt":3162,"ning":3163,"Ġpatients":3164,"Ġval":3165,"ĠÄĳá»ĳc":3166,"Ġkhá»ķ":3167,"Ġindividual":3168,"zheimer":3169,"ĠTá»ĳng":3170,"ĠVÃło":3171,"ococ":3172,"Ġmong":3173,"Ġinvolv":3174,"Ġsyndrom":3175,"ĠTam":3176,"áºŃc":3177,"ĠVá»Ľi":3178,"Ġbi":3179,"Ġref":3180,"ĠquÃ½":3181,"Ġacc":3182,"ĠchÃ©p":3183,"Ġmá»¡":3184,"NgÆ°á»Ŀi":3185,"ĠTiáº¿n":3186,"ietnam":3187,"ĠhÃło":3188,"Ġsug":3189,"Ġgluc":3190,"Ġáº©n":3191,"ĠVÃł":3192,"Ġhum":3193,"Ġoxy":3194,"ink":3195,"ĠUSD":3196,"Ġvá»£":3197,"ae":3198,"Ġgrad":3199,"Ġ23":3200,"Ġlog":3201,"Ġlui":3202,"Ġcháº©n":3203,"Ġbá»ĵ":3204,"á»Ńu":3205,"Tá»«":3206,"ĠbáºŃc":3207,"ĠDNA":3208,"ĠhÃºt":3209,"ĠmÆ°a":3210,"istory":3211,"ln":3212,"Ãªnh":3213,"Ġmá»ıng":3214,"Ġngá»§":3215,"ĠNS":3216,"ulin":3217,"Bá»ĩnh":3218,"ĠâĢľ":3219,"Ġnáº¡n":3220,"ĠVá»ģ":3221,"Ġlife":3222,"Ġloáº¡t":3223,"ĠFor":3224,"ft":3225,"iá»ħu":3226,"ĠchÆ°ng":3227,"ean":3228,"Ġcá»Ļt":3229,"á»£p":3230,"Ġsá»¯a":3231,"Ġdá»įc":3232,"cl":3233,"ening":3234,"Ġappear":3235,"Ġav":3236,"ĠMáº·c":3237,"ĠBÃŃ":3238,"ork":3239,"NS":3240,"ĠQuÃ½":3241,"ĠtrÃ¡ng":3242,"\")":3243,"ension":3244,"reak":3245,"Ġlang":3246,"ĠTrÃ£i":3247,"umb":3248,"ones":3249,"',":3250,"Ġkháº³ng":3251,"ĠThÃ¡nh":3252,"ĠISBN":3253,"Ġle":3254,"ĠchÄĥm":3255,"Ġgre":3256,"config":3257,"ĠHáºŃu":3258,"Ġmulti":3259,"Ġná»Ĺ":3260,"ire":3261,"Ġchá»£":3262,"Ġcháº¯n":3263,"ĠkhuÃ´n":3264,"__":3265,"entif":3266,"Ġninh":3267,"Ġ2015":3268,"199":3269,"Ron":3270,"erc":3271,"Táº¡i":3272,"Ġváº½":3273,"Ġngá»įt":3274,"bum":3275,"Ġnormal":3276,"Ġkháº¥u":3277,"Ġmet":3278,"Ġwhile":3279,"med":3280,"Ġchang":3281,"ĠkhÃ³a":3282,"ĠMáºŃu":3283,"lyc":3284,"ubl":3285,"ission":3286,"Ġsmall":3287,"tiáº¿ng":3288,"uro":3289,"ĠrÃ£i":3290,"Ġlep":3291,"Ġcondition":3292,"Ġfactors":3293,"ĠCÃ¡i":3294,"ĠQuy":3295,"á»Ĺng":3296,"ĠXem":3297,"Ġelse":3298,"Ġwell":3299,"ĠÄĳÄ©a":3300,"Ġlá»Ĺi":3301,"ĠÄĳuá»ķi":3302,"ĠĠĠĠĠĠĠĠĠĠĠĠĠĠĠĠčĊ":3303,"ThÃ¡ng":3304,"Ġfood":3305,"Ġclass":3306,"ural":3307,"Ġphá»ķi":3308,"ĠViá»ĩn":3309,"emic":3310,"Ġláº¯m":3311,"Ġxong":3312,"ift":3313,"Ġinh":3314,"ĠVÃŃ":3315,"Ġacute":3316,"ĠAlzheimer":3317,"Ġ)":3318,"Ġ28":3319,"Con":3320,"ĠÄĲÃło":3321,"ĠTrÆ°á»Ľc":3322,"ĠÄĲá»ĳi":3323,"Ġbá»Ŀ":3324,"ĠkhÃ¡m":3325,"Ġngá»Ŀ":3326,"ĠtiÃªm":3327,"ĠÄĳÃ³n":3328,"24":3329,"urs":3330,"á»©a":3331,"ĠSc":3332,"Ġseiz":3333,"ons":3334,"ĠÄĲá»Ļ":3335,"though":3336,"Ġ2010":3337,"Ġná»Ĺi":3338,"ĠThÄĥng":3339,"alled":3340,"ĠtÄ©nh":3341,"Ġfever":3342,"Ġthoáº¡i":3343,"ĠnÃ©t":3344,"Ġincrease":3345,"Ġbá»ģ":3346,"ĠCom":3347,"fric":3348,"Ġngá»¥c":3349,"ĠThá»§":3350,"oma":3351,"Ġcontr":3352,"ĠGiÃ¡m":3353,"Ġnháº£y":3354,"--------------------------------":3355,"ĠPet":3356,"ĠÄĲinh":3357,"Ġchá»ķi":3358,"ection":3359,"Ġvá»¯ng":3360,"ĠgiÃ³":3361,"ĠThÃ¡ng":3362,"...\"":3363,"ĠÄĳÄĥng":3364,"inc":3365,"oss":3366,"ĠnÃ³n":3367,"Ġmu":3368,"Ġnháº¯c":3369,"Ġ90":3370,"head":3371,"Ġvang":3372,"á»ŀ":3373,"á»¥y":3374,"Ġhigher":3375,"iod":3376,"ĠthÃ¡o":3377,"Ġnhá»©t":3378,"ark":3379,"KhÃ´ng":3380,"Ġtypically":3381,"ĠCá»ķ":3382,"Ġdisord":3383,"Ġ80":3384,"Ġ1968":3385,"Ġmedications":3386,"Ġantibio":3387,"Ġsyndrome":3388,"ound":3389,"Ġluá»Ļc":3390,"Ġdá»ĭp":3391,"tig":3392,"Ġpopulation":3393,"iral":3394,"line":3395,"Ġthiá»ĥu":3396,"Ġmáº½":3397,"ano":3398,"ĠThere":3399,"Ġpsoriasis":3400,"Ġ1960":3401,"Ġcam":3402,"ĠcÆ°á»Ľp":3403,"ĠLÆ°Æ¡ng":3404,"Ġprim":3405,"Ġ1954":3406,"Ġlai":3407,"ĠdÆ°":3408,"ĠsÃ³c":3409,"Ġtáº¡m":3410,"ĠtÃłng":3411,"Ġmillion":3412,"ĠThese":3413,"ris":3414,"Ġthree":3415,"Ġtrá»©ng":3416,"ĠlÃłnh":3417,"ĠtrÃ¹":3418,"ĠTrá»įng":3419,"vention":3420,"ĠmÅ©i":3421,"ĠphÃ³":3422,"ivers":3423,"(\"":3424,"uÃ´i":3425,"ĠtÃ¢n":3426,"quent":3427,"Ġspread":3428,"ĠLá»Ļc":3429,"Ngh":3430,"ĠhÃ´m":3431,"ĠmÃ¢y":3432,"Ġchá»ĳi":3433,"ĠBá»ĩnh":3434,"ĠGiá»":3435,"tal":3436,"ĠNhÆ°":3437,"ĠmÆ°á»Ŀi":3438,"60":3439,"lor":3440,"bed":3441,"Ġtáº¯t":3442,"ĠphÃº":3443,"ior":3444,"Ġgáº¥p":3445,"ĠmÃ£n":3446,"Ġká»ī":3447,"ĠMÃ£":3448,"ĠTrá»ĭ":3449,"ĠAd":3450,"ĠAfric":3451,"Ġpart":3452,"Ġiniti":3453,"ĠHuy":3454,"ĠcÃº":3455,"ered":3456,"ĠLá»£i":3457,"ĠEx":3458,"Ġsw":3459,"Ġ27":3460,"Ġoccurs":3461,"acquou":3462,"Ġsáº¯t":3463,"II":3464,"press":3465,"Ġany":3466,"Ġbeing":3467,"áº³n":3468,"dr":3469,"Ġmá»Ļ":3470,"ĠHowever":3471,"Ġ1945":3472,"Ġdiagnos":3473,"float":3474,"ĠtÃ´":3475,"Ġsáº¡ch":3476,"ury":3477,"Ġtiss":3478,"ĠÄĲÃ´":3479,"Ġá»Ľt":3480,"Ġte":3481,"ĠLáº¡c":3482,"!\"":3483,"ah":3484,"Ġvar":3485,"ĠvÃ¢y":3486,"%.":3487,"ĠNha":3488,"22":3489,"bs":3490,"xin":3491,"Ġáº¥n":3492,"Ġchar":3493,"Ġquen":3494,"Ġcompl":3495,"gnosis":3496,"Ġearly":3497,"ĠtÃ¡":3498,"Ġcalled":3499,"ĠTháº§y":3500,"Chiáº¿n":3501,"Ġdoes":3502,"Ġmeth":3503,"Ġrepor":3504,"ĠCá»Ńu":3505,"Ġarthritis":3506,"ĠmÃ¹i":3507,"ĠHá»ĩ":3508,"pre":3509,"Ġbel":3510,"ĠNhÆ¡n":3511,"Ġkhoáº£n":3512,"ĠcÆ¡n":3513,"fore":3514,"gi":3515,"Ġmá»Ļc":3516,"ĠdÃłng":3517,"ined":3518,"ĠThá»§y":3519,"Ġepilep":3520,"ĠÃ¡m":3521,"Ġsize":3522,"Ġproble":3523,"ict":3524,"jor":3525,"Ġchuyáº¿n":3526,"ĠgiÃł":3527,"Ġgiáº£ng":3528,"ensor":3529,"erv":3530,"orld":3531,"ĠKhÃ¡nh":3532,"Ġthoáº¯t":3533,"ĠMalaysia":3534,"Ġlung":3535,"ĠnÃłng":3536,"Ġimport":3537,"Ġterm":3538,"Ġvari":3539,"ĠSá»Ń":3540,"rect":3541,"ĠChÃ¢n":3542,"Ġimp":3543,"ode":3544,"ĠLy":3545,"emory":3546,"Ġadults":3547,"Ġháº³n":3548,"Ġhá»ģ":3549,"ges":3550,"ants":3551,"immun":3552,"Ġsoáº¡n":3553,"Ġ1972":3554,"Ġspecific":3555,"ĠTiá»ģn":3556,"ĠSir":3557,"ĠyÃªn":3558,"Ġrá»ĵng":3559,"Ġká»ĭp":3560,"ĠBÃªn":3561,"27":3562,"ĠtÃ²a":3563,"Ġchá»Ŀ":3564,"ĠHá»£p":3565,"Ġsurg":3566,"ĠâĪ":3567,"ax":3568,"ĠÄĲoÃłn":3569,"Ġcommonly":3570,"ĠÄĲáº·c":3571,"aining":3572,"Ġtá»Ŀ":3573,"Ġinfected":3574,"Ġcare":3575,"ĠthÃŃ":3576,"Ġagain":3577,"rac":3578,"Ġshow":3579,"oan":3580,"198":3581,"odies":3582,"Ġthao":3583,"Ġmin":3584,"ĠCuá»Ļc":3585,"ily":3586,"init":3587,"ĠCro":3588,"ĠThÃ¢n":3589,"ats":3590,"Ġelec":3591,"Ġcontrol":3592,"Ġdiet":3593,"Ġtransm":3594,"ina":3595,"Ġ26":3596,"Ġestim":3597,"Ġposs":3598,"ving":3599,"ĠsÃ¡nh":3600,"Ġ2019":3601,"Ġdescri":3602,"Lá»ħ":3603,"Ġmiáº¿ng":3604,"ĠTrÃªn":3605,"Ġ22":3606,"ĠDi":3607,"ĠAc":3608,"40":3609,"iron":3610,"Ġatt":3611,"de":3612,"ĠAD":3613,"ull":3614,"ĠlÆ°ng":3615,"Ġ1955":3616,"Ġcal":3617,"Ġtrá»ĳn":3618,"udies":3619,"CÆ¡":3620,"ĠgÃ³c":3621,"aban":3622,"Ġfluid":3623,"tron":3624,"Ġlá»±a":3625,"Ġhead":3626,"ĠrÆ¡i":3627,"ilar":3628,"Ġtuá»ĵng":3629,"ĠJacquou":3630,"ey":3631,"pr":3632,"Ġalbum":3633,"ĠbáºŃt":3634,"ĠKhmer":3635,"ĠÄĳá»£t":3636,"áº¥c":3637,"Ġglucose":3638,"ĠlÆ°á»£t":3639,"arge":3640,"min":3641,"ĠcÄĥng":3642,"ĠtrÄĥng":3643,"Trung":3644,"ĠbÃ¢y":3645,"Ġ1973":3646,"usion":3647,"oi":3648,"Ġdáº¡":3649,"Ġ193":3650,"âĢ¦":3651,"Ġcardi":3652,"Ġ,":3653,"Ġthen":3654,"ĠAz":3655,"Ġbenef":3656,"Ġmá»ĩnh":3657,"als":3658,"Ġmajor":3659,"ĠÄĳá»ĵn":3660,"ĠOther":3661,"ipp":3662,"urop":3663,"ĠnÃ¢ng":3664,"Hermione":3665,"Tháº§y":3666,"Ġexpos":3667,"Sá»±":3668,"Ġnghá»ī":3669,"Ġprint":3670,"Ġbia":3671,"Ġxáº¥u":3672,"Ġgener":3673,"Ġkid":3674,"upus":3675,"áº¹o":3676,"Ġpregn":3677,"ved":3678,"á»Ļm":3679,"Ġthá»£":3680,"ĠXÃ£":3681,"annels":3682,"ĠHiá»ĩn":3683,"iation":3684,"Ġcholer":3685,"rap":3686,"nhÆ°":3687,"ĠnháºŃt":3688,"ĠSw":3689,"ille":3690,"ĠcÃºng":3691,"ĠÄĳá»īnh":3692,"Ġchuá»Ĺi":3693,"Ġpartic":3694,"Ġtá»ī":3695,"ditions":3696,"Ġ\\":3697,"ĠTiá»ĥu":3698,"Ġ70":3699,"Ġidentif":3700,"Ġmeas":3701,"culosis":3702,"á»ĭa":3703,"ovascular":3704,"ential":3705,"Ġmeningitis":3706,"Ġcháº¡m":3707,"IDS":3708,"Ġ21":3709,"ĠIf":3710,"foy":3711,"Ġthá»ıa":3712,"ĠLinh":3713,"rosy":3714,"Ġ.\"":3715,"ĠSirius":3716,"ately":3717,"use":3718,"Ġdisc":3719,"oimmun":3720,"ĠngÃłn":3721,"ĠVietnam":3722,"Ġ2012":3723,"ĠtÆ°á»Ŀng":3724,"ĠbÃºt":3725,"Å©a":3726,"ĠkhÃŃch":3727,"ages":3728,"Ġtuber":3729,"Ġbang":3730,"Ġlá»ıng":3731,"ĠtrÃŃch":3732,"Ġbá»¯a":3733,"Ġmáº¡c":3734,"Ġgu":3735,"roke":3736,"pha":3737,"ution":3738,"Â°":3739,"Ġnguyá»ĩn":3740,"ĠrÃ£":3741,"ints":3742,"Ġprogress":3743,"over":3744,"ĠlÃ¡t":3745,"east":3746,"Ġdam":3747,"ĠMc":3748,"ety":3749,"ains":3750,"Ġstate":3751,"Ġsecond":3752,"Ġwee":3753,"Ġváº¿t":3754,"ither":3755,"que":3756,"Ġvaccine":3757,"Ġlower":3758,"An":3759,"ĠMai":3760,"Ġdeaths":3761,"Ġná»ģ":3762,"lex":3763,"Ġmedical":3764,"Ġamong":3765,"lay":3766,"ĠÄĲáº¡o":3767,"ings":3768,"ĠTháº¡ch":3769,"ertension":3770,"cent":3771,"Ġláº¡":3772,"Ġtri":3773,"####":3774,"Ġtest":3775,"ĠbÃ£i":3776,"á»§i":3777,"ĠCÃ´":3778,"Ġáº¤n":3779,"arr":3780,"teroid":3781,"NgoÃłi":3782,"nay":3783,"Ġchá»«ng":3784,"Ġwater":3785,"Ġprovid":3786,"tok":3787,"ĠCol":3788,"ĠTruyá»ģn":3789,"Ġnem":3790,"Ġpat":3791,"ows":3792,"ĠÄĳan":3793,"ĠvÃµ":3794,"á»įa":3795,"olf":3796,"á»³nh":3797,"ological":3798,"Ġkhá»§ng":3799,"idden":3800,"ences":3801,"Ġhorm":3802,"ĠTáº¥t":3803,"Ġthá»Ł":3804,"ĠÄĳá»©c":3805,"Ġreduce":3806,"ished":3807,"Ġla":3808,"Ġconditions":3809,"Ġclinical":3810,"Ġhuáº¥n":3811,"±ng":3812,"ĠhÃ´n":3813,"urrent":3814,"Ġpred":3815,"ĠbuÃ´n":3816,"ĠToÃłn":3817,"Ġprevent":3818,"ĠÄĳáº³ng":3819,"ired":3820,"Ġbáº¡ch":3821,"ĠnuÃ´i":3822,"Ġdevice":3823,"ĠHÃ¹ng":3824,"ĠÃł":3825,"urther":3826,"IA":3827,"Ġexper":3828,"ĠlÃłn":3829,"ĠSá»ĳ":3830,"ĠÄĳá»ĳt":3831,"Ġlupus":3832,"Ġrev":3833,"Ġbased":3834,"Ġuy":3835,"ĠhÃłi":3836,"Ġmm":3837,"add":3838,"Ġthá»ĭnh":3839,"dro":3840,"ps":3841,"Ġ%":3842,"ĠÎ":3843,"Ġviá»ħn":3844,"ept":3845,".,":3846,"Ġmáº¡n":3847,"Ġtráº§m":3848,"ĠSinh":3849,"Ġbecause":3850,"arm":3851,"ĠÄĲáº·ng":3852,"Ġdeveloping":3853,"eed":3854,"ful":3855,"á»īnh":3856,"ĠÄĳá»Ĺ":3857,"Ġbáº¡o":3858,"Ġmá»±c":3859,"ths":3860,"Ġadv":3861,"ancy":3862,"Ġsignific":3863,"ĠVTV":3864,"Ġindividuals":3865,"hen":3866,"Ġhá»ıa":3867,"Ġresults":3868,"ÃĶng":3869,"Ġlá»¥":3870,"Ġgroup":3871,"PT":3872,"iew":3873,"ames":3874,"ĠxÃło":3875,"ĠcháºŃm":3876,"ption":3877,"Ġlim":3878,"Ġareas":3879,"Ġdifferent":3880,"Ġeach":3881,"ĠnÃªu":3882,"Ġdá»ĩt":3883,"ĠBÃ¹i":3884,"Ġthua":3885,"Ġconsid":3886,"Ġindic":3887,"Ġsen":3888,"ĠdÆ°a":3889,"Ġvá»¡":3890,"02":3891,"ĠcÆ°á»Ľi":3892,"Ġven":3893,"Ġhiáº¿m":3894,"Ġtáº£ng":3895,"Ġláº»":3896,"Ġeffects":3897,"zy":3898,"Ġreported":3899,"Ġtiá»ģm":3900,"ĠÄĳÅ©a":3901,"Ġrock":3902,"Ġext":3903,"Ġ188":3904,"Ġagainst":3905,"Ġev":3906,"Ġz":3907,"Ġdá»«a":3908,"Ġconf":3909,"ĠBá»ĵ":3910,"ĠWorld":3911,"bert":3912,"ĠGe":3913,"ĠTÃ´n":3914,"Ġperiod":3915,"Ġbacteria":3916,"xim":3917,"ĠCáº§n":3918,"ucle":3919,"iev":3920,"á»Ļp":3921,"Ġ1989":3922,"ĠÄĲÃ³":3923,"ets":3924,"len":3925,"ĠdÃµi":3926,"Ġpot":3927,"Ġ2005":3928,"Ġcolitis":3929,"Ġsignificant":3930,"ĠMed":3931,"ĠSwift":3932,"Ġcáº·p":3933,"Ġmus":3934,"ĠsÃ´i":3935,"Ġhá»ĵn":3936,"Ġ1974":3937,"Ġ2007":3938,"ists":3939,"ĠMan":3940,"ĠThá»į":3941,"oimmune":3942,"ĠgiÃłu":3943,"78":3944,"Ġaround":3945,"Ġinhib":3946,"bon":3947,"Ġthai":3948,"Ġbáº¥y":3949,"Ġngáº¡i":3950,"ÄĲáº¡i":3951,"inu":3952,"erg":3953,"ĠCuá»ĳi":3954,"á»±u":3955,"ĠlÅ©":3956,"ĠlÄĥng":3957,"ĠDis":3958,"pu":3959,"Ġed":3960,"ĠTÃŃnh":3961,"time":3962,"ĠcÆ°Æ¡ng":3963,"Ġ2014":3964,"Ġ2016":3965,"LE":3966,"han":3967,"++":3968,"ease":3969,"Ġdevelopment":3970,"ĠkÃªnh":3971,"ole":3972,"ĠthÄĥng":3973,"Ġback":3974,"ics":3975,"Ġráº¯n":3976,"21":3977,"Ġbáº£ng":3978,"Ġcáº£ng":3979,"Ġtests":3980,"Ġcardiovascular":3981,"break":3982,"ĠgiÃ²":3983,"Ġthiá»ĩu":3984,"Ġsex":3985,"Ġwithout":3986,"Ġmicro":3987,"ĠMalfoy":3988,"ĠkÃ¬":3989,"ĠbÃ¨n":3990,"icult":3991,"ĠGr":3992,"Ġresearch":3993,"ature":3994,"90":3995,"CD":3996,"ĠÄĲáº¥t":3997,"ĠChiÃªm":3998,"45":3999,"tit":4000,"Ġweight":4001,"ĠMÃ´ng":4002,"uda":4003,"Ġinsulin":4004,"Ġcong":4005,"Ġbre":4006,"ĠLá»¥c":4007,"Ġthuáº«n":4008,"á»ıi":4009,"08":4010,"ĠvÄ©":4011,"Ġmá»«ng":4012,"ĠWar":4013,"Ġ1956":4014,"hay":4015,"má»Ļt":4016,"ĠNga":4017,"ĠIntern":4018,"Ġ1965":4019,"ky":4020,"ister":4021,"Ġulcer":4022,"Ġepilepsy":4023,"Ġsimilar":4024,"Ġcáº©m":4025,"ĠhÃ£y":4026,"ĠbÄĥng":4027,"ĠkiÃªn":4028,"Ġnano":4029,"Ġ2013":4030,"ubin":4031,"Ġelectron":4032,"loss":4033,"Ġcomb":4034,"normal":4035,"och":4036,"Ġchinh":4037,"Ġcá»±u":4038,"Ġháº§m":4039,"Ġeither":4040,"Ġcharacter":4041,"ĠgÆ°Æ¡ng":4042,"Tuy":4043,"Ġlay":4044,"ĠCÃ²n":4045,"Ġwithin":4046,"Ġstudies":4047,"Ġ2008":4048,"heum":4049,"iology":4050,"ĠÄĳá»±ng":4051,"ĠPol":4052,"ĠÄĳÃ¡o":4053,"Ġbá»ģn":4054,"Ġinj":4055,"Ġorgan":4056,"ika":4057,"Ġhá»Ĺn":4058,"ĠvÆ°á»Ŀn":4059,"Ġ2011":4060,"Ġtá»ĩ":4061,"chan":4062,"ĠBr":4063,"ĠDumb":4064,"indows":4065,"Ġtuberculosis":4066,"Ġláº¯ng":4067,"Ġhang":4068,"yph":4069,"ledore":4070,"Ġantibiotics":4071,"Ġtháº£":4072,"Ġdays":4073,"Ġhá»ķ":4074,"Ġháº¹p":4075,"23":4076,"omin":4077,"Ġvá»Ł":4078,"itch":4079,"ilir":4080,"Ġpoor":4081,"ĠDumbledore":4082,"ilirubin":4083,"CN":4084,"Ho":4085,"NG":4086,"SH":4087,"ĠThá»±c":4088,"Ġ2009":4089,"man":4090,"Ġche":4091,"ĠtrÃº":4092,"ĠSá»Ł":4093,"Ġusing":4094,"grad":4095,"po":4096,"Ġmá»¹":4097,"ĠnghÃ¨o":4098,"Ġcu":4099,"Ġ29":4100,"oglyc":4101,"Ġdamage":4102,"ĠxÆ°ng":4103,"Ġ1950":4104,"Ġve":4105,"for":4106,"Ã¨ve":4107,"ĠGenÃ¨ve":4108,"Ãģ":4109,"Ġaddition":4110,"ĠthÆ°á»£ng":4111,"Ġbá»ĳi":4112,"ĠmÃły":4113,"Ġphe":4114,"ĠThÆ°á»Ŀng":4115,"channels":4116,"arthritis":4117,"ĠÄĲá»Ļng":4118,"Ġ1979":4119,"cus":4120,"ĠÄĳe":4121,"Ġdá»įa":4122,"ĠCÅ©ng":4123,"ale":4124,"ared":4125,"plement":4126,"ailable":4127,"âĢĶ":4128,"ĠInd":4129,"Ġ2006":4130,"Ġcá»¡":4131,"Ġliver":4132,"ĠMá»Ĺi":4133,"ĠTrÃł":4134,"ameters":4135,"Ġpubl":4136,"Ġwork":4137,"Ġ2017":4138,"Ġ1990":4139,"Ġent":4140,"ĠÄĲá»ı":4141,"ĠsÃ¡u":4142,"ĠTrÆ°Æ¡ng":4143,"Ġgeneral":4144,"Ġhypertension":4145,"ially":4146,"Ġtháº£m":4147,"Ġhoáº£ng":4148,"cin":4149,"Ġváº£i":4150,"ĠmÃ£i":4151,"Ġvá»ĭnh":4152,"Ġ1980":4153,"Ġchanges":4154,"Ġchuá»ĳi":4155,"ertain":4156,"nutrition":4157,"Ġold":4158,"ĠPhÃ³":4159,"omas":4160,"Ġautoimmune":4161,"ience":4162,"Ġcháº½":4163,"ĠTáº¥n":4164,"ĠLá»±c":4165,"ociation":4166,"Ġhuman":4167,"ient":4168,"ves":4169,"ĠÄĳiá»ģn":4170,"ĠÄĳá»ĩ":4171,"ĠxÃŃ":4172,"ĠÄĳá»ĵi":4173,"device":4174,"Ġderm":4175,"ĠbÃ¡":4176,"ability":4177,"ĠNghá»ĭ":4178,"ES":4179,"ĠTrÆ°ng":4180,"ThÃłnh":4181,"ĠSÆ°":4182,"Ġoutbreak":4183,"Ġdai":4184,"rew":4185,"ĠKiáº¿n":4186,"Cuá»Ļc":4187,"kaban":4188,"Ġná»ĵi":4189,"ĠGiÃ¡p":4190,"Ġphysical":4191,"ĠAzkaban":4192,"Ġsing":4193,"ampl":4194,"iciency":4195,"Ġáº¥p":4196,"Ġsá»ķ":4197,"idd":4198,"steo":4199,"Ġtissue":4200,"Ġtam":4201,"ÄĲá»ĥ":4202,"Ġthough":4203,"Ġseveral":4204,"iversity":4205,"war":4206,"ĠbÃ³":4207,"Ġbuá»ĵn":4208,"Ġtypes":4209,"ĠCan":4210,"Báº¯c":4211,"ĠdÆ°á»£c":4212,"Ġrates":4213,"ĠVua":4214,"params":4215,"ĠTrÃ¡i":4216,"reg":4217,"Ġ1970":4218,"Ġhormone":4219,"kv":4220,"26":4221,"ViÃªm":4222,"ĠCáº£":4223,"ĠgiáºŃn":4224,"ĠEurop":4225,"QuÃ¢n":4226,"Ġngá»±a":4227,"iáº¿c":4228,"ĠLu":4229,"row":4230,"air":4231,"Ġseizures":4232,"Viá»ĩc":4233,"Ġshort":4234,"ĠAmerican":4235,"bers":4236,"Ġtia":4237,"ĠThá»ĳng":4238,"Ġhoang":4239,"ules":4240,"Ġbefore":4241,"Ġnáº¥m":4242,"Ġniá»ģm":4243,"ĠHÃłnh":4244,"ella":4245,"uct":4246,"Ġestimated":4247,"Ġhep":4248,"ĠbÃ´ng":4249,"ĠBÃ¡":4250,"Ġlá»Ĺ":4251,"Ġprocess":4252,"Ġleprosy":4253,"Ġsame":4254,"ĠduyÃªn":4255,"ĠLáº¡p":4256,"reat":4257,"ader":4258,"Ġhand":4259,"ĠSy":4260,"\"\"":4261,"eb":4262,"Ġill":4263,"Ġláº·p":4264,"ĠnghÃ¬n":4265,"Ġweb":4266,"Ġneuro":4267,"Ġsigns":4268,"Ġjoint":4269,"Ġdrugs":4270,"yphil":4271,"įt":4272,"the":4273,"Ġion":4274,"ĠTÃ´":4275,"ream":4276,"á»ıng":4277,"ĠvuÃ´ng":4278,"Ġgenetic":4279,"Ġngu":4280,"ĠPhÃ¢n":4281,"Ġchuá»Ļt":4282,"Ġcholera":4283,"AR":4284,"Ġváº¯c":4285,"Ġphu":4286,"acts":4287,"hoáº·c":4288,"khÃ´ng":4289,"Ġcomplications":4290,"viron":4291,"Ġnhuyá»ħn":4292,"onse":4293,"ĠSh":4294,"Ġ2020":4295,"Ġprot":4296,"28":4297,"bo":4298,"Ġfl":4299,"Ġ75":4300,"TV":4301,"ĠÄĳÃ¡i":4302,"Ġthem":4303,"ĠsÃ³t":4304,"rel":4305,"ĠDia":4306,"Ġlá»¥a":4307,"ĠCl":4308,"ĠThá»«a":4309,"ĠNgay":4310,"Ġ2018":4311,"ĠmÃłn":4312,"ĠAi":4313,"agement":4314,"ograp":4315,"ĠNghÄ©a":4316,"ĠÄĳá»£i":4317,"norm":4318,"rab":4319,"ĠLÃºc":4320,"Ġoff":4321,"Ġfollowing":4322,"VÃło":4323,"ĠNgoáº¡i":4324,"05":4325,"ĠChÃ¨o":4326,"Ġbáº£y":4327,"ĠCáº§u":4328,"Ġtreated":4329,"gin":4330,"inf":4331,"Ġláº§m":4332,"Ġfam":4333,"Ġtráº§n":4334,"ĠCD":4335,"iter":4336,"ĠChÄĥm":4337,"Ġtak":4338,"udy":4339,"Ġfrequent":4340,"ove":4341,"Ġset":4342,"Ġngá»įn":4343,"hea":4344,"Ġcáº£n":4345,"Ġhistory":4346,"Ġhowever":4347,"Ġsurgery":4348,"Ġweeks":4349,"Ġ>":4350,"ĠBáº¡ch":4351,"Ġorig":4352,"Ġstep":4353,"Ġresul":4354,"CP":4355,"Ġcá»ı":4356,"Ġglob":4357,"ene":4358,"ĠLai":4359,"Ġ2000":4360,"CO":4361,"Ġball":4362,"Ġnhá»ĭp":4363,"ike":4364,"steoarthritis":4365,"ĠnÃ¢u":4366,"ĠphÃºc":4367,"ĠgiÃ¡n":4368,"term":4369,"ĠcÃ¡t":4370,"ĠTÃ¡c":4371,"á»ĭt":4372,"Ġintr":4373,"ĠSome":4374,"Ġmá»Ŀi":4375,"uck":4376,"ĠAfrica":4377,"Ġinhibit":4378,"Ġget":4379,"ĠgiÆ°á»Ŀng":4380,"atal":4381,"ĠPre":4382,"ĠSÄ©":4383,"Ġngá»Ļt":4384,"ĠÃļ":4385,"otherapy":4386,"cum":4387,"Ġcua":4388,"ĠmÃ¨o":4389,"ĠTÆ°Æ¡ng":4390,"ĠtáºŃt":4391,"Ġ1978":4392,"Ġdefec":4393,"Ġproblems":4394,"Ġláº·ng":4395,"ĠHiáº¿n":4396,"ised":4397,"ĠÄĲa":4398,"Ġlikely":4399,"^{":4400,"Ġsá»¥p":4401,"ĠÄĳá»¥":4402,"Ġhosp":4403,"ĠKáº¿t":4404,"ights":4405,"ortality":4406,"Ġbacterial":4407,"ĠVTC":4408,"Ġdeterm":4409,"Ġtumors":4410,"ĠmÃ¡i":4411,"ĠkÃŃn":4412,"ched":4413,"ĠÄĲÄĥng":4414,"Ġgiam":4415,"ra":4416,"Ġbá»Ľt":4417,"Ġdem":4418,"Ġnháº¥n":4419,"Ġrun":4420,"ĠÄĲá»ĭa":4421,"oglob":4422,"Ġproduction":4423,"Ġlarge":4424,"ĠkhÃ´i":4425,"Ġ186":4426,"Ġ:":4427,"Ġráº½":4428,"ĠPháº§n":4429,"áº«m":4430,"Ġmonths":4431,"ĠGeor":4432,"Ġá»©c":4433,"ĠEn":4434,"Ġinitial":4435,"tá»©c":4436,"ĠCar":4437,"ĠNho":4438,"Ġ500":4439,"yphilis":4440,"500":4441,"Ġmáº·n":4442,"ternal":4443,"pecially":4444,"vironment":4445,"ues":4446,"ĠlÃºa":4447,"ĠdÃ¢ng":4448,"pid":4449,"ĠphÆ¡i":4450,"Ġimprove":4451,"VN":4452,"ĠbÃ¹ng":4453,"ĠChiÃªu":4454,"Ġlym":4455,"Ġresponse":4456,"Ġhospital":4457,"ĠCháº¿":4458,"GiÃ¡o":4459,"Ġdepend":4460,"Ġprimary":4461,"St":4462,"cÃ³":4463,"times":4464,"ĠZika":4465,"lad":4466,"Ġvá»Ļi":4467,"Æ°á»Ľt":4468,"ĠGry":4469,"ffind":4470,"Ġpolo":4471,"Ġkidney":4472,"ĠGryffind":4473,"CÃ´ng":4474,"ĠtÃ³c":4475,"Æ°á»¡i":4476,"vÃŃ":4477,"Ġ?":4478,"ĠtÃŃ":4479,"Ġchim":4480,"ĠNÆ°á»Ľc":4481,"%,":4482,"Ġsus":4483,"ĠhÃ´":4484,"ĠnhÃ¡nh":4485,"ĠĠĠĠĠĠĠĠĠĠĠĠĠĠĠĠĠ":4486,"Ġpoly":4487,"ount":4488,"ĠGryffindor":4489,"ĠÄĳáºŃm":4490,"ĠngÃ¢n":4491,"Ġxay":4492,"chn":4493,"ĠgiÃ£":4494,"ica":4495,"ĠKiá»ĥm":4496,"ĠWindows":4497,"TrÆ°á»Ľc":4498,"dim":4499,"Ġvery":4500,"ĠsÆ¡n":4501,"cop":4502,"ĠmÃ©t":4503,"oung":4504,"ĠbÃ¡ch":4505,"ĠNone":4506,"ĠgiÃ²n":4507,"ĠBÃŃnh":4508,"ĠĠĠĠĠĠĠĠĠĠĠĠĠĠĠĠĠĠčĊ":4509,"ĠYork":4510,"icient":4511,"52":4512,"ros":4513,"Ġxoay":4514,"ĠhÃł":4515,"tial":4516,"ĠHÃłng":4517,"ĠMáº¡ng":4518,"aund":4519,"Ġ31":4520,"Ġfactor":4521,"Ġhiá»ĥn":4522,"ĠCho":4523,"áº»o":4524,"ytes":4525,"ĠChi":4526,"ĠGo":4527,"Ġfour":4528,"Ġantibodies":4529,"Ġinflammatory":4530,"Ġmethod":4531,"Ġcm":4532,"Ġchá»¥c":4533,"Ġtotal":4534,"Ġcá»§ng":4535,"Ġfurther":4536,"olic":4537,"aging":4538,"Ġtuá»ĩ":4539,"NhÆ°ng":4540,"Ġáº¥m":4541,"Ġrá»Ńa":4542,"ĠloÃ©t":4543,"ĠUN":4544,"Vá»Ľi":4545,"Ġleast":4546,"Ġhem":4547,"ĠkÄ©":4548,"ema":4549,"Thá»Ŀi":4550,"hoid":4551,"Ġdeveloped":4552,"aundice":4553,"HO":4554,"Ġdel":4555,"Æ°á»Łi":4556,"Ġtesting":4557,"memory":4558,"Ġ...":4559,"Ġhe":4560,"ysis":4561,"Ġbecome":4562,"Ġrequire":4563,"da":4564,"ling":4565,"Ġviral":4566,"ĠdÃ¡ng":4567,"ĠTB":4568,"ĠGu":4569,"ĠGiai":4570,"Ġtumor":4571,"AT":4572,"Ġgrow":4573,"Ġ(\"":4574,"Ġtá»ĳn":4575,"kinson":4576,"ool":4577,"oks":4578,"Ġngá»£i":4579,"ĠPhil":4580,"ĠEng":4581,"ChÃŃnh":4582,"35":4583,"ĠtÃºi":4584,"Ġphá»ıng":4585,"enic":4586,"Ġfive":4587,"Ġabnormal":4588,"Ġtreatments":4589,"Ġsugges":4590,"ĠtÆ¡":4591,"Ġcertain":4592,"Ġtreo":4593,"Ġná»ĵng":4594,"Ġdao":4595,"Ġax":4596,"ĠHealth":4597,"ĠTháº§n":4598,"ĠSouth":4599,"iving":4600,"Ġrepl":4601,"Ġenzy":4602,"Ġconsidered":4603,"ĠcÃ£i":4604,"....":4605,"Ġalthough":4606,"Tráº§n":4607,"Ġcontact":4608,"01":4609,"ÄĲá»ĳi":4610,"ocial":4611,"Ġpreval":4612,"dom":4613,"orr":4614,"ogn":4615,"Ġhypoglyc":4616,"Ġparticular":4617,"Ġtháº¯t":4618,"29":4619,"la":4620,"ĠCÃ¡t":4621,"ateg":4622,"ĠOr":4623,"ĠTuá»ĵng":4624,"Ġhá»©ng":4625,"cell":4626,"ĠÆ¡n":4627,"ĠdÃ£":4628,"ĠdÆ°á»Ŀng":4629,"ĠPD":4630,"Ġ2004":4631,"ault":4632,"Ġavailable":4633,"ner":4634,"ĠTÃłi":4635,"inary":4636,"ĠÄĲÃłng":4637,"ĠÃĶ":4638,"ronch":4639,"Ġtung":4640,"Ġcáº¥t":4641,"Ġná»Ļp":4642,"ĠHy":4643,"ret":4644,"urg":4645,"ume":4646,"Ġdáº¡i":4647,"ĠquÃ¡t":4648,"Ġgiang":4649,"Ġstudy":4650,"proj":4651,"mm":4652,"ĠmÆ¡":4653,"Ġmortality":4654,"Ġmechan":4655,"Ġdifficult":4656,"Ġexposure":4657,"ĠmÃ¡t":4658,"Ġpháº«u":4659,"ĠVáº¡n":4660,"ator":4661,"Ġ300":4662,"Ġ1969":4663,"ĠLáº¡ng":4664,"ĠLÃ£o":4665,"icial":4666,"ĠChÆ°Æ¡ng":4667,"trans":4668,"iel":4669,"Ġsu":4670,"Ġdáº¹p":4671,"Ġpháº¿":4672,"CR":4673,"Ġbilirubin":4674,"ĠdÃ²":4675,"ĠTÄ©nh":4676,"ĠThiáº¿u":4677,"Ġexerc":4678,"sych":4679,"85":4680,"ĠngÃ³n":4681,"mean":4682,"Al":4683,"istance":4684,"Ġ2021":4685,"Ġå":4686,"ĠÆ°a":4687,"ĠÄĳáº¥y":4688,"Ġgáº¡ch":4689,"ĠÃĤm":4690,"')":4691,"ĠcáºŃu":4692,"titis":4693,"ĠKhÃª":4694,"Ġshown":4695,"Ġpatient":4696,"Ġpass":4697,"ĠÄĲá»ģ":4698,"nÄĥm":4699,"ĠrÃ¡n":4700,"ĠÄĲáº§u":4701,"ensive":4702,"ĠÃļc":4703,"no":4704,"rate":4705,"Ġtáº·ng":4706,"ĠThÆ°":4707,"Ġeff":4708,"NguyÃªn":4709,"Ġdirect":4710,"Ġgreater":4711,"37":4712,"Ġside":4713,"amine":4714,"heumat":4715,"ĠRA":4716,"ĠRes":4717,"įa":4718,"ĠTCN":4719,"ĠngÃ³":4720,"ĠBá»Ļi":4721,"ĠUniversity":4722,"ĠdÃ£y":4723,"ĠPot":4724,"lasma":4725,"Náº¿u":4726,"vers":4727,"Ġtarg":4728,"Ġchá»¥p":4729,"Ġdá»«ng":4730,"Ġtop":4731,"Ġeven":4732,"lying":4733,"Ġmedication":4734,"Ġenvironment":4735,"Ġactivity":4736,"Ġgenerally":4737,"Æ°á»£n":4738,"esis":4739,"eful":4740,"Ġáº£o":4741,"ĠchÃłng":4742,"ĠTiÃªu":4743,"app":4744,"ixon":4745,"Ġmusc":4746,"PM":4747,"Ġcá»ĳi":4748,"Ġsáº»":4749,"ĠtrÃłng":4750,"ĠrÄĥng":4751,"ĠRo":4752,"Ġexp":4753,"Ġpossible":4754,"Ġpanc":4755,"ĠNe":4756,"ĠNixon":4757,"ĠKhoáº£ng":4758,"Ġulcerative":4759,"torch":4760,"Ġcult":4761,"omy":4762,"ĠtÆ°á»Ľc":4763,"Ġháº¡nh":4764,"ĠLoan":4765,"Ġhoáº¡i":4766,"ĠNgÅ©":4767,"ĠDÃ¹":4768,"Ġforward":4769,"weight":4770,"till":4771,"Ġmáº£nh":4772,"ero":4773,"ĠxÃ³a":4774,"ember":4775,"Ġacts":4776,"illi":4777,"Ġjoints":4778,"Ġsince":4779,"ĠNSND":4780,"Ġmade":4781,"Ġsupport":4782,"Ġhydro":4783,"Ġláº¥n":4784,"lec":4785,"Ġrefer":4786,"Ġnec":4787,"Ġblock":4788,"ĠMcG":4789,"38":4790,"ĠlÆ°á»Ľi":4791,"ĠbÃ³c":4792,"ĠmÃ²n":4793,"ĠSÃ¡ch":4794,"Ġtrá»«u":4795,"ĠhÃ¨":4796,"Ġbá»įc":4797,"Ġná»Ł":4798,"ived":4799,"ĠthÃ¡p":4800,"ĠbÃ¹":4801,"izes":4802,"Ġaffects":4803,"Ġrange":4804,"li":4805,"ified":4806,"dÃ¢n":4807,"ĠlÃ´ng":4808,"Ġmild":4809,"Ġnho":4810,"ĠTreatment":4811,"ĠSLE":4812,"ĠPhÆ°á»Ľc":4813,"ĠPhÃ¡t":4814,"Ġcentury":4815,"ococcal":4816,"75":4817,"rim":4818,"iac":4819,"idel":4820,"prev":4821,"Ġbá»¥ng":4822,"Ġquyá»ĥn":4823,"Ġleading":4824,"Ġlike":4825,"dp":4826,"Æ¯":4827,"ĠÄĳÃł":4828,"ĠCIA":4829,"cers":4830,"{\\":4831,"ĠbÃ¨":4832,"Ġactive":4833,"39":4834,"mas":4835,"Ġcháº¥n":4836,"ĠLang":4837,"ĠghÃ©p":4838,"ulf":4839,"Ġespecially":4840,"batch":4841,"dec":4842,"ĠCa":4843,"ger":4844,"Ġmil":4845,"Ġallow":4846,"Ġonset":4847,"ĠOn":4848,"Ġhá»©a":4849,"Ġpregnancy":4850,"AS":4851,"like":4852,"ieved":4853,"07":4854,"ĠsÆ°u":4855,"Ġepid":4856,"AD":4857,"âĢĿ.":4858,"hn":4859,"Ġláº§u":4860,"Ġbir":4861,"Ġbronch":4862,"ĠTÃªn":4863,"ĠÄĲá»Ĺ":4864,"ices":4865,"Ġiod":4866,"Ġillness":4867,"Ġcap":4868,"Ġfib":4869,"eville":4870,"Ġ45":4871,"Ġsyn":4872,"ĠÄĳÃ¡y":4873,"ification":4874,"ĠCÃ¹ng":4875,"ĠHáº§u":4876,"ĠxÆ¡":4877,"ĠMÃ¬nh":4878,"thÃ¡ng":4879,"ĠNháº¥t":4880,"ÄĲáº¿n":4881,"ĠHÃłm":4882,"ĠthoÃ¡i":4883,"ĠchiÃªn":4884,"Ġanim":4885,"olution":4886,"ÄĲÃ¢y":4887,"Ġstroke":4888,"ty":4889,"ĠPress":4890,"Ġhá»Ļp":4891,"Ġpresence":4892,"Ġdisorders":4893,"Ġnucle":4894,"ĠdÃ¡m":4895,"ĠTÃ¬nh":4896,"Ġpháº¡t":4897,"ĠGal":4898,"//":4899,"ĠmiÃªu":4900,"Ġquality":4901,"ĠXiÃªm":4902,"oglobin":4903,"Ġngá»±":4904,"Ġosteoarthritis":4905,"Ġ35":4906,"ĠJohnson":4907,"Ġtransmission":4908,"pir":4909,"Ġtiá»ĩm":4910,"ngth":4911,"ĠthÃªu":4912,"Ġnáº¯ng":4913,"ĠquÃł":4914,"ĠQuyáº¿t":4915,"áº«y":4916,"ĠÃĿ":4917,"ĠÆ¡i":4918,"Ġquáº£ng":4919,"ĠTháº¥t":4920,"ained":4921,"ÄĲND":4922,"Ġrelated":4923,"ĠmÃ¢u":4924,"ĠLe":4925,"ada":4926,"Ġimportant":4927,"ĠkhuyÃªn":4928,"Ġtá»įa":4929,"Ġjaundice":4930,"ĠmÃª":4931,"ĠHÃ¬nh":4932,"ĠAIDS":4933,"Ġexample":4934,"\":":4935,"ĠPhÃŃa":4936,"ĠIB":4937,"Nhiá»ģu":4938,"Ġtimes":4939,"Ġliá»ģu":4940,"trong":4941,"math":4942,"Ġir":4943,"Ġ?\"":4944,"Ġtreat":4945,"Ġpath":4946,"onag":4947,"tib":4948,"Ġ\"\"\"":4949,"Ġmalnutrition":4950,"Ġseverity":4951,"Ġcháº£o":4952,"Ġngá»įc":4953,"ĠdÃłn":4954,"Ġkháº©n":4955,"Ġyoung":4956,"Ġkhoai":4957,"hile":4958,"Ġincid":4959,"Ġoxygen":4960,"Ġnhá»ĭ":4961,"Ġráº£i":4962,"Ġgiáº¥u":4963,"ĠtuÃ¢n":4964,"Ġ1946":4965,"Giá»":4966,"Ġmuc":4967,"Ġtract":4968,"ĠTSH":4969,"Ġ1971":4970,"Ġ1964":4971,"Ġtyphoid":4972,"Ġ2023":4973,"onagall":4974,"Ġháº£":4975,"ides":4976,"ĠHoÃłi":4977,"Ġ189":4978,"ovirus":4979,"09":4980,"fil":4981,"Ġbá»Ĺng":4982,"Ġ2022":4983,"Ġchanh":4984,"ĠEd":4985,"Má»¹":4986,"Ġgiáº·c":4987,"ĠNghi":4988,"Check":4989,"Ġprintf":4990,"ĠMá»¥c":4991,"ĠDe":4992,"Ġcomple":4993,"Ġreview":4994,"spec":4995,"Ġtáº§n":4996,"tious":4997,"ĠgiáºŃt":4998,"Ġgiá»ıi":4999,"idual":5000,"Ġsingle":5001,"04":5002,"do":5003,"ĠquÃ©t":5004,"ustr":5005,"thers":5006,"step":5007,"Ġperform":5008,"Ġreduced":5009,"LÃ½":5010,"def":5011,"Ġdys":5012,"ĠTá»ĳ":5013,"ĠAI":5014,"Ġcountry":5015,"Ġdiagnosed":5016,"ÄĲNDVN":5017,"ET":5018,"uk":5019,"Ġtáº¿t":5020,"ĠMicro":5021,"Ġtháº¡ch":5022,"Ġlin":5023,"ĠTÆ°á»Ŀng":5024,"Ġxáº©m":5025,"ental":5026,"ensors":5027,"ival":5028,"Ġcompared":5029,"OR":5030,"ring":5031,"Ġmáº£ng":5032,"Ġphot":5033,"enn":5034,"args":5035,"Ġvis":5036,"Ġlack":5037,"Ġmake":5038,"very":5039,"Ġdescribed":5040,"Ġkg":5041,"eration":5042,"ĠThÆ°Æ¡ng":5043,"Ġoral":5044,"Ġcase":5045,"VÄĥn":5046,"Ġbáº¿p":5047,"cont":5048,"Ġlá»ĵ":5049,"ĠtrÃłn":5050,"ĠÄĲÃ´n":5051,"start":5052,"ording":5053,"ĠGeorge":5054,"Do":5055,"ta":5056,"Ġduyá»ĩt":5057,"Ġngáº«u":5058,"Ġinput":5059,"Ġfew":5060,"odule":5061,"Ġrece":5062,"Ġdecreased":5063,"iot":5064,"lock":5065,"trib":5066,"Hai":5067,"ĠÂ°":5068,"Ġdá»Ļi":5069,"aus":5070,"Ġmáº§m":5071,"Ġsan":5072,"ĠViÃªn":5073,"Ġxá»©ng":5074,"ters":5075,"ycl":5076,"ximately":5077,"Há»ĩ":5078,"bda":5079,"ĠÆ°á»Ľp":5080,"Ġlá»ĵng":5081,"Ġchest":5082,"Ġstill":5083,"astr":5084,"ĠQÄĲNDVN":5085,"Ġradi":5086,"pected":5087,"shape":5088,"Ġtháº§m":5089,"ĠGiÃªng":5090,"Ġorder":5091,"eph":5092,"Ġsteps":5093,"Ġmean":5094,"06":5095,"ĠquÃªn":5096,"Ġgiven":5097,"ĠThÆ¡":5098,"ĠThá»ĥ":5099,"roph":5100,"Ġbá»Ļi":5101,"Ġkáº¹o":5102,"chá»¯":5103,"hoáº£ng":5104,"Ġ178":5105,"Ġbeta":5106,"Ġaffect":5107,"py":5108,"ĠÄĳiÃªn":5109,"Ġgland":5110,"ĠDPM":5111,"Ġcour":5112,"Ġparams":5113,"Ġnoise":5114,"ĠMcGonagall":5115,"Ġmark":5116,"ont":5117,"Ġtá»ıi":5118,"Ġconfig":5119,"Ġbias":5120,"ements":5121,"Ġthuáº§n":5122,"ĠnhÄ©":5123,"Ġfind":5124,"Ġ1976":5125,"TÃŃnh":5126,"ding":5127,"Ġest":5128,"Ġcris":5129,"Ġpul":5130,"ĠCam":5131,"ĠVinh":5132,"ĠBÃłi":5133,"ĠLÃ£":5134,"There":5135,"phther":5136,"Ġsaf":5137,"Ġmechanism":5138,"ĠthÃ¡nh":5139,"Ġkhá»ķng":5140,"roup":5141,"data":5142,"fn":5143,"Ġá»ĳc":5144,"Ġtha":5145,"ĠbÃ¬":5146,"ĠngÆ°á»¡ng":5147,"era":5148,"ĠThÆ°á»Łng":5149,"Ġcarri":5150,"Ġconfir":5151,"03":5152,"Ġtáº£n":5153,"ĠAS":5154,"Ġinflu":5155,"Ġtháº£i":5156,"Ġgolf":5157,"ĠMÆ°á»Ŀng":5158,"Ġfil":5159,"estinal":5160,"Ġdeficiency":5161,"77":5162,"ĠÄĳiá»ĩp":5163,"ĠngáºŃp":5164,"roduc":5165,"loc":5166,"Ġcá»ĳng":5167,"Ġlast":5168,"path":5169,"ĠThá»ķ":5170,"ĠThiáº¿t":5171,"Ġeval":5172,"Ġsometimes":5173,"':":5174,"ĠTá»Ľi":5175,"alse":5176,"Ġcolon":5177,"Ġbreath":5178,"Ġlymph":5179,"Ġmg":5180,"Ġmy":5181,"Ġkiá»ĩt":5182,"ĠDung":5183,"Ġstat":5184,"RI":5185,"ĠÏ":5186,"Ġtem":5187,"Ġcir":5188,"Ġgá»įn":5189,"onesia":5190,"36":5191,"class":5192,"ĠThey":5193,"ameter":5194,"Ġcontrib":5195,"Ġsyphilis":5196,"ĠTá»¥i":5197,"ĠSch":5198,"ste":5199,"Ġ1963":5200,"Ġcontinu":5201,"heumatoid":5202,"Nam":5203,"ces":5204,"ĠsÃłn":5205,"Ġhá»ıng":5206,"medi":5207,"Ġclear":5208,"Ġleo":5209,"Ġháº±ng":5210,"ĠXuyÃªn":5211,"ĠâĪĴ":5212,"Danh":5213,"`.":5214,"Ġtháº©m":5215,"Ġlink":5216,"ĠJames":5217,"Ġváº¹n":5218,"Ġsens":5219,"Ġtrial":5220,"Ġcausing":5221,"Quan":5222,"Ġdisorder":5223,"++)":5224,"TÃ´i":5225,"Ġlas":5226,"ĠGPT":5227,"Ġcre":5228,"ales":5229,"max":5230,"layers":5231,"Ġgai":5232,"aria":5233,"ĠDáº¡ng":5234,"stream":5235,"Ġcá»¥m":5236,"Ġnguá»Ļi":5237,"LÃª":5238,"way":5239,"Ġmak":5240,"Ġchem":5241,"Ġtráº¡i":5242,"alpha":5243,"ĠSo":5244,"Ġsupplement":5245,"Ġrole":5246,"Ġdermatitis":5247,"ĠDiagnosis":5248,"Ġhypoglycemia":5249,"48":5250,"ĠRNA":5251,"eft":5252,"tle":5253,"Ġmouth":5254,"ĠIndonesia":5255,"Ġenc":5256,"áº¿m":5257,"Ġanother":5258,"hip":5259,"elling":5260,"Ġmultiple":5261,"ĠmÃ¹":5262,"Ġxá»ī":5263,"ĠBÃ¡c":5264,"Ġwhe":5265,"ĠIs":5266,"Ġ36":5267,"ereb":5268,"Ġforms":5269,"ĠCá»¥c":5270,"tide":5271,"ĠHog":5272,"izer":5273,"Ġcay":5274,"Ġhidden":5275,"Ġtriá»ĩt":5276,"Ġngá»Ļ":5277,"ĠCá»¥":5278,"ĠLoáº¡i":5279,"ĠKÃŃnh":5280,"eckpo":5281,"ococcus":5282,"100":5283,"Ġcurrent":5284,"Ġtok":5285,"ĠAp":5286,"warts":5287,"CT":5288,"ĠÄĳáº¯p":5289,"ĠvÃ´i":5290,"ĠÄĳá»Ľi":5291,"udge":5292,"Ġsal":5293,"Ġnhá»ĵi":5294,"Ġfree":5295,"ective":5296,"Ġelev":5297,"Ġrá»ĩt":5298,"ĠInternet":5299,"].":5300,"ĠnhiÃªu":5301,"Ġdecrease":5302,"ĠHogwarts":5303,"ĠhÆ°":5304,"TrÆ°á»Ŀng":5305,"Ġincidence":5306,"phtheria":5307,"ĠhÃ£ng":5308,"Ġmemb":5309,"ĠchÃ©n":5310,"Ġsk":5311,"Ġlá»ĩch":5312,"Ġshape":5313,"wide":5314,"ÃĶ":5315,"ĠcáºŃy":5316,"ĠNor":5317,"ĠxÃ¡":5318,"ĠPhÃ¹":5319,"Ġdist":5320,"Ġcould":5321,"ments":5322,"phal":5323,"soft":5324,"Ġunderlying":5325,"70":5326,"rec":5327,"á»Ľn":5328,"Ġ65":5329,"eof":5330,"HÃł":5331,"Ġmá»¥":5332,"Ġkhung":5333,"Ġrash":5334,"ĠVáºŃy":5335,"ĠTrÃŃ":5336,"Ġasser":5337,"ĠFudge":5338,"Ġargs":5339,"Ġsinus":5340,"Ġmá»©t":5341,"ĠxÃ³m":5342,"Ġmá»ıi":5343,"Ġ54":5344,"Ġstar":5345,"ylo":5346,"ĠTá»Ļ":5347,"ĠCÃ¢u":5348,"ĠHen":5349,"Ngay":5350,"Ġseen":5351,"AN":5352,"];":5353,"cuda":5354,"ying":5355,"ĠdÃ¢u":5356,"Ġdata":5357,"Ġvá»ĭt":5358,"ĠPhá»¥":5359,"áº±n":5360,"uted":5361,"iting":5362,"ĠFr":5363,"Ġact":5364,"monary":5365,"Ġcortic":5366,"Ġmá»ĩt":5367,"ĠHÃ£y":5368,"unk":5369,"Ġcá»ķng":5370,"Ġvinh":5371,"Ġmiáº¿u":5372,"Ġprob":5373,"ocab":5374,"%)":5375,"Ġer":5376,"Ġong":5377,"Ġtiá»ĩc":5378,"Ġlip":5379,"Ġmust":5380,"ĠdÅ©ng":5381,"Ġtá»ıa":5382,"Æ°á»Ľu":5383,"ĠDá»ĭch":5384,"ĠIC":5385,"ĠtÃŃm":5386,"Ġbirth":5387,"CÅ©ng":5388,"Ġclu":5389,"Ġnow":5390,"iá»ģng":5391,"ĠThÃºc":5392,"Ġhá»įng":5393,"Ġmá»ı":5394,"âĢĬ":5395,"Ġarter":5396,"Ġpositive":5397,"Ġbenefit":5398,"Ġprevalence":5399,"Ġvect":5400,"Ġlater":5401,"Ġhis":5402,"ĠCáºŃp":5403,"alysis":5404,"ĠÄĲá»Ļt":5405,"ĠAt":5406,"Ġeffect":5407,"ield":5408,"76":5409,"Ġmá»ĳc":5410,"Ġtrá»«ng":5411,"onal":5412,"ĠCáº£nh":5413,"ĠMÃ´":5414,"ird":5415,"ÄĲiá»ģu":5416,"79":5417,"Sinh":5418,"date":5419,"Ġtend":5420,"ngue":5421,"ĠÄĳáºŃp":5422,"ĠHá»ĵi":5423,"ĠSing":5424,"ĠXuáº¥t":5425,"Ġfrequently":5426,"ĠtÃ¡m":5427,"Ġngáº§m":5428,"ĠÄĲá»Ļc":5429,"ĠThá»©":5430,"ĠĠĠĠĠĠĠĠĠĠĠĠĠĠĠĠĠĠĠĠĠĠĠ":5431,"ĠKhÃºc":5432,"cep":5433,"ĠWeas":5434,"Ġcá»ĳm":5435,"Ġrecept":5436,"Ġincreases":5437,"Ġgoats":5438,"ĠÄĳuÃ´i":5439,"Ġpotential":5440,"ladder":5441,"Ġexercise":5442,"ĠthÃ¡ch":5443,"ĠsÃ¡p":5444,"ĠngÃ´":5445,"ĠHistory":5446,"ĠTháº¯ng":5447,"Ġarea":5448,"ĠCai":5449,"ĠCÃ´n":5450,"ĠÄĳÃ£i":5451,"state":5452,"ĠIndia":5453,"Ġhaem":5454,"Ġurine":5455,"1954":5456,"Ġráº¯c":5457,"Ġráº¡n":5458,"ĠLÃłm":5459,"Ġhours":5460,"TrÃªn":5461,"Ġhyper":5462,"Ġmax":5463,"ĠCanada":5464,"(&":5465,"Ġren":5466,"Ã¹m":5467,"ased":5468,"ĠWeasley":5469,"34":5470,"UL":5471,"],":5472,"ĠbÃ£o":5473,"Ġuntil":5474,"Ġ+=":5475,"\");":5476,"((":5477,"Cho":5478,"Ġcy":5479,"Ġtrá»¥c":5480,"ĠBÃ¡ch":5481,"ĠTrang":5482,"ĠAb":5483,"itic":5484,"Ġhaving":5485,"ritish":5486,"rane":5487,"PS":5488,"UT":5489,"from":5490,"ĠkhÃŃa":5491,"Ġrout":5492,"abor":5493,"Ġ978":5494,"arily":5495,"Ġexperience":5496,"illiam":5497,"%),":5498,"Mal":5499,"VTV":5500,"ru":5501,"Ġváº¯ng":5502,"ĠbÃ¨o":5503,"Ġdáº»o":5504,"osteroid":5505,"ession":5506,"ativ":5507,"ather":5508,"Ġspecies":5509,"hanks":5510,"ESCO":5511,"okshanks":5512,"Ġmuscle":5513,"Ġassert":5514,"Ġher":5515,"Ġnhi":5516,"istr":5517,"active":5518,"Ġsurv":5519,"àº":5520,"Ġleft":5521,"Ġbá»¥i":5522,"ĠkhÃ³c":5523,"erate":5524,"Ġcommun":5525,"ĠcÃºm":5526,"Ġothers":5527,"ĠLÄ©nh":5528,"Ġequ":5529,"Ġcourse":5530,"BÃł":5531,"Ġvess":5532,"Ġnung":5533,"ette":5534,"Ġevery":5535,"eryth":5536,"ĠfloatX":5537,"beak":5538,"----------------------------------------------------------------":5539,"uckbeak":5540,"ĠNo":5541,"enz":5542,"ĠMa":5543,"thÆ°á»Ŀng":5544,"Ġtá»¥y":5545,"Ġgover":5546,"ĠArch":5547,"ĠPhilipp":5548,"Hg":5549,"stit":5550,"Ġamin":5551,"ĠrÆ°á»Ľc":5552,"ĠHiá»ĩu":5553,"ĠXÆ°Æ¡ng":5554,"ĠAssociation":5555,"Nghá»ĩ":5556,"ĠtÃºc":5557,"omic":5558,"ĠWood":5559,"Ġabs":5560,"1975":5561,"AM":5562,"TT":5563,"rt":5564,"Ġles":5565,"ĠlÃ¡ch":5566,"Ġkhiáº¿p":5567,"ĠCO":5568,"istic":5569,"ross":5570,"ĠÄĳÃ³i":5571,"ĠAsia":5572,"Ġinvolves":5573,"inflamm":5574,"idelines":5575,"Ġbronchitis":5576,"ique":5577,"ĠcÃłnh":5578,"ĠmÄĥng":5579,"ances":5580,"Ġreplac":5581,"Ġmat":5582,"ĠTia":5583,"ĠKing":5584,"Ġ2001":5585,"ower":5586,"Ġcalc":5587,"ford":5588,"rite":5589,"Ġcr":5590,"ĠtrÃ´i":5591,"ĠNÃ´ng":5592,"Ġhá»¥":5593,"ĠPhá»¥c":5594,"Ġstage":5595,"ufficient":5596,"ĠPotter":5597,"pe":5598,"tá»«":5599,"Ġvers":5600,"ĠbÄĥm":5601,"Ġtriáº¿t":5602,"ĠnhÆ°á»£ng":5603,"ĠTH":5604,"ĠMiáº¿u":5605,"inger":5606,"Ġcarbon":5607,"Ġcarcin":5608,"Ġneut":5609,"Ġsystemic":5610,"Ġpancre":5611,"ĠbÆ°á»Łi":5612,"ĠchÃło":5613,"Ġsocial":5614,"ways":5615,"ĠCal":5616,"ores":5617,"icine":5618,"ĠDiá»ĩu":5619,"illin":5620,"Ġremov":5621,"ĠUNESCO":5622,"ĠmÃ³ng":5623,"Ġgá»£i":5624,"Ġrung":5625,"Ġ55":5626,"off":5627,"sizes":5628,"ĠtÃºy":5629,"Ġisol":5630,"ops":5631,"ĠXÃ¡":5632,"aged":5633,"Ġ2003":5634,"aryng":5635,"Ġadd":5636,"ĠMalay":5637,"decay":5638,"Ġwhether":5639,"eg":5640,"ĠnÃ©n":5641,"Ġgá»ĳi":5642,"ĠTÆ°á»Ľng":5643,"ĠkhÃ©o":5644,"ĠPeople":5645,"Ġfeat":5646,"Ġ400":5647,"oking":5648,"ichard":5649,"ien":5650,"sau":5651,"Ġbá»ĥ":5652,"ĠChar":5653,"Ġyá»ĥ":5654,"Ġmuch":5655,"ĠtráºŃt":5656,"ush":5657,"ĠHoÃłn":5658,"Ġfamily":5659,"Ġ...\"":5660,"Ľt":5661,"ngÆ°á»Ŀi":5662,"Ġcáº¥y":5663,"Ġmel":5664,"ĠBuckbeak":5665,"ĠWhen":5666,"Ġhepatitis":5667,"Ġinhibitors":5668,"iat":5669,"Ġchá»Ł":5670,"Ġgame":5671,"coh":5672,"Ġsampl":5673,"Ġga":5674,"steps":5675,"Ġtechn":5676,"related":5677,"\").":5678,"bias":5679,"Ġvas":5680,"ĠmÃ¢m":5681,"áº¿ch":5682,"ĠTim":5683,"Ġpháº³ng":5684,"ĠThÃ¡p":5685,"osph":5686,"Ġdown":5687,"std":5688,"áº¹t":5689,"Ġavoid":5690,"Ġcombination":5691,"Hiá»ĩn":5692,"Ġeryth":5693,"ĠNeville":5694,"tif":5695,"ĠThuyáº¿t":5696,"itary":5697,"ĠChiá»ĥu":5698,"opath":5699,"Ġuseful":5700,"ĠParkinson":5701,"Ġenough":5702,"ĠCrookshanks":5703,"chedule":5704,"pan":5705,"omes":5706,"Ġoptim":5707,"rosis":5708,"Ġnat":5709,"Ġnorm":5710,"Ġngáº¡c":5711,"Ġpháº¥n":5712,"Ġair":5713,"ories":5714,"ĠLá»¯":5715,"58":5716,"ĠhÆ°ng":5717,"ĠTáºŃp":5718,"eria":5719,"Ġincreasing":5720,"Ġprevious":5721,"ĠPhilippines":5722,"Ġhá»¥t":5723,"Solver":5724,"ould":5725,"ĠchiÃªu":5726,"Ġdl":5727,"Ġple":5728,"Ġnháº¯m":5729,"ĠCanh":5730,"ĠBÃ¡i":5731,"ĠLiÃªu":5732,"Æ°Æ¡n":5733,"asal":5734,"ĠWilliam":5735,"izeof":5736,"========":5737,"Ġplayed":5738,"Ġidentified":5739,"Ġmilk":5740,"54":5741,"Ġplasma":5742,"ĠrÃło":5743,"ĠxÆ°á»Ľng":5744,"ĠÄĲáº£o":5745,"abl":5746,"Ġtráº¡m":5747,"ĠNational":5748,"Ġrá»§i":5749,"Ġmá»Ŀ":5750,"igma":5751,"ĠâĢĶ":5752,"Ġlayer":5753,"ĠÄĳai":5754,"ĠHÆ¡n":5755,"PhÃ¢n":5756,"sum":5757,"ÃĢ":5758,"Ġnn":5759,"Ġnháº¡y":5760,"ĠkhÃ¡n":5761,"ĠPhÃ¨o":5762,"ogen":5763,"parameters":5764,"Ġlungs":5765,"########":5766,"Ġgroups":5767,"92":5768,"ĠrÃ¨n":5769,"ĠÄĳá»«ng":5770,"itation":5771,"Ġbeh":5772,"cept":5773,"71":5774,"Ġchiáº¿t":5775,"Ġchá»ĳt":5776,"ĠEr":5777,"Ġ1958":5778,"Ġec":5779,"Ġpost":5780,"ĠnhÅ©ng":5781,"Ġhow":5782,"efer":5783,"Ġgháº¿":5784,"().":5785,"DÆ°á»Ľi":5786,"LA":5787,"Máº·c":5788,"ced":5789,"Ġhal":5790,"Ġmut":5791,"ĠSCD":5792,"resh":5793,"ophag":5794,"ĠIBD":5795,"Ġcorticosteroid":5796,"Ġvia":5797,"ĠláºŃt":5798,"Ġdim":5799,"ĠCent":5800,"ĠQua":5801,"quence":5802,"ĠlÃ£ng":5803,"ĠIII":5804,"ĠhÃ£":5805,"Ġgá»¡":5806,"Ġey":5807,"ĠEm":5808,"Ġrest":5809,"Ġ1959":5810,"ĠmmHg":5811,"Ġresulting":5812,"lin":5813,"ĠÄĳáº¡p":5814,"Ġheo":5815,"Ġhiáº¿u":5816,"ected":5817,"odes":5818,"otor":5819,"ava":5820,"ĠkhÃ³i":5821,"Ġapproximately":5822,"ĠDisease":5823,"ĠtÃ©t":5824,"ĠthÃ¢m":5825,"ĠdÃŃnh":5826,"ĠngÃ£":5827,"Ġfung":5828,"ĠAm":5829,"Ġloc":5830,"Ġresistance":5831,"eous":5832,"Ġ1953":5833,"Ġagents":5834,"ĠEurope":5835,"Ġiodine":5836,"Ġkhuy":5837,"ardi":5838,"ĠTruyá»ĩn":5839,"eeding":5840,"Ġgrowth":5841,"80":5842,"Máº·t":5843,"ĠtÃł":5844,"Ġtiáº¿u":5845,"eva":5846,"ression":5847,"ĠGeneva":5848,"ĠlÅ©y":5849,"('":5850,"ply":5851,"Ġinst":5852,"elaw":5853,"Ġprof":5854,"Ġscre":5855,"Ġstruct":5856,"Ġdá»ĭu":5857,"Ġrequired":5858,"Ġthought":5859,"af":5860,"ĠTá»©":5861,"Ġrheumatoid":5862,"ĠVern":5863,"ĠHÃ¡t":5864,"ĠTrelaw":5865,"action":5866,"Ġstand":5867,"Ġdiphtheria":5868,"plant":5869,"lerg":5870,"Ġrespons":5871,"Ġultr":5872,"ĠTrelawney":5873,"ĠlÃ¹ng":5874,"ĠlÃ´i":5875,"ĠdÄ©":5876,"Ġdá»ĵi":5877,"Ġnháº¡t":5878,"áº·m":5879,"ured":5880,"utes":5881,"Ġtá»±a":5882,"Ġgovern":5883,"Ġtensor":5884,"Ġlarg":5885,"ĠbÃ¡m":5886,"Ġbone":5887,"ĠBritish":5888,"ĠWe":5889,"Ġrecogn":5890,"Ġinvolved":5891,"Ġvol":5892,"Ġsix":5893,"Ġngá»±c":5894,"Ġfe":5895,"uccess":5896,"fc":5897,"ä¸":5898,"Ġvan":5899,"Ġline":5900,"Ġsá»į":5901,"ĠChÃ¹a":5902,"ĠNhÃ¬n":5903,"reast":5904,"ography":5905,"Ġdefects":5906,"Ġenzyme":5907,"ĠVernon":5908,"Tiáº¿ng":5909,"Ġbar":5910,"Ġmar":5911,"Ġnáº¡p":5912,"Ġdá»Ŀi":5913,"ĠTÃłu":5914,"ĠCáº©m":5915,"ĠWHO":5916,"Ġvoi":5917,"Ġhist":5918,"Ġbatch":5919,"ĠnÃºt":5920,"ĠTiáº¿p":5921,"Ġvá»Ŀi":5922,"uss":5923,"ĠNÃ³i":5924,"Ġoutput":5925,"Ġneeded":5926,"duce":5927,"Ġet":5928,"Ġbáº¿n":5929,"Ġright":5930,"ĠTrÄĥng":5931,"Ġeth":5932,"ĠKháº¯c":5933,"ĠkhoÃ¡ng":5934,"ÄĲÆ°á»Ŀng":5935,"NÆ°á»Ľc":5936,"ject":5937,"tre":5938,"ngÃły":5939,"ĠthÃ´":5940,"Ġlá»Ļn":5941,"ĠchÃ¡o":5942,"ĠTiáº¿ng":5943,"onorr":5944,"ename":5945,"enital":5946,"ĠÄĲá»ĵn":5947,"Ġconst":5948,"ansac":5949,"embd":5950,"31":5951,"frac":5952,"used":5953,"epend":5954,"aps":5955,"Ġvarious":5956,"CÃ´":5957,"ĠÄĲÃłn":5958,"ĠThá»ĭnh":5959,"ĠLiá»ħu":5960,"Ġfile":5961,"ĠNguá»ĵn":5962,"apore":5963,"ĠEl":5964,"ĠÄĳá»ĩm":5965,"Ġtáº¥u":5966,"ĠlÃ¡nh":5967,"Ġbáº¯p":5968,"Ġsay":5969,"ĠnÆ¡":5970,"ision":5971,"ĠÄĲÆ°á»£c":5972,"ĠDanh":5973,"Ġproton":5974,".)":5975,"Tu":5976,"Ġcereb":5977,"Ġhao":5978,"ĠdÆ°á»£ng":5979,"Ġrá»¡":5980,"Ġrare":5981,"ĠViÃªm":5982,"Ãºm":5983,"ĠBo":5984,"ĠPa":5985,"itted":5986,"...)":5987,"Ġcogn":5988,"Ġadmin":5989,"ociety":5990,"artin":5991,"59":5992,"vÃł":5993,"Ġháº¹n":5994,"Ġsá»¥":5995,"ĠrÃ©t":5996,"oles":5997,"Ġsour":5998,"Ġserum":5999,"nn":6000,"Ġ--":6001,"ĠchÃºc":6002,"Ġkiá»ĩm":6003,"ĠLÄĥng":6004,"atin":6005,"ĠPhá»ĳ":6006,"Ġolder":6007,"MS":6008,"ĠÃ´n":6009,"Ġcos":6010,"ĠthÃ¡m":6011,"ĠgÃµ":6012,"ĠngÆ°ng":6013,"Ġprovide":6014,"Ġcuá»Ļn":6015,"sc":6016,"Ġ_{":6017,"Ġtá»§y":6018,"ĠlÃµi":6019,"Ġphen":6020,"ĠCo":6021,"iction":6022,"Ġstom":6023,"igns":6024,"Ġurinary":6025,"Ġobser":6026,"Ġbelieved":6027,"rabbers":6028,"ĠÃºy":6029,"ĠbÆ¡":6030,"ĠgiÃ¢y":6031,"ĠBang":6032,"ĠPr":6033,"ĠUy":6034,"ĠNghiÃªn":6035,"cÃ¡c":6036,"olve":6037,"Ġparam":6038,"Pháº§n":6039,"Ġyá»ĥm":6040,"cohol":6041,"Ĥn":6042,"Ġrá»ĳt":6043,"Ġwould":6044,"ĠRobert":6045,"NÃ³":6046,"hidden":6047,"my":6048,"ĠthÆ°a":6049,"Ġslow":6050,"ĠNansac":6051,"Ġexamin":6052,"Ġexcess":6053,"Ġneur":6054,"Ġappears":6055,"ĠScrabbers":6056,"Ġpatho":6057,"Ġorigin":6058,"Ġparticularly":6059,"ĠSingapore":6060,"NF":6061,"list":6062,"ror":6063,"Ġsl":6064,"Ġkhuyáº¿t":6065,"ĠRefer":6066,"tention":6067,"Ġmanagement":6068,"Ġrequir":6069,"42":6070,"function":6071,"of":6072,"tain":6073,"Ġcáº©n":6074,"Ġlear":6075,"ĠhÃ¡i":6076,"ĠsÃ©t":6077,"ĠMus":6078,"ĠKháº£i":6079,"Ġextr":6080,"Ġdefault":6081,"ĠTour":6082,"Ġlonger":6083,"Ġlimited":6084,"Ġtháº¥m":6085,"Ġkhuáº¥t":6086,"ĠCung":6087,"ĠgiÃ£n":6088,"ĠCháº¥p":6089,"let":6090,"ĠnÃ¡t":6091,"Ġrá»ħ":6092,"ĠDiÃªn":6093,"ĠChá»Ľp":6094,"ĠKáº¿":6095,"ĠGiÃ¡":6096,"ĠthoÃ¡ng":6097,"Ġseizure":6098,"ĠGiá»Ľi":6099,"print":6100,"Ġveins":6101,"Ġpublic":6102,"DP":6103,"ĠlÆ°á»¡ng":6104,"Ġ1977":6105,"Ġsuper":6106,"Ġenter":6107,"ĠTáº§n":6108,"ĠCáº£i":6109,"leep":6110,"Ġassess":6111,"Ġlinks":6112,"Táº¡o":6113,"cÃ²n":6114,"ĠrÃ¡c":6115,"ĠMich":6116,"aylor":6117,"ĠWest":6118,"ĠOp":6119,"Ġ1967":6120,"rank":6121,"ĠOrgan":6122,"ĠResearch":6123,"**":6124,"cas":6125,"ka":6126,"ray":6127,"vity":6128,"Â²":6129,"ĠÃ¡i":6130,"Ġtang":6131,"Ġnerv":6132,"Ġdose":6133,"ĠnhÃ£n":6134,"infec":6135,"enous":6136,"chiáº¿n":6137,"ĠThomas":6138,"econd":6139,"loader":6140,"Ġdefin":6141,"Ġ1995":6142,"Ġvaccination":6143,"Ġsecondary":6144,"IS":6145,"VÃł":6146,"ĠÃ¢n":6147,"Ġhung":6148,"Ġgl":6149,"ĠRiÃªng":6150,"erse":6151,"Ġability":6152,"Ġ1940":6153,"táºŃp":6154,"ĠÄĳinh":6155,"Ġháº£o":6156,"ĠsÃºt":6157,"Ġstim":6158,"ĠxÃ¡m":6159,"ĠMos":6160,"ĠÄĲá»ĵ":6161,"ĠPl":6162,"process":6163,"Ġweights":6164,"ÄĳÆ°á»£c":6165,"Ġconsum":6166,"Ġapproach":6167,"ĠhÃ£m":6168,"47":6169,"As":6170,"ĠgÃ¡nh":6171,"ĠvÃłnh":6172,"Ġestabl":6173,"ave":6174,"gpu":6175,"ĠmÃ¹ng":6176,"Ġgpt":6177,"ĠTráº»":6178,"Ġradia":6179,"entric":6180,"acy":6181,"Ġcancers":6182,"yrox":6183,"ĠMarge":6184,"ĠCrohn":6185,"Hoa":6186,"Ġpulmonary":6187,"qrt":6188,"Ġ!":6189,"Ġlá»±u":6190,"Ġ250":6191,"ĠRichard":6192,"Ġstrong":6193,"='":6194,"ĠtrÃºng":6195,"ĠMartin":6196,"ĠBÃ¡o":6197,"ĠTri":6198,"azz":6199,"Ġlist":6200,"Ġdrop":6201,"Ġnha":6202,"ĠVal":6203,"ĠAP":6204,"omet":6205,"Ġaxit":6206,"99":6207,"EC":6208,"Ġkem":6209,"ĠBáº¿n":6210,"ĠBrit":6211,"ĠTrinh":6212,"ĠDÆ°á»Ľi":6213,"Ġlocal":6214,"ĠkhoÃ¡i":6215,"ocytes":6216,"1945":6217,"Ġunc":6218,"arrhea":6219,"ĠLuáºŃt":6220,"eckpoint":6221,"Ġradiation":6222,"])":6223,"pri":6224,"ĠmÆ°Æ¡i":6225,"Ġnhiá»ħu":6226,"ĠMÃ³n":6227,"Ã²m":6228,"ĠDav":6229,"ington":6230,"Ġ48":6231,"Ġcann":6232,"CE":6233,"uth":6234,"Ġháº¡ch":6235,"ĠgÃ¡c":6236,"Ġtox":6237,"ĠNhu":6238,"ĠWhile":6239,"ĠÃģo":6240,"Ġstress":6241,"heads":6242,"Ġstatus":6243,"ĠtÃ¡o":6244,"Ġli":6245,"Ġlat":6246,"ĠkÃ©p":6247,"Ġkiá»ģm":6248,"Ġpap":6249,"ĠBar":6250,"ĠDiá»ħn":6251,"ÄĲáº§u":6252,"hood":6253,"Ġinfectious":6254,"Ġculture":6255,"44":6256,"Há»ĵ":6257,"Ġsizeof":6258,"ĠVáºŃt":6259,"ĠLá»ĩ":6260,"truyá»ĩn":6261,"Ġdied":6262,"quate":6263,"owel":6264,"Ġpercent":6265,"Ġrespir":6266,"Ġswelling":6267,"Ġelevated":6268,"get":6269,"Ġná»£":6270,"Ġkhen":6271,"ĠQuÃ¡":6272,"=\"":6273,"ER":6274,"block":6275,"khoáº£ng":6276,"ĠlÃ¡i":6277,"ĠmÃ¬n":6278,"Ġpsych":6279,"onstr":6280,"ĠKhanh":6281,"ots":6282,"Ġalong":6283,"atively":6284,"NN":6285,"bt":6286,"ban":6287,"ĠchÃ´n":6288,"Ġke":6289,"Ġdá»ĵn":6290,"á»ĭn":6291,"ĠVÃ¹ng":6292,"Ġ1000":6293,"ĠÄĲiá»ģn":6294,"ĠBe":6295,"ĠTho":6296,"verage":6297,"Ġamino":6298,"ĠÄĳÃłnh":6299,"Ġbladder":6300,"Ġkiá»ģu":6301,"Ġnáº¿n":6302,"ĠPhá»ķ":6303,"Ġprac":6304,"kines":6305,"Ġplayer":6306,"ĠPeter":6307,"33":6308,"yn":6309,"ĠÃªm":6310,"Ġcá»Ĺ":6311,"Ġphiáº¿u":6312,"ara":6313,"ĠLáºŃp":6314,"ĠSp":6315,"ocal":6316,"ĠJean":6317,"ĠÄĳá»©t":6318,"nee":6319,"Ġ1998":6320,"Ġdengue":6321,"ĠtÃª":6322,"Ġtháº¥u":6323,"Ġmov":6324,"ifest":6325,"current":6326,"Ġ1996":6327,"Giáº£i":6328,"ĠTuáº¥n":6329,"less":6330,"most":6331,"Ġbro":6332,"Ġmac":6333,"ĠchÃŃch":6334,"Ġnhá»±a":6335,"ony":6336,"ĠCT":6337,"Ġown":6338,"ĠTrá»Ŀi":6339,"ĠXX":6340,"Ġproduce":6341,"ques":6342,"by":6343,"ĠchÃ¢m":6344,"ĠsÆ°Æ¡ng":6345,"Ġsample":6346,"Ġstig":6347,"Ġquá»·":6348,"ĠMÃª":6349,"ĠÄĲÃ¡n":6350,"Ġanemia":6351,"ĠSigns":6352,"ĠIm":6353,"Ġprevention":6354,"Ġintake":6355,"Quáº£ng":6356,"Ġreducing":6357,"Ġhumans":6358,"NSUT":6359,"Ġtrials":6360,"Ġlev":6361,"ĠhÃºng":6362,"ĠngÃł":6363,"ĠquÃ¡i":6364,"ĠThá»¥y":6365,"Ġhoan":6366,"oder":6367,"Ġ1961":6368,"Ġrecent":6369,"LÃ£o":6370,"rup":6371,"side":6372,"Ġcá»Ľ":6373,"ĠlÆ°á»¡i":6374,"inter":6375,"ĠMÃ´n":6376,"ĠÄĲá»ģn":6377,"Ġhole":6378,"lood":6379,"Tháº¿":6380,"ĠJo":6381,"Ġsugar":6382,"ĠPrevention":6383,"Ġláº§y":6384,"Ġbá»įt":6385,"ĠsÆ°ng":6386,"Ġdone":6387,"activ":6388,"Ġtake":6389,"Ġexc":6390,"Nháº¡c":6391,"Ġread":6392,"order":6393,"co":6394,"gative":6395,"Ġvary":6396,"Ġmá»ĵng":6397,"ĠmÃ³c":6398,"aneous":6399,"ĠCÃ¢y":6400,"Ġach":6401,"ĠBinh":6402,"ĠCháº³ng":6403,"une":6404,"Ġscore":6405,"Ġregions":6406,"Ġgrads":6407,"tigrew":6408,"ĠEnc":6409,"yloid":6410,"Ġvessels":6411,"Ġlesions":6412,"Ġpancreatitis":6413,"Ġrespiratory":6414,"Sá»Ń":6415,"Ġmáº¯n":6416,"ĠxÃł":6417,"ĠMost":6418,"ange":6419,"ĠKiÃªn":6420,"Ġprom":6421,"ĠExternal":6422,"ĠOrganization":6423,"43":6424,"born":6425,"Ġtháº±ng":6426,"=====":6427,"ĠTrÃ¬":6428,"Ġ41":6429,"ago":6430,"Ġgenes":6431,"Ġáº¢":6432,"III":6433,"%).":6434,"known":6435,"ming":6436,"ĠTÃ¡m":6437,"ĠSáº£n":6438,"Ġstart":6439,"ĠFred":6440,"ercy":6441,"Ba":6442,"Há»įc":6443,"ymptom":6444,"Ġbanh":6445,"ĠHe":6446,"ĠBá»Łi":6447,"ĠLÃłng":6448,"ĠSm":6449,"ĠSÃ¢n":6450,"phas":6451,"Ġabove":6452,"Ġesophag":6453,"Ġxoang":6454,"Ġleads":6455,"Ġdietary":6456,"forward":6457,"Ġevalu":6458,"stein":6459,"ĠReferences":6460,"yroxine":6461,"CÃ¡ch":6462,"Há»Ļi":6463,"Ġcáº¡n":6464,"ering":6465,"ideo":6466,"Ġintroduc":6467,"PU":6468,"bao":6469,"Ġnear":6470,"Ġdá»ĳc":6471,"ĠgÃło":6472,"ĠTÄĥng":6473,"ĠCÃł":6474,"ĠHáº¯c":6475,"ĠBÃŃch":6476,"ĠTráº¥n":6477,"ĠPhá»¥ng":6478,"copy":6479,"Ġlinked":6480,"jug":6481,"vá»Ľi":6482,"Ġkhá»ĳn":6483,"onic":6484,"Ġbegin":6485,"Ġtá»ĵi":6486,"ĠMicrosoft":6487,"BÃłi":6488,"ON":6489,"ĠÆ°á»Ľt":6490,"Ġmá»įc":6491,"Ġsulf":6492,"ĠLÃ¢n":6493,"ĠSe":6494,"Thu":6495,"Ġcough":6496,"Ġ600":6497,"ChÃºng":6498,"Ġgoat":6499,"Ġremains":6500,"Ġhealthy":6501,"Ġbelow":6502,"Ġpattern":6503,"void":6504,"Ġnháº§m":6505,"ument":6506,"AV":6507,"AIDS":6508,"None":6509,"ĠmÆ°á»£n":6510,"Ġtraining":6511,"ĠniÃªm":6512,"ĠkhÃ¡t":6513,"itu":6514,"Ġfr":6515,"Ġhost":6516,"uration":6517,"ump":6518,"Ġ58":6519,"Ġalcohol":6520,"Ġaccess":6521,"ache":6522,"Ġproteins":6523,"2005":6524,"ĠCont":6525,"obacter":6526,"ashington":6527,"Ġaccum":6528,"ĠAfrican":6529,"Ġprogression":6530,"Ġhaemoglobin":6531,"Ġscreening":6532,"?<":6533,"ief":6534,"Ġcáº¯n":6535,"Ġlá»Ļt":6536,"ĠPaul":6537,"ĠSal":6538,"ele":6539,"ĠQuyá»ģn":6540,"added":6541,"ĠÄĳáº±ng":6542,"Ġgonorr":6543,"ĠBy":6544,"Ġwors":6545,"Ġ1930":6546,"osing":6547,"umab":6548,"ĠXV":6549,"ĠWashington":6550,"encephal":6551,"oxic":6552,"Ġplayers":6553,"Ġmoderate":6554,"Ġphysici":6555,"Ġdiagnostic":6556,"Ġvaric":6557,"Ġmeasure":6558,"Ġcharacterized":6559,"Ġenvironmental":6560,"Ġcognitive":6561,"55":6562,"Tá»ķng":6563,"pose":6564,"Ġchai":6565,"Ġ150":6566,"Ġsubst":6567,"Ġprogram":6568,"72":6569,"Ac":6570,"NÃłng":6571,"ĠlÆ°á»Ŀng":6572,"Ġpur":6573,"Ġging":6574,"rem":6575,"elu":6576,"ĠQuá»³nh":6577,"Ġká»µ":6578,"ĠKhai":6579,"ibr":6580,"Ġparts":6581,"Ġbecame":6582,"ĠtÃ¹ng":6583,"Ġsep":6584,"Ġgay":6585,"ĠNa":6586,"Ġquáº¿":6587,"ĠPhÆ°á»£ng":6588,"ĠloÃ£ng":6589,"ĠEpid":6590,"ĠÄĳá»¥ng":6591,"Ġnecess":6592,"yclop":6593,"DA":6594,"LÃłm":6595,"MI":6596,"OS":6597,"based":6598,"ratch":6599,"Ġtao":6600,"Ġliving":6601,"Ġbreast":6602,"Ġbowel":6603,"ĠdÃª":6604,"ĠNH":6605,"ĠLÆ°":6606,"ĠLá»Ľn":6607,"emat":6608,"Ġ34":6609,"ĠRá»ĵi":6610,"ĠHuá»³nh":6611,"ologic":6612,"Ġlogits":6613,"Ġdetermine":6614,"Ġanimals":6615,"inflammatory":6616,"Cuá»ĳi":6617,"¯a":6618,"Ġcá»ĳc":6619,"ĠÄĳun":6620,"ĠbÃłng":6621,"Ġsáº§u":6622,"ĠxÃŃch":6623,"ĠSan":6624,"NhÆ°":6625,"Ġworldwide":6626,"ĠÄĳá»¥c":6627,"49":6628,"AID":6629,"tiá»ĥu":6630,"ĠthÃ³i":6631,"ĠhÃ´i":6632,"Ġmemory":6633,"Ġchay":6634,"ĠnhÆ°á»Ŀng":6635,"ites":6636,"Ġfem":6637,"Ġ=====":6638,"ĠWith":6639,"quency":6640,"ugg":6641,"Ġjust":6642,"ernel":6643,"Ġmetab":6644,"CÆ¡m":6645,"ĠÄĳua":6646,"Ġláº¥p":6647,"Ġhiáº¿n":6648,"Ġbur":6649,"Ġmight":6650,"ĠtrÃ¢u":6651,"ocr":6652,"Ġsuppor":6653,"Ġnhuá»Ļm":6654,"ĠxuÃ´i":6655,"riteria":6656,"fre":6657,"Ġ__":6658,"ĠbÃŃnh":6659,"Ġsáº¯n":6660,"Ġdtype":6661,"erve":6662,"ĠCá»ĳ":6663,"ĠTráº¡ch":6664,"ĠNgÃ£i":6665,"ĠDá»¥":6666,"ĠPhá»Ł":6667,"omp":6668,"terol":6669,"Ġallerg":6670,"Ġstates":6671,"Phong":6672,"clus":6673,"dration":6674,"Ġproblem":6675,"Ġevent":6676,"Ġclo":6677,"ĠlÄĥn":6678,"Ã¬a":6679,"ĠVi":6680,"ĠHar":6681,"ĠHiáº¿u":6682,"emiology":6683,"Ġtiáº¿c":6684,"ĠRec":6685,"ĠJava":6686,"Ġ700":6687,"Ġglobal":6688,"Bá»Ļ":6689,"eth":6690,"åħ":6691,"Ġdong":6692,"ĠTá»ĳn":6693,"ĠTháº¡nh":6694,"Ġflow":6695,"ĠDÅ©ng":6696,"Ġlá»µ":6697,"Ġimaging":6698,"2016":6699,"Ġincludes":6700,"__(":6701,"Ġpossib":6702,"Ġdaily":6703,"mathb":6704,"68":6705,"pred":6706,"Ġmau":6707,"Ġnáº£y":6708,"Ġaverage":6709,"ĠThay":6710,"roc":6711,"Ġalpha":6712,"tical":6713,"Ġprimarily":6714,"ĠADN":6715,"BÃªn":6716,"Ġlate":6717,"ĠchÃ¡n":6718,"ĠchÃ¬m":6719,"tice":6720,"ĠHáº¯n":6721,"ĠSao":6722,"Pháº¡m":6723,"last":6724,"Ġâī":6725,"Ġattack":6726,"Ġbehav":6727,"Ġultras":6728,"Em":6729,"MÃ´":6730,"Ġmáº¡o":6731,"Ġná»ĳt":6732,"onomic":6733,"ori":6734,"Ġngháº½":6735,"ĠCÆ¡m":6736,"Ġç":6737,"Ġè":6738,"ĠÄĳáº§m":6739,"Ġhá»§":6740,"ened":6741,"Ġinit":6742,"aster":6743,"ĠthuÃª":6744,"ĠRÆ°á»£u":6745,"Ãģo":6746,"aboratory":6747,"ĠEncyclop":6748,"long":6749,"ĠcÆ°á»¡ng":6750,"Ġsleep":6751,"Ġ32":6752,"Ġexist":6753,"Ġ105":6754,"Ġ1999":6755,"argv":6756,"Ġcentral":6757,"1968":6758,"ĠxÃŃu":6759,"xem":6760,"Ġcuda":6761,"ĠÄĳáº¯ng":6762,"Ġváº¯t":6763,"Ġventric":6764,"ĠlÃª":6765,"Ġsol":6766,"input":6767,"ĠMau":6768,"ĠÄĲÃ¡nh":6769,"ĠPM":6770,"ito":6771,"ĠKá»·":6772,"Ġalone":6773,"Ġdiarrhea":6774,"uction":6775,"Chá»ī":6776,"ĠchuÃ´ng":6777,"Ġinform":6778,"Ġdefined":6779,"ĠAlthough":6780,"arginal":6781,"Ġreport":6782,"clinical":6783,"Ġimpair":6784,"iatric":6785,"Ġunclear":6786,"Ġbo":6787,"ĠTe":6788,"ĠNai":6789,"ĠMá»įi":6790,"ĠMáº¡nh":6791,"ĠFl":6792,"exp":6793,"Ġbetter":6794,"Ġunderst":6795,"Ġngháº½n":6796,"CÃ²n":6797,"RÆ°á»£u":6798,"care":6799,"}\\":6800,"ĠÄĳÄĥm":6801,"Ġhuá»ĳng":6802,"Ġmis":6803,"Ġmiáº¿n":6804,"Ġmater":6805,"ĠnhÃłng":6806,"ĠTráºŃn":6807,"Ġnghá»ĭch":6808,"ĠQuáºŃn":6809,"istent":6810,"Ġchui":6811,"Ġcomplex":6812,"Ġáº¤p":6813,"Ġgreat":6814,"includ":6815,"Ġdemonstr":6816,"Ġepidemic":6817,"));":6818,"hat":6819,"Ġlá»įt":6820,"Ġbreak":6821,"Ġday":6822,"ĠTÃº":6823,"Ġkhá»©":6824,"ĠÄĲÃ´i":6825,"ĠAustr":6826,"Ġonce":6827,"Ġthá»ķi":6828,"2007":6829,"Ġgovernment":6830,"ĠDavid":6831,"95":6832,"Ġthus":6833,"Ġvo":6834,"Ġtrain":6835,"ĠSly":6836,"ypes":6837,"ĠUC":6838,"Ġstages":6839,"therin":6840,"ĠIndi":6841,"Ġtransplant":6842,"Ġepis":6843,"Ġvaccines":6844,"Ġguidelines":6845,"kva":6846,"Ġtaken":6847,"Ġirrit":6848,"Ġperformed":6849,"Ġcrisis":6850,"ĠSlytherin":6851,"win":6852,"Ġtá»§":6853,"Ġbest":6854,"Ġdá»įn":6855,"Ġphá»ĵng":6856,"onn":6857,"alia":6858,"arely":6859,"Ġ1997":6860,"rin":6861,"Ġtiá»ħn":6862,"Ġkáº½":6863,"ĠTáº¡p":6864,"Ġrá»±c":6865,"ĠBáº¡c":6866,"itor":6867,"ĠChinh":6868,"ĠCháº©n":6869,"ĠInstit":6870,"andom":6871,"Ġname":6872,"Ġpla":6873,"ophil":6874,"ĠEuropean":6875,"ĠHenry":6876,"ĠMoskva":6877,"66":6878,"Ġreas":6879,"Ġaspir":6880,"Ġtá»±u":6881,"Ġeduc":6882,"sqrt":6883,"ĠTÆ°á»Łng":6884,"ĠxÃ¨o":6885,"ĠBÃłng":6886,"import":6887,"Ġiss":6888,"adition":6889,"ucl":6890,"Ġparameters":6891,"Giai":6892,"Ġmeningococcal":6893,"Ġtargets":6894,"Ġmucos":6895,"ĠthÃŃnh":6896,"ĠhÃłn":6897,"Ġsuá»ĳi":6898,"Ġtrig":6899,"Ġdá»©a":6900,"ĠTÃ³m":6901,"Ġngá»¥":6902,"icated":6903,"ĠthÃ¬a":6904,"Ġevents":6905,"Ġcard":6906,"ĠvÃº":6907,"Ġlau":6908,"Ġbáº©m":6909,"Ġmotor":6910,"ĠkiÃªm":6911,"ĠNgÆ°á»£c":6912,"ĠChá»£":6913,"ĠAlex":6914,"Ġexpress":6915,"phÆ°á»Ŀng":6916,"Ġhighest":6917,"Ġcircul":6918,"ĠCharles":6919,"aff":6920,"bin":6921,"sin":6922,"Ġráº»":6923,"ĠBu":6924,"olera":6925,"Ġsoi":6926,"Ġfollowed":6927,"Ġhalf":6928,"Module":6929,"Ġá»ķng":6930,"Ġtáº»":6931,"Ġbl":6932,"Ġbab":6933,"Ġnit":6934,"Ġgáº§m":6935,"ĠCá»Ńa":6936,"edia":6937,"Ġintern":6938,"ĠPer":6939,"ĠNháºŃn":6940,"ĠQuidd":6941,"opa":6942,"ote":6943,"illary":6944,"Ġpregnant":6945,"Ġinjury":6946,"iddle":6947,"Ġsuscep":6948,"Ġsinusitis":6949,"Ġclub":6950,"ĠQuidditch":6951,"mod":6952,"Ġlit":6953,"ĠhÃ£i":6954,"ĠTÃ¢m":6955,"esp":6956,"ola":6957,"ĠghÃ©t":6958,"Ġstandard":6959,"BC":6960,"TI":6961,"oáº¡n":6962,"Ġcost":6963,"ĠÄĳáº¯c":6964,"Ġtháº»":6965,"Ġchlor":6966,"Ġniá»ĩu":6967,"Ġpe":6968,"Ġgá»«ng":6969,"ince":6970,"ĠgiÆ¡":6971,"ĠChina":6972,"apan":6973,"plications":6974,"Ġwhite":6975,"Khu":6976,"posed":6977,"work":6978,"Ġcriteria":6979,"ĠthÃ©p":6980,"Ġvir":6981,"ĠLÃł":6982,"ĠStr":6983,"ifically":6984,"own":6985,"Ġmuá»Ĺi":6986,"gpt":6987,"mead":6988,"Ġbá»ĵi":6989,"Ġsolver":6990,"ĠgÃ¬n":6991,"ĠkhÃ¡nh":6992,"ĠrÃ¡o":6993,"Ġconn":6994,"Thá»ĭt":6995,"ÄĲÃ£":6996,"Ġ98":6997,"Ġ85":6998,"ĠStan":6999,"veness":7000,"188":7001,"ĠChá»īnh":7002,"Ġamyloid":7003,"Ġantibody":7004,"obot":7005,"ieve":7006,"Ġdepression":7007,"Ġserious":7008,"Ġantibiotic":7009,"Ġmeasures":7010,"Ġtarget":7011,"Ġconfirmed":7012,"ĠNorth":7013,"meade":7014,"41":7015,"face":7016,"Ġturn":7017,"Ġxen":7018,"Ġhá»Ł":7019,"ĠAng":7020,"Ġplace":7021,"ĠCommon":7022,"ĠInternational":7023,"Ġpublished":7024,"Hyp":7025,"ĠthÃ¹ng":7026,"Ġváº©y":7027,"Ġsá»Łi":7028,"ank":7029,"ĠMÃ³ng":7030,"eding":7031,"rov":7032,"Ġ38":7033,"Ġchuá»Ļng":7034,"Ġ95":7035,"Ġparser":7036,"Ġwhat":7037,"Ġcarb":7038,"anced":7039,"value":7040,"Ġtissues":7041,"ek":7042,"ĠVá»ĭnh":7043,"ĠBÃ¢y":7044,"ably":7045,"avel":7046,"Ġarg":7047,"Ġplac":7048,"2008":7049,"ounts":7050,"Ġlipid":7051,"GA":7052,"LÃºc":7053,"ds":7054,"rad":7055,"Ġlaryng":7056,"Ġmá»ĵ":7057,"Ġmass":7058,"ĠNáº·c":7059,"estern":7060,"aly":7061,"Ġnghiá»ĩn":7062,"ĠnghiÃªng":7063,"ĠDáºŃu":7064,"ĠkhoÃ¡c":7065,"ĠHogs":7066,"ÄĲá»ĵng":7067,"Ġassociation":7068,"Khá»Łi":7069,"ĠĠĠĠĠĠĠĠĠĠĠĠĠĠĠĠĠĠĠĠčĊ":7070,"ernutrition":7071,"Ġtreating":7072,"ĠDuáº©n":7073,"Ġappropri":7074,"Ġvalue":7075,"Ġreceptor":7076,"Ġvascul":7077,"ĠHogsmeade":7078,"Ex":7079,"ĠÃ³c":7080,"ngh":7081,"ĠÄĳáº¡m":7082,"Ġhuyá»ģn":7083,"Ġsil":7084,"Ġsuccess":7085,"Ġtro":7086,"ĠtrÃ¨o":7087,"Ġnguyá»ĩt":7088,"Ġvá»Ĺ":7089,"Ġthá»į":7090,"ises":7091,"uman":7092,"former":7093,"mediate":7094,"56":7095,"98":7096,"ĠsÄĥn":7097,"ĠTÃły":7098,"ĠTÃ¹ng":7099,"Ġox":7100,"Ġoan":7101,"ĠTrÆ°á»Łng":7102,"Ġrapid":7103,"Ġ1949":7104,"Ġcompos":7105,"Ġoverall":7106,"ĠtrÃ¹m":7107,"Ġfeatures":7108,"ÃĤ":7109,"nhá»¯ng":7110,"Ġmá»ĭn":7111,"ĠnÃ´":7112,"Ġgáº¯t":7113,"ĠKhang":7114,"ouis":7115,"Ġupper":7116,"Ġregion":7117,"Ġimprov":7118,"ograph":7119,"HuÃ¢n":7120,"Ká»¹":7121,"][":7122,"gue":7123,"Ġcateg":7124,"ĠnhÃºng":7125,"tiveness":7126,"ĠHuyá»ģn":7127,"esity":7128,"ott":7129,"ocy":7130,"icken":7131,"ternative":7132,"Ġscler":7133,"residual":7134,"ĠAmerica":7135,"header":7136,"Ġsuspected":7137,"Ġbreathing":7138,"opathy":7139,"CS":7140,"CÃ¡i":7141,"bÃ¡nh":7142,"Ġdáº£i":7143,"ĠTuÃ¢n":7144,"ĠTá»·":7145,"ĠMac":7146,"ili":7147,"Ġlambda":7148,"ĠSystem":7149,"Pro":7150,"ga":7151,"ĠÃ´m":7152,"Ġcáº¯m":7153,"Ġsáº¯m":7154,"Ġtráº§u":7155,"Ġpen":7156,"Ġvá»«ng":7157,"etal":7158,"ĠGiÃ¡ng":7159,"ĠHoan":7160,"Ġproper":7161,"Nghe":7162,"ĠOne":7163,"Ġ2002":7164,"ycin":7165,"Ġcommunity":7166,"printf":7167,"Cáº£":7168,"orb":7169,"ĠMen":7170,"ĠLuÃ¢n":7171,"TÃ¬nh":7172,"Viá»ĩn":7173,"vocab":7174,"à¹":7175,"Ġneck":7176,"Ġnerve":7177,"ĠLáº¡i":7178,"Ġfac":7179,"ĠhoÃłnh":7180,"ĠDá»±":7181,"ĠIV":7182,"ĠÄĳoan":7183,"otype":7184,"Ġitch":7185,"Ġreach":7186,"Ġpreven":7187,"Ġoccurred":7188,"Ġdrink":7189,"hydration":7190,"Ġdysfunction":7191,"Ġreplacement":7192,"IX":7193,"PD":7194,"burg":7195,"ze":7196,"Ġvuá»ĳt":7197,"Ġláº¡m":7198,"Ġsáº¡n":7199,"ĠkhÃ¢u":7200,"ĠMay":7201,"ĠKhÃ¡ng":7202,"eff":7203,"Ġinfer":7204,"ĠThuáºŃt":7205,"Ġcount":7206,"Ġrequires":7207,"ĠEpidemiology":7208,")\\":7209,"VÃ¬":7210,"Vietnam":7211,"such":7212,"åį":7213,"ĠHáº¡nh":7214,"ĠBi":7215,"Ã©c":7216,"aint":7217,"Ġitself":7218,"Ġ1991":7219,"Ġmetal":7220,"ictor":7221,"layer":7222,"Ġneutron":7223,"Ġprofession":7224,"ĠxÃ©":7225,"chiáº¿m":7226,"Ġgiáº¥c":7227,"ison":7228,"ĠKá»ĥ":7229,"Ġgiá»įt":7230,"Ġpoint":7231,"Ġresulted":7232,"schedule":7233,"åĲ":7234,"ï¼":7235,"Ġæ":7236,"ĠtrÆ°a":7237,"ĠÄĲÃºng":7238,"ita":7239,"rept":7240,"ĠSociety":7241,"ĠKáº»":7242,"Ġinfants":7243,"ĠĠĠĠĠĠĠĠĠĠĠĠĠĠĠĠĠĠĠĠĠ":7244,"Ġsmoking":7245,"uffer":7246,"Ġfoods":7247,"Ġmuá»Ļn":7248,"Ġcongenital":7249,"Ġtemper":7250,"Ġversion":7251,"Ġexamination":7252,"Ġpathogen":7253,"Ġultrasound":7254,"pox":7255,"¨ng":7256,"ĠmÅ©":7257,"Ġkáº¹p":7258,"arc":7259,"iform":7260,"backward":7261,"Ġsystems":7262,"ha":7263,"Ġé":7264,"ĠcÃºi":7265,"Ġlá»Ļc":7266,"ĠkhÃ´n":7267,"ĠCÆ°Æ¡ng":7268,"ĠBer":7269,"Ġfield":7270,"Ġ39":7271,"sequent":7272,"Phan":7273,"74":7274,"Ġlen":7275,"Ġdáº·m":7276,"ĠNav":7277,"Ġ120":7278,"ĠBáº¡n":7279,"ĠSer":7280,"ĠAR":7281,"Ġcanal":7282,"ominant":7283,"TB":7284,"XuÃ¢n":7285,"larg":7286,"marginal":7287,"å¤":7288,"Ġencephal":7289,"Ġcure":7290,"ĠÄĳao":7291,"Ġhiá»ģn":7292,"ĠnÆ°Æ¡ng":7293,"ĠMy":7294,"ĠMRI":7295,"ars":7296,"ĠKiss":7297,"ulate":7298,"âĢĻ":7299,"2011":7300,"Ġelder":7301,"iffer":7302,"Ġeffectiveness":7303,"Ġendemic":7304,"Ġnewborn":7305,"Ġclassified":7306,"Ġimpact":7307,"ĠPolo":7308,"Ġinfluenz":7309,"Ġresponsible":7310,"treated":7311,"Ġstigma":7312,"Ġelderly":7313,"46":7314,"Par":7315,"day":7316,"ĠlÆ°":7317,"ĠVáº¥n":7318,"ĠBro":7319,"ĠSE":7320,"ĠCháº¥t":7321,"Ġthoáº£ng":7322,"Ġamount":7323,"RO":7324,"``":7325,"fusion":7326,"mul":7327,"ĠÄĳeo":7328,"ĠthÃ©t":7329,"ĠdÃło":7330,"ĠTa":7331,"Ġranh":7332,"Ġang":7333,"arre":7334,"ĠBá»ĳ":7335,"ĠThiá»ĩn":7336,"oses":7337,"atis":7338,"ĠInc":7339,"rier":7340,"ĠĠĠĠĠĠĠĠĠĠĠĠĠĠĠĠĠĠĠĠĠĠĠĠĠĠĠĠĠĠĠĠ":7341,"ĠInstitute":7342,"file":7343,"Ġtáº¯m":7344,"Ġliá»ħu":7345,"Ġmag":7346,"ĠdáºŃp":7347,"ĠÄĲiá»ĥm":7348,"ĠSiÃªu":7349,"Ġway":7350,"Ġmá»Ľ":7351,"beta":7352,"ĠGene":7353,"Ġdepending":7354,"dtype":7355,"qkv":7356,"Ġcys":7357,"ĠcÃµi":7358,"Ġsti":7359,"Ġknee":7360,"anoma":7361,"inated":7362,"Ġvá»Ľt":7363,"ĠHB":7364,"ĠHb":7365,"ĠMá»Ļc":7366,"ĠPneum":7367,"atigue":7368,"True":7369,"ĠThuÃ½":7370,"Ġrecommends":7371,"Ġoptions":7372,"Ġidentify":7373,"Ġfindings":7374,"Ġmaking":7375,"ymptomatic":7376,"Ġburden":7377,"well":7378,"Ġ_":7379,"Ġkhá»ĳng":7380,"ĠngÃ¢y":7381,"ĠngÃłi":7382,"Æ¡m":7383,"ĠMax":7384,"ĠThi":7385,"ĠTrans":7386,"ĠIg":7387,"ĠEast":7388,"Ġ76":7389,"Ġaccording":7390,"\"),":7391,"Anh":7392,"Ã¦":7393,"ĠÄĳáº¯n":7394,"ĠlÆ¡":7395,"ĠsÃ³i":7396,"ĠtrÆ°á»Ľng":7397,"ĠÄĲiá»ĥn":7398,"ĠLon":7399,"ĠSim":7400,"ĠPhÃ¹ng":7401,"lean":7402,"osqu":7403,"ĠKháº£":7404,"ÄĲÃło":7405,"TráºŃn":7406,"uble":7407,"ventions":7408,"Ġrelease":7409,"tively":7410,"azine":7411,"Ġorganism":7412,"Ġreferred":7413,"Gia":7414,"LÃł":7415,"QL":7416,"eti":7417,"Ġled":7418,"Ġhiáº¿p":7419,"ĠsÆ°á»Ŀn":7420,"Ġnhá»įn":7421,"ĠTum":7422,"á»ĳp":7423,"ives":7424,")...":7425,"Ar":7426,"Kim":7427,"ĠtÆ°á»Ľi":7428,"Ġvay":7429,"ĠsÃ¡o":7430,"Ġdáº¥m":7431,"ĠTáº£":7432,"ĠÄĲi":7433,"ĠÄĲáº±ng":7434,"iable":7435,"oll":7436,"Ġ37":7437,"ĠKhÃ¢m":7438,"ĠRet":7439,"Ġproced":7440,"Ġexpl":7441,"anding":7442,"ĠÃģi":7443,"argument":7444,"msolver":7445,"Ġproduced":7446,"Ġapproved":7447,"ĠKhuÃª":7448,"Ġfrequency":7449,"Ġbenefits":7450,"Ġdiscover":7451,"Ġsignificantly":7452,"Ġoriginal":7453,"enicillin":7454,"dpmsolver":7455,"Ġestablished":7456,"uage":7457,"ĠTiáº¿t":7458,"ĠCH":7459,"ĠÄĲá»įc":7460,"ĠBiáº¿n":7461,"Ġ1920":7462,"ĠÄĳoáº¡t":7463,"Ġ59":7464,"Ġ43":7465,"Ġable":7466,"astro":7467,"ĠÄĳáº¿m":7468,"Ban":7469,"lation":7470,"mp":7471,"ĠchÄĥn":7472,"ĠdÃ¬":7473,"ĠnhÃło":7474,"Ġglyc":7475,"Ġpháº£":7476,"ĠTrÃ¡ng":7477,"ĠPath":7478,"ĠServ":7479,"á»ĩn":7480,"odopa":7481,"Thanh":7482,"á»£t":7483,"update":7484,"Ġaccur":7485,"Ġcalcul":7486,"tributed":7487,"Báº£n":7488,"¨m":7489,"Ľn":7490,"Ġcá»ĵn":7491,"ĠthÃ¨m":7492,"Ġvideo":7493,"ĠbÃ£":7494,"Ġcháº§n":7495,"Ġsá»«ng":7496,"ĠTruy":7497,"ĠSi":7498,"Ġwid":7499,"thern":7500,"ĠJan":7501,"ĠJapan":7502,"Ġhighly":7503,"Ġgradient":7504,"Ġmajority":7505,"Ġvolume":7506,"Káº»":7507,"TÃ¢y":7508,"Tá»ķ":7509,"solver":7510,"tt":7511,"ÂŃ":7512,"ĠcÃ¹i":7513,"Ġláº©u":7514,"Ġble":7515,"Ġtrá»ħ":7516,"Ġdry":7517,"ĠTÃŃch":7518,"ĠSÃ´ng":7519,"ĠNgÃ´n":7520,"ĠNhá»Ŀ":7521,"ope":7522,"opsy":7523,"ÄĲiá»ĩn":7524,"apies":7525,"Ġprior":7526,"annica":7527,"logical":7528,"Ġreduction":7529,"Ġsexual":7530,"ATO":7531,"Ġsuggested":7532,"noise":7533,"Ġcerebral":7534,"Ġlearning":7535,"Ġvasculitis":7536,"ĠKissinger":7537,"73":7538,"For":7539,"Un":7540,"otide":7541,"Ã¶":7542,"ĠÄĳáº»":7543,"Ġthird":7544,"Ġváº§n":7545,"ĠnÃ´n":7546,"Ġput":7547,"ĠTáº¿":7548,"ĠTá»īnh":7549,"Ġrarely":7550,"eness":7551,"Ġthá»ģ":7552,"ĠBiá»ĥu":7553,"ects":7554,"Ġdop":7555,"ĠOf":7556,"HÃ£y":7557,"drop":7558,"äº":7559,"ĠvÆ°Æ¡n":7560,"ĠbÆ°á»Ľu":7561,"Ġmá»ī":7562,"Ġmatch":7563,"ĠTÃŃn":7564,"ĠMáºŃt":7565,"ĠMÃ¹a":7566,"ask":7567,"rete":7568,"ĠSar":7569,"Ġyáº¿m":7570,"agon":7571,"ĠWik":7572,"Ġacqu":7573,"Ġcomplete":7574,"ĠLÃ£nh":7575,"ENS":7576,"False":7577,"lest":7578,"ram":7579,"ĠlÃ¹i":7580,"Ġsite":7581,"Ġsteroid":7582,"ĠgÃ£y":7583,"iness":7584,"ĠHá»Ļ":7585,"ĠcÃ³c":7586,"ĠLouis":7587,"ĠChin":7588,"2014":7589,"Ġweak":7590,"Ġviruses":7591,"ytorch":7592,"Ġbackward":7593,"Ġdirectly":7594,"Ġconsumption":7595,"BÃºn":7596,"LiÃªn":7597,"TP":7598,"Ġnháº«n":7599,"á»§a":7600,"ĠriÃªu":7601,"Ġquai":7602,"Ġaim":7603,"ĠThuá»ĳc":7604,"Ġwrite":7605,"ĠPhys":7606,"tingu":7607,"prod":7608,"Ġelim":7609,"Ġmanifest":7610,"Ġintestinal":7611,"Ġsurround":7612,"Ġgood":7613,"Ġposition":7614,"Ġexposed":7615,"Ġadditional":7616,"Ġoutbreaks":7617,"Ġintrav":7618,"Ġsafe":7619,"ĠBritannica":7620,"Ġgonorrhea":7621,"ĠEncyclopÃ¦":7622,"ĠEncyclopÃ¦dia":7623,"Xem":7624,"sample":7625,"Ġbá»ĳc":7626,"Ġmáº»":7627,"Ġngá»¥y":7628,"Ġrandom":7629,"ĠThÃ¡m":7630,"ĠNgÃ¢n":7631,"Ã½t":7632,"Ġalways":7633,"ĠUK":7634,"Ġ1948":7635,"Ġsetting":7636,"ependent":7637,"Ġeducation":7638,"Ġuá»ĳn":7639,"ĠtÃ´ng":7640,"ĠcÃły":7641,"Ġcháº§u":7642,"Ġgáº¥c":7643,"ĠNá»¯":7644,"Ġram":7645,"Ġrather":7646,"ising":7647,"Ġann":7648,"erman":7649,"PhÆ°Æ¡ng":7650,"178":7651,"Ġcannot":7652,"go":7653,"sing":7654,"ydr":7655,"ĠchÃł":7656,"Ġtrá»Ļi":7657,"Ġns":7658,"Ġnuá»ĳt":7659,"ĠCÆ°á»Ŀng":7660,"chÃŃnh":7661,"ĠPercy":7662,"Ġword":7663,"Ġhome":7664,"Ġ42":7665,"anda":7666,"Ġ800":7667,"Ġnecessary":7668,"Viáº¿t":7669,"ware":7670,"Ġáº¡":7671,"ĠláºŃu":7672,"ĠhÃ¡":7673,"Ġnutrition":7674,"eros":7675,"cha":7676,"ortic":7677,"Ġlá»«a":7678,"urity":7679,"Ġasymptomatic":7680,"itivity":7681,"Ġprefer":7682,"Ġhypox":7683,"Ġjazz":7684,"Ġdeb":7685,"iotics":7686,"Ġclin":7687,"Ġremission":7688,"atty":7689,"ĠAddition":7690,"Ġindicate":7691,"filename":7692,"Ġsurvival":7693,"\";":7694,"Com":7695,"br":7696,"erous":7697,"ĠCÄĥn":7698,"chá»ī":7699,"ĠTháºŃm":7700,"Ġeas":7701,")}":7702,"flow":7703,"gens":7704,"Ã¼":7705,"ĠÄĳÃ²":7706,"ĠÄĳá»ĳng":7707,"ĠlÃ³t":7708,"Ġdon":7709,"ĠngÆ°":7710,"ĠCá»±u":7711,"ĠVá»ĩ":7712,"Ġoper":7713,"ĠLond":7714,"ĠNguyá»ĩt":7715,"Ġká»ģ":7716,"ĠUng":7717,"Ġspace":7718,"Ġemerg":7719,"Ġmeans":7720,"Ġseven":7721,"Ġeyes":7722,"AP":7723,"Lá»±c":7724,"TÃ¬m":7725,"ĠcÃłi":7726,"ĠvÃ¢n":7727,"ĠVÃłng":7728,"ĠLáº§n":7729,"aig":7730,"ĠPhiÃªn":7731,"2003":7732,"Ġsá»¥t":7733,"CÃ¹ng":7734,"gá»įi":7735,"lish":7736,"ãģ":7737,"Ġmosqu":7738,"Ġgut":7739,"ĠxÃ´ng":7740,"ĠNgá»¥y":7741,"ĠGau":7742,"oly":7743,"Ġrecurrent":7744,"entia":7745,"Ġclose":7746,"Ġinvolve":7747,"Ġdetect":7748,"Ġmodern":7749,"ĠPettigrew":7750,"Ġtransmitted":7751,"Ġsuggests":7752,"mask":7753,"Ġmechanisms":7754,"Ġsupplementation":7755,"Ġcorticosteroids":7756,"Ġnervous":7757,"Ġgingiv":7758,"Ġinformation":7759,"ï¼Į":7760,"'.":7761,"Ġmole":7762,"ĠchÃ©m":7763,"ĠsÃ´":7764,"Ġgang":7765,"inn":7766,"ĠHung":7767,"acet":7768,"ĠKhá»ĳi":7769,"lues":7770,"Ġdivid":7771,"Ġcontaining":7772,"Ġsá»©a":7773,"Ġteam":7774,"Táº¥t":7775,"gans":7776,"pes":7777,"rence":7778,"Ġln":7779,"ĠgÃ¡n":7780,"Ġkhe":7781,"Ġngáº·t":7782,"Ġtheory":7783,"isting":7784,"ĠPubl":7785,"Ġfoc":7786,"ÄĲoÃłn":7787,"Ġelect":7788,"ĠToáº£n":7789,"Ġmá»¥n":7790,"ĠLondon":7791,"If":7792,"bit":7793,"Ġter":7794,"ĠÄĳÃ¡n":7795,"ĠÄĳÃ¢m":7796,"ĠbÃ´i":7797,"ĠkiÃªng":7798,"ĠNol":7799,"anti":7800,"ĠVá»ĭ":7801,"orph":7802,"ĠBill":7803,"Ġcholes":7804,"rex":7805,"ĠDÃ¹ng":7806,"ĠChÆ°a":7807,"ĠKon":7808,"earing":7809,"ĠAnd":7810,"Ġelif":7811,"udio":7812,"ĠEdward":7813,"ULL":7814,"ĠChinese":7815,"Ġcholesterol":7816,"cpu":7817,"æľ":7818,"ĠvÃ£":7819,"Ġcháº±m":7820,"Ġsum":7821,"Ġnáº¡":7822,"Ġnod":7823,"ĠnhÆ°á»£c":7824,"ĠphÃ¡ch":7825,"titial":7826,"ĠHAV":7827,"Ġxi":7828,"Ġgieo":7829,"ĠMyc":7830,"ĠDB":7831,"ĠChÃ¡nh":7832,"uris":7833,"Ġdistingu":7834,"uced":7835,"lastic":7836,"Ġunknown":7837,"gram":7838,"ĠThuáº§n":7839,"urnal":7840,"Ġpainful":7841,"Ġinterventions":7842,"comes":7843,"dominal":7844,"ĠKingdom":7845,"Ġobserved":7846,"jugated":7847,"AIDs":7848,"Ġimpairment":7849,"Ġappropriate":7850,"AC":7851,"Cá»¥":7852,"ll":7853,"ĠbáºŃn":7854,"Ġbase":7855,"Ġráº¡p":7856,"ĠCá»©":7857,"Ã¹n":7858,"ĠPo":7859,"eliac":7860,"ĠChá»¯":7861,"thá»Ŀi":7862,"!.":7863,"VÃŃ":7864,"iph":7865,"tá»±":7866,"ĠÄĳáº¯t":7867,"ĠlÅ©ng":7868,"Ġlive":7869,"ĠdÃ¡n":7870,"ĠBau":7871,"Ġinp":7872,"ĠPy":7873,"ĠPen":7874,"ĠPháº£n":7875,"ulated":7876,"Ġorgans":7877,"ĠHoáº¡t":7878,"ĠUV":7879,"Ġadj":7880,"2002":7881,"Ġindex":7882,"ĠbÃ³p":7883,"Ġreceive":7884,"Ġ!=":7885,"US":7886,"ĠnÃªm":7887,"ĠTÃ¬m":7888,"ĠxÆ°á»Łng":7889,"char":7890,"osome":7891,"ĠRe":7892,"Ġ**":7893,"igned":7894,"ohydr":7895,"casion":7896,"Ġpossibly":7897,"ĠAustralia":7898,"buffer":7899,"dL":7900,"ĠtÃº":7901,"ĠvÃ£n":7902,"ĠhÄĥng":7903,"Ġcheckpoint":7904,"ĠHiá»ģn":7905,"ĠHáº£o":7906,"ĠÄĲÄ©nh":7907,"ĠBá»ĭ":7908,"ĠLiÃªm":7909,"Ġfat":7910,"ĠSong":7911,"Ġwall":7912,"ĠDr":7913,"ĠPhim":7914,"osus":7915,"ĠNhá»ĭ":7916,"ulations":7917,"odium":7918,"opro":7919,"...).":7920,"ÄĲÃł":7921,"Ġalter":7922,"ĠEucl":7923,"Ġspond":7924,"Ġcontamin":7925,"Ġtherapies":7926,"Ġmmol":7927,"cumprod":7928,"ickenpox":7929,"ĠNavarre":7930,"Ġstiff":7931,"OP":7932,"ration":7933,"wise":7934,"Î±":7935,"Ġtensors":7936,"Ġlight":7937,"Ġnang":7938,"Ġráº¡ng":7939,"ĠBC":7940,"lambda":7941,"CV":7942,"Other":7943,"RA":7944,"squ":7945,"Ġmi":7946,"Ġphosph":7947,"Ġruá»ĳc":7948,"ĠquÃ£ng":7949,"ĠSang":7950,"ĠDáºŃt":7951,"Ġload":7952,"osin":7953,"ett":7954,"train":7955,"Ġresidual":7956,"Ġregard":7957,"}}}":7958,"tokens":7959,"ĠCalif":7960,"ĠOpen":7961,"IN":7962,"Man":7963,"gor":7964,"mb":7965,"ĠtÃ³m":7966,"ĠÄĳÃ²n":7967,"ĠnÃ²ng":7968,"ored":7969,"orts":7970,"ellow":7971,"ĠKhá»Łi":7972,"ÄĲÃªm":7973,"MÃ¹a":7974,"ci":7975,"mit":7976,"padded":7977,"tin":7978,"xÃ£":7979,"ĠchÃªnh":7980,"Ġgá»Łi":7981,"ĠgÅ©i":7982,"ĠHLA":7983,"ĠxÃ¬":7984,"Ġxáº¥p":7985,"allow":7986,"ĠÄĲá»Ļi":7987,"eds":7988,"ĠLá»Ļ":7989,"Ġfprintf":7990,"Ġfatigue":7991,"Ġtoo":7992,"stder":7993,"ÄĲH":7994,"seq":7995,"ively":7996,"ĠStroke":7997,"Ġoutcomes":7998,"Ġscratch":7999,"Ġstrains":8000,"ĠghÃª":8001,"Ġinves":8002,"Ġbacterium":8003,"Ġminim":8004,"Ġtaking":8005,"ĠEnglish":8006,"Ġcarriers":8007,"Ġbarrier":8008,"Ġlevodopa":8009,"mathbf":8010,"Ġmosquito":8011,"stderr":8012,"Ġcop":8013,"Ġláº¯p":8014,"ĠhÃ²n":8015,"ĠkhÆ¡i":8016,"ĠÄĲiá»ĩp":8017,"ĠhoÃ£n":8018,"ĠRep":8019,"ender":8020,"Ġngoan":8021,"Ġluá»ĵng":8022,"Ġ77":8023,"NhÃ¬n":8024,"Ġá»¨ng":8025,"Ġ1992":8026,"ornia":8027,"Ġenzym":8028,"Ġtoken":8029,"Quá»ĳc":8030,"TÃªn":8031,"jection":8032,"Ġbal":8033,"ĠngÃ³i":8034,"ĠLine":8035,"ĠKÃ´ng":8036,"ĠGáº§n":8037,"ĠGiáº£n":8038,"ĠRáº¥t":8039,"Ġ64":8040,"tegr":8041,"Ġrecord":8042,"ÄĳÃ£":8043,"Ġappl":8044,"Ġsequence":8045,"Ġmalaria":8046,"Ġdifferenti":8047,"Ġmonitor":8048,"Ġlength":8049,"Ġsampling":8050,"ĠAlexand":8051,"bor":8052,"free":8053,"Ġhip":8054,"Ġrá»Ĺng":8055,"ĠCr":8056,"ĠquáºŃt":8057,"ĠÄĳá»įng":8058,"ĠHÃ²n":8059,"chem":8060,"Æ°Æ¡m":8061,"Ġ46":8062,"ĠOc":8063,"aves":8064,"ealand":8065,"Ġdeg":8066,"Ġaffecting":8067,"ĠZealand":8068,"Ġsimple":8069,"istered":8070,"400":8071,"pi":8072,"pread":8073,"qs":8074,"Ġcarry":8075,"ĠlÃ´":8076,"Ġlaboratory":8077,"Ġmo":8078,"ĠmÃłi":8079,"Ġmother":8080,"ĠchÃ©o":8081,"ĠTinh":8082,"ĠCorn":8083,"ĠBig":8084,"ĠNhÃ³m":8085,"Ġconcer":8086,"ĠXá»©":8087,"ĠUg":8088,"izing":8089,"hout":8090,"ughout":8091,"ĠAnother":8092,"uber":8093,"Ġade":8094,"Phá»Ł":8095,"Ġrisks":8096,"Ġcollec":8097,"Ġclos":8098,"Ġmalign":8099,"Ġxoáº¯n":8100,"Ġrespond":8101,"Ġobstr":8102,"Ġobesity":8103,"Ġmainly":8104,"Ġpneumoniae":8105,"Ġ&&":8106,"Ġsurgical":8107,"Ġdementia":8108,"istration":8109,"Ġethn":8110,"Ġexcessive":8111,"ENSOR":8112,"Ġhypoxia":8113,"TÄĥng":8114,"cos":8115,"ĠÄĤn":8116,"Ġkey":8117,"Ġdá»Ł":8118,"ĠNULL":8119,"Ġwar":8120,"Ġkhuáº¥y":8121,"Ġtá»¥ng":8122,"Ġ1994":8123,"Ġlaser":8124,"Ġkeep":8125,"SÃłi":8126,"diá»ĩt":8127,"ging":8128,"Î²":8129,"ĠtÃºng":8130,"Ġtáº©m":8131,"Ġchá»Ľp":8132,"Ġder":8133,"ĠphÃ´":8134,"Ġfull":8135,"ĠDig":8136,"ĠDomin":8137,"ĠAug":8138,"lect":8139,"Truyá»ĩn":8140,"ĠbuÃ´ng":8141,"Ġvariety":8142,"Ġslight":8143,"ĠEuclid":8144,"CÃ¢y":8145,"Má»¥c":8146,"TÆ°Æ¡ng":8147,"mar":8148,"mission":8149,"ĠmÃŃa":8150,"Ġdang":8151,"ĠrÃŃt":8152,"áº¯k":8153,"ĠRang":8154,"Ġ51":8155,"ĠInfec":8156,"everal":8157,"Ġspecifically":8158,"ridge":8159,"nÆ°á»Ľc":8160,"ĠtÃ¡ng":8161,"Ġhá»ĳc":8162,"Ġsufficient":8163,"Ġnáº¡c":8164,"Ġduration":8165,"ĠTÆ°á»£ng":8166,"Ġkhá»ĳc":8167,"ĠÄĳá»Ľn":8168,"ĠMugg":8169,"ĠBÃłn":8170,"ĠLÃ£ng":8171,"Ġrad":8172,"ĠOx":8173,"Ġattention":8174,"Ġsymptomatic":8175,"ÄĳÃ¡nh":8176,"Ġ1988":8177,"Ġrelatively":8178,"Ġsupply":8179,"ylitis":8180,"Ġreduces":8181,"learning":8182,"Ġheadache":8183,"ĠMany":8184,"projw":8185,"Ġcardiac":8186,"lestep":8187,"ĠCalifornia":8188,"HÃ³a":8189,"NÃ³i":8190,"fl":8191,"ients":8192,"sid":8193,"ĠlÃ©o":8194,"ĠlÃŃt":8195,"Ġsun":8196,"Ġpal":8197,"ĠphiÃªu":8198,"Ġsoft":8199,"Ġ1993":8200,"Ġoutside":8201,"meth":8202,"Máº¯m":8203,"TÃ¹y":8204,"XÃ´i":8205,"gl":8206,"Ġá»ĳm":8207,"Ġvom":8208,"Ġrá»ĥ":8209,"ĠHá»ķ":8210,"ĠBiá»ĥn":8211,"Ġfall":8212,"ĠKÃ½":8213,"ĠRá»ĵng":8214,"PhÃŃa":8215,"Ġ1947":8216,"Ġanimal":8217,"ĠMusic":8218,"frey":8219,"uting":8220,"Ġthá»ĳt":8221,"Ġlá»į":8222,"Ġbá»Ļc":8223,"ĠchÄĥng":8224,"Ġdid":8225,"ĠTin":8226,"Ġkhá»Ń":8227,"ĠphÃ¬nh":8228,"Ġphun":8229,"ĠViá»ħn":8230,"oman":8231,"Ġrestr":8232,"ĠOver":8233,"gnos":8234,"lobal":8235,"Ġregular":8236,"Ġimproved":8237,"Ġkhuynh":8238,"Ġsepar":8239,"(-":8240,"Di":8241,"aemia":8242,"gest":8243,"Ġtá»ĳng":8244,"Ġtee":8245,"ĠthÃ³c":8246,"Ġváº§y":8247,"ĠlÃµ":8248,"Ġgastro":8249,"ĠCoch":8250,"arly":8251,"ĠThyroid":8252,"ĠXIX":8253,"uppress":8254,"ĠFood":8255,"uclear":8256,"Ġhealthcare":8257,"Ġcoron":8258,"ĠmuÃ´n":8259,"HoÃłng":8260,"Ġabnormalities":8261,"Ġtopical":8262,"idespread":8263,"Ġisolated":8264,"Ġfungal":8265,"Ġstomach":8266,"Ġtoxic":8267,"ĠSEATO":8268,"dropout":8269,"Ġintravenous":8270,"Ġinvestig":8271,"view":8272,"Ġten":8273,"Ġhard":8274,"ĠCÃ¡":8275,"ĠCaus":8276,"Ġvá»įt":8277,"ĠHyp":8278,"cher":8279,"ĠBáº£ng":8280,"ura":8281,"abil":8282,"2012":8283,"Ġ1966":8284,"Ġcholerae":8285,"ĠControl":8286,"57":8287,"Táº¿t":8288,"sigma":8289,"wh":8290,"Ġ$":8291,"nhÃł":8292,"Ġchan":8293,"Ġtradition":8294,"ĠngÃµ":8295,"Ġráº¡c":8296,"Ġfec":8297,"ĠDáº¡":8298,"ĠPhÃ³ng":8299,"Ġdoi":8300,"ends":8301,"neys":8302,"Ġ1985":8303,"apeu":8304,"2001":8305,"ophys":8306,"comp":8307,"1965":8308,"Ġmethods":8309,"ĠErn":8310,"96":8311,"CÃ¢u":8312,"IT":8313,"kyl":8314,"rand":8315,"ĠÃ¢u":8316,"Ġtuyáº¿t":8317,"Ġhá»ĳi":8318,"Ġnhá»¥c":8319,"ĠTensor":8320,"Ġquá»¹":8321,"itar":8322,"Ġdocum":8323,"ĠHoÃł":8324,"ÄĲá»Ļng":8325,"Ġtuá»³":8326,"ogle":8327,"Ġrule":8328,"Ġchange":8329,"Ġexperi":8330,"Ġdepends":8331,"Ġwidely":8332,"FA":8333,"col":8334,"cording":8335,"kes":8336,"mal":8337,"Ġthung":8338,"Ġthick":8339,"ĠvÃ²":8340,"ĠchÃ¹m":8341,"Ġsick":8342,"Ġpenicillin":8343,"Ġgiáº¿ng":8344,"ĠTÃło":8345,"instein":8346,"Ġtá»ħ":8347,"ĠVÃ²ng":8348,"alk":8349,"aired":8350,"Ġwidespread":8351,"ĠGÃ²":8352,"iatic":8353,"idity":8354,"etwork":8355,"ĠOb":8356,"Ġantigen":8357,"ĠAll":8358,"Ġ130":8359,"Ġsubclinical":8360,"Ġpersons":8361,"Ġremain":8362,"common":8363,"Ġsecre":8364,"Ġinvolvement":8365,"Ġcontrac":8366,"Ġshowed":8367,"register":8368,"reatment":8369,"Ġartery":8370,"Ġpreviously":8371,"Ġglut":8372,"Ġphysician":8373,"ĠcudaCheck":8374,"Ġencephalitis":8375,"Ġbleeding":8376,"300":8377,"ĠMÆ°á»Ŀi":8378,"ĠLÆ°á»£ng":8379,"ĠPom":8380,"Ġtoan":8381,"ĠPhu":8382,"ado":8383,"ĠFil":8384,"bsite":8385,"ĠAbout":8386,"91":8387,"HÃ¬nh":8388,"Ġná»Ļm":8389,"Ġrá»¥ng":8390,"ĠVictor":8391,"ĠLibr":8392,"ĠTrÃºc":8393,"Ġlá»ģ":8394,"ĠNháºŃm":8395,"evere":8396,"ĠHoÃłnh":8397,"ended":8398,"ĠWomen":8399,"NgÃ´":8400,"Ġstop":8401,"Ġthoa":8402,"Ġmedicine":8403,"2006":8404,"Ġreleas":8405,"Ġclassification":8406,"Ġáº¢nh":8407,"Sh":8408,"VÅ©":8409,"ĠngÆ¡i":8410,"ĠNÄĥng":8411,"ĠrÃ¡p":8412,"ĠxÄĥng":8413,"ĠLiá»ĩt":8414,"ĠTrÃ¬nh":8415,"Ġ44":8416,"Chu":8417,"Ġinsufficient":8418,"Ġattem":8419,"iote":8420,"HIV":8421,"ST":8422,"dir":8423,"fch":8424,"æĺ":8425,"ĠÄĳáº¡c":8426,"Ġthiáº¿p":8427,"Ġbind":8428,"Ġsel":8429,"Ġsodium":8430,"Ġná»¥":8431,"Ġpytorch":8432,"Ġphase":8433,"ĠCÃ¡nh":8434,"ĠCáº£o":8435,"ĠVp":8436,"ali":8437,"ĠSanh":8438,"uture":8439,"Ġprognosis":8440,"ÄĲá»ģn":8441,"Ġstool":8442,"Ġ1962":8443,"tokines":8444,"Pháº£i":8445,"intestinal":8446,"lasm":8447,"Ġuntreated":8448,"Ġenlarg":8449,"Ġthroughout":8450,"Ġimproving":8451,"ĠSnitch":8452,"Ġactivities":8453,"Ġappearance":8454,"Ġcharacteristic":8455,"Ġdifficulty":8456,"Ġeffic":8457,"Ġreason":8458,"Ġlaryngitis":8459,"casionally":8460,"Ġadequate":8461,"88":8462,"Er":8463,"bes":8464,"car":8465,"rstd":8466,"Ġmá»§":8467,"ĠngÃ²i":8468,"ĠCáº§m":8469,"Ġcá»§i":8470,"ĠVacc":8471,"ĠHer":8472,"Ġxáº¯t":8473,"ĠBáº£y":8474,"ĠSpec":8475,"ĠtoÃł":8476,"ols":8477,"ThÆ°a":8478,"Ġ140":8479,"Ġstrateg":8480,"Ġchá»£t":8481,"Ġweek":8482,"Ġpolymer":8483,"Ġlittle":8484,"Ġdopamine":8485,"gorith":8486,"97":8487,"Cao":8488,"SÆ°":8489,"gh":8490,"ois":8491,"with":8492,"ĠtÃ¢u":8493,"Ġláº¡p":8494,"ĠbÆ¡i":8495,"ĠpÃŃa":8496,"Ġkhiáº¿t":8497,"ĠphÃ¡c":8498,"ĠHay":8499,"ĠMon":8500,"atur":8501,"ĠSee":8502,"ĠGree":8503,"ented":8504,"load":8505,"terior":8506,"antine":8507,"ĠJr":8508,"ills":8509,"NhÃ¢n":8510,"Ġ1957":8511,"KhÃ¡ng":8512,"Ġscale":8513,"cript":8514,"Ġtá»īa":8515,"Ġtemperature":8516,"?.":8517,"Káº¿t":8518,"lier":8519,"wo":8520,"ĠÃºp":8521,"amb":8522,"Ġquáº¥y":8523,"ĠVÆ°á»Ŀn":8524,"aste":8525,"ĠChild":8526,"Thá»±c":8527,"atinh":8528,"ĠFound":8529,"ĠJul":8530,"Ġ72":8531,"Ġintroduced":8532,"51":8533,"BÃ¬nh":8534,"Má»Ĺi":8535,"Some":8536,"To":8537,"[:":8538,"feeding":8539,"oader":8540,"right":8541,"tes":8542,"Ġchuá»Ļc":8543,"Ġchá»ĳn":8544,"Ġchance":8545,"Ġsqu":8546,"Ġtravel":8547,"Ġrá»ī":8548,"ĠCÃºc":8549,"ĠVold":8550,"estion":8551,"ĠoÃ¡n":8552,"Ġotitis":8553,"ĠThiá»ģu":8554,"Ġanal":8555,"ĠTrÃ²":8556,"rogen":8557,"Ġtoler":8558,"elius":8559,"ĠPháº£":8560,"Ġeating":8561,"Ġalmost":8562,"mptoms":8563,"Ġintest":8564,"Ġundernutrition":8565,"wards":8566,"Ġulcers":8567,"ĠAcute":8568,"Ġhands":8569,"Ġdelay":8570,"urgery":8571,"transpose":8572,"Ġcrises":8573,"ĠFranc":8574,"Ġbehavior":8575,"ĠMuggle":8576,"apeutic":8577,".:":8578,"Ai":8579,"Car":8580,"RNA":8581,"ture":8582,"wig":8583,"ĠháºŃn":8584,"Ġnáº¯p":8585,"ĠdÃ¢m":8586,"ester":8587,"ĠÄĲáº¯c":8588,"elv":8589,"lev":8590,"aine":8591,"entially":8592,"Ġ```":8593,"ĠÃĶi":8594,"Black":8595,"Tensor":8596,"group":8597,"lie":8598,"scal":8599,"Ġti":8600,"ĠtÃ©":8601,"Ġliáº¿c":8602,"ĠmÃŃt":8603,"Ġpep":8604,"ĠVáºŃn":8605,"ĠMor":8606,"ĠBlood":8607,"ĠGhi":8608,"Ġgiá»Ĺ":8609,"theo":8610,"eter":8611,"adv":8612,"ĠRa":8613,"Ġ53":8614,"Ġ56":8615,"ĠEp":8616,"ĠInt":8617,"Ġ1986":8618,"Ġrelations":8619,"ĠSoutheast":8620,"Ġremoved":8621,"ipheral":8622,"lÃł":8623,"men":8624,"ĠlÃŃ":8625,"ĠsÃ¹ng":8626,"ĠngÆ¡":8627,"Ġrules":8628,"ĠClass":8629,"ÄĲá»Ļt":8630,"Ġbecomes":8631,"Ġopen":8632,"ÃĶNG":8633,"ĠvectÆ¡":8634,"MD":8635,"Rau":8636,"VÃµ":8637,"Ġva":8638,"Ġláº¡ng":8639,"Ġhere":8640,"Ġmáº¿n":8641,"ĠchÃ¹ng":8642,"Ġnational":8643,"Ġgol":8644,"Ġgastr":8645,"ĠTáº¡o":8646,"ĠTNF":8647,"Ġngá»©a":8648,"ĠMe":8649,"ĠThÃ¬":8650,"Ġcond":8651,"Ġconduc":8652,"âĢľ":8653,"ĠFurther":8654,"Ġabdominal":8655,"output":8656,"Ġnegative":8657,"Ġdefines":8658,"Ġ1982":8659,"Ġshard":8660,"Ġthroat":8661,"Ġ<=":8662,"logits":8663,"Ġdermat":8664,"Ġnecrosis":8665,"Ġsafety":8666,"Ġchemical":8667,"Ġerythemat":8668,"Ġethnic":8669,"())":8670,"Æł":8671,"Ġngáº¯m":8672,"Ġthá»īnh":8673,"ĠBá»įn":8674,"ĠBMI":8675,"ĠChung":8676,"ĠPháº£i":8677,"ocyt":8678,"2004":8679,"Ġspecial":8680,"ĠxoÃ¡":8681,"800":8682,"DE":8683,"sky":8684,"åĪ":8685,"çļ":8686,"éĻ":8687,"Ġháº¿n":8688,"Ġkiáº¿ng":8689,"Ġnhan":8690,"Ġnhá»ĩn":8691,"ĠTiá»ħn":8692,"ĠCur":8693,"ament":8694,"ĠxÃŃt":8695,"ĠMáº«u":8696,"ĠBÃºn":8697,"ĠLáº§u":8698,"rokes":8699,"ĠDec":8700,"ĠDuyÃªn":8701,"ĠGaul":8702,"ĠHoáº±ng":8703,"ending":8704,"Ġalternative":8705,"anning":8706,"Ġofficial":8707,"ĠGaulle":8708,"=-":8709,"LáºŃp":8710,"Ġtáº¡ng":8711,"org":8712,"reen":8713,"Ġthuá»·":8714,"oster":8715,"ifier":8716,"ĠHoÃ¡":8717,"ÄĲáº·c":8718,"Ġtypical":8719,"Ġparticip":8720,"ĠCDC":8721,"Ġinstead":8722,"include":8723,"Ġdegree":8724,"Hiá»ĩp":8725,"It":8726,"VÄ©nh":8727,"cient":8728,"gal":8729,"name":8730,"Ġess":8731,"Ġthyroxine":8732,"Ġson":8733,"ĠsÃºc":8734,"ĠtrÃ¢n":8735,"ĠnÃ¨":8736,"ĠnhÃ£":8737,"Ġphá»ĵn":8738,"Ġthá»±":8739,"ĠViáº¿t":8740,"Ġfed":8741,"ĠhoÃłi":8742,"emort":8743,"osuppress":8744,"uries":8745,"ula":8746,"utaneous":8747,"Ġdisability":8748,"eprosy":8749,"ĠWh":8750,"ĠWestern":8751,"Ġtube":8752,"romycin":8753,"berg":8754,"induced":8755,"Ġ1981":8756,"Ġoccurring":8757,"Ġcoll":8758,"Ġtested":8759,"Ġlifest":8760,"Ġsuggest":8761,"lnf":8762,"Ġcontrolled":8763,"Ġbeneficial":8764,"Ġkidneys":8765,"Ġadverse":8766,"ĠSymptoms":8767,"Ġprotective":8768,"Ġcontinuous":8769,"Ġroutine":8770,"Ġabsence":8771,"Ġfeet":8772,"clusive":8773,"Ġdemonstrated":8774,"Ġsurrounding":8775,"ĠCauses":8776,"ophysiology":8777,"ĠVoldemort":8778,"ca":8779,"lim":8780,"ĠtÆ¡i":8781,"Ġcross":8782,"nhower":8783,"Ġngáº¯t":8784,"ĠNov":8785,"ĠMel":8786,"ĠLatinh":8787,"otal":8788,"Ġ52":8789,"ĠEise":8790,"Ġfoot":8791,"attle":8792,"Ġtokens":8793,"Ġdivided":8794,"ĠEisenhower":8795,"*)":8796,"bi":8797,"down":8798,"lang":8799,"áĢ":8800,"ĠlÃ¡ng":8801,"Ġhi":8802,"ĠbÃŃch":8803,"Ġchá»įc":8804,"ĠTÃºc":8805,"amous":8806,"ĠVá»¥":8807,"itus":8808,"Ġtoge":8809,"ĠKhÃ¡ch":8810,"ThÆ¡":8811,"Ġembed":8812,"gress":8813,"Ġscan":8814,"Ġpresents":8815,"Ġ|\\":8816,"amples":8817,"Ġdefect":8818,"ĠCamb":8819,"Ġvector":8820,"ĠCochrane":8821,"Ġtogether":8822,"AL":8823,"Ad":8824,"Hu":8825,"ĠcÃ´n":8826,"Ġcuá»ĳng":8827,"ĠvÄ©nh":8828,"Ġmig":8829,"Ġpatch":8830,"ĠNot":8831,"ĠHiá»ĥn":8832,"Æ°á»Ľm":8833,"ems":8834,"Ġkhoan":8835,"ineering":8836,"Ġcontain":8837,"Ġneon":8838,"Ġcolor":8839,"ishing":8840,"Ġgoal":8841,"Ġtherefore":8842,"Ġaspirin":8843,"BPS":8844,"ael":8845,"cor":8846,"map":8847,"xt":8848,"year":8849,"å¾":8850,"é»":8851,"Ġvascular":8852,"Ġhors":8853,"Ġharm":8854,"Ġsolution":8855,"Ġnan":8856,"ĠCÃłn":8857,"ĠCáº¥m":8858,"amus":8859,"ĠHeart":8860,"ĠMiáº¿n":8861,"ĠÄĲÃ¡p":8862,"Ġinduc":8863,"ĠChamp":8864,"ĠGreg":8865,"Ġconcent":8866,"Ġeng":8867,"ĠQuáº¿":8868,"Ġdoct":8869,"otrex":8870,"lux":8871,"ĠJos":8872,"rich":8873,"2021":8874,"Ġcontin":8875,"Ġchildhood":8876,"Ġrelief":8877,"Ġtrait":8878,"Ġhygi":8879,"khu":8880,"ĠNewton":8881,"Ġbasal":8882,"Ġbiopsy":8883,"Ġfluids":8884,"default":8885,"Ġmembrane":8886,"Ġmatmul":8887,"Ġcarcinoma":8888,"================":8889,"Ġsources":8890,"Ġcosts":8891,"ĠAdditionally":8892,"Ġstiffness":8893,"Ġmalignant":8894,"Ġvomiting":8895,"Ġefficacy":8896,"Ġhorses":8897,"WHO":8898,"mel":8899,"rist":8900,"Ġtháº¯m":8901,"ĠvÃ¡n":8902,"ĠhÃ©t":8903,"ĠkÃ¬m":8904,"ĠTyp":8905,"ĠCS":8906,"ties":8907,"ĠVu":8908,"ĠVirus":8909,"ĠMo":8910,"ĠPle":8911,"oming":8912,"ector":8913,"Ġproducts":8914,"1995":8915,"ĠEngland":8916,"Ġmembers":8917,"64":8918,"Kho":8919,"Lá»ĭch":8920,"bá»ĩnh":8921,"sá»±":8922,"çİ":8923,"Ġenti":8924,"ģ¡":8925,"ĠCáº£ng":8926,"ĠHÃ£n":8927,"che":8928,"ĠMari":8929,"ĠÄĲá»ĳng":8930,"ĠNgáº¡n":8931,"ĠDÆ°":8932,"thing":8933,"Ġeo":8934,"Ġdogs":8935,"opic":8936,"âĢĭ":8937,"ĠKhe":8938,"ĠKhÆ°Æ¡ng":8939,"effec":8940,"oids":8941,"backer":8942,"Ġdecay":8943,"Ġâģ¡":8944,"1974":8945,"ĠGram":8946,"book":8947,"Ġdeliver":8948,"Ġâī¥":8949,"Ġcarbohydr":8950,"oprotein":8951,"65":8952,"HÃ¡t":8953,"]);":8954,"kel":8955,"ĠtÄĥm":8956,"Ġcá»«":8957,"Ġláº¯c":8958,"ĠchÃ¨n":8959,"Ġsá»¹":8960,"ĠgÃ²":8961,"ĠNon":8962,"ĠDuring":8963,"á»ıa":8964,"avirus":8965,"token":8966,"Ġconfirm":8967,"ThuáºŃt":8968,"ĠTechn":8969,"Dia":8970,"bal":8971,"gia":8972,"ukin":8973,"Ġiron":8974,"Ġtext":8975,"ĠthiÃªng":8976,"ĠmÃ¨":8977,"ĠchÃ¬":8978,"Ġsáº¥y":8979,"Ġtrá»įn":8980,"Ġnasal":8981,"Ġgáº£":8982,"ĠTuyáº¿t":8983,"ĠTáº§m":8984,"ĠNá»ģn":8985,"ĠÄĳá»Ŀ":8986,"ĠHáº±ng":8987,"ĠÄĲá»":8988,"ĠÄĲÃ¡":8989,"ĠTranh":8990,"Ġfatal":8991,"ĠKáº¹":8992,"ĠGab":8993,"olism":8994,"âĢ¢":8995,"ĠUÃ´ng":8996,"Ġstrokes":8997,"ĠcÃ¡y":8998,"encl":8999,"Ġaged":9000,"Ġagent":9001,"Ġprescri":9002,"Ġimmunity":9003,"keys":9004,"soriasis":9005,"Ġregim":9006,"ĠMalaysian":9007,"Ġflops":9008,"Ġsensitivity":9009,"Ġsalt":9010,"Ġmelanoma":9011,"Ġpleural":9012,"reshold":9013,"Ġrecognized":9014,"Ġprocedure":9015,"ĠLinebacker":9016,"ĠCornelius":9017,"ĠAugust":9018,"kylosing":9019,"ĠPomfrey":9020,"Ġerythematosus":9021,"NI":9022,"sinh":9023,"tÃªn":9024,"Ġthiá»ģn":9025,"ĠchÃ²i":9026,"Ġnext":9027,"tian":9028,"ĠSaint":9029,"ĠDá»¯":9030,"aph":9031,"2022":9032,"board":9033,"Ġskip":9034,"Ġreleased":9035,"ĠFoundation":9036,"CÃł":9037,"SC":9038,"dÃ¹ng":9039,"ji":9040,"node":9041,"utions":9042,"vol":9043,"ĭâĢĭ":9044,"Ġtáº¡":9045,"ĠÄĳÃª":9046,"ĠlÃ¨o":9047,"ĠlÃ©n":9048,"Ġnhá»ĳt":9049,"ĠHed":9050,"ĠHigh":9051,"ĠTrá»¥":9052,"ĠNgá»¯":9053,"ĠDáº§n":9054,"ÄĲÆ°á»£c":9055,"Ġkhuáº¿ch":9056,"Ġexternal":9057,"ĠâĢĭâĢĭ":9058,"ĠÎ¼":9059,"obacterium":9060,"Ġslightly":9061,"HÃĶNG":9062,"SP":9063,"UM":9064,"ns":9065,"Ġcac":9066,"ĠbÃłnh":9067,"Ġsch":9068,"Ġtrau":9069,"ĠTP":9070,"Ġngáº£":9071,"ense":9072,"arrow":9073,"ĠBÃ£i":9074,"Ġfeeding":9075,"ĠSub":9076,"eland":9077,"ĠDan":9078,"ĠPhÆ°á»Ŀng":9079,"thon":9080,"ife":9081,"Thuá»ĳc":9082,"Ġngoáº·t":9083,"Triá»ĩu":9084,"riel":9085,"ĠmÃ£nh":9086,"ĠGoogle":9087,"Ġnatural":9088,"cÃ´":9089,"stitial":9090,"tum":9091,"Ġure":9092,"ĠtÃŃa":9093,"Ġbá»ĩ":9094,"Ġmanh":9095,"Ġnor":9096,"Ġrif":9097,"ĠMin":9098,"ĠMÃ¡y":9099,"also":9100,"ĠÄĲáºŃu":9101,"ĠLÃ´":9102,"ĠTre":9103,"Ġnghiá»ģn":9104,"ĠDinh":9105,"ĠAfter":9106,"thuá»Ļc":9107,"oscopy":9108,"ĠQuá»¹":9109,"Ġkhoáº»":9110,"ThÃ´ng":9111,"ĠEinstein":9112,"ĠJune":9113,"ĠAnti":9114,"Ġadult":9115,"positive":9116,"Ġimmunosuppress":9117,"Ġinterstitial":9118,"Ġpopulations":9119,"shard":9120,"(\"|":9121,"Ġextrem":9122,"Ġgeneralized":9123,"Ġprotection":9124,"Ġfamil":9125,"Ġintrac":9126,"Ġdetermined":9127,"ĠGaliote":9128,"Ġmakes":9129,"Ġcytokines":9130,"Ġnormally":9131,"Ġfeel":9132,"ĠMichael":9133,"ĠJournal":9134,"Ġventricular":9135,"Ġmucosa":9136,"ĠPneumococcus":9137,"Ġmanifestations":9138,"ĠOxford":9139,"otrexate":9140,"://":9141,"oT":9142,"Ġváº¡ch":9143,"ĠcháºŃp":9144,"Ġgall":9145,"ĠTÃ²a":9146,"ĠngáºŃm":9147,"ĠLiá»ĩu":9148,"leng":9149,"ecause":9150,"ete":9151,"itical":9152,"Ġacet":9153,"Ġvá»¥n":9154,"Ġemail":9155,"Äĳáº·c":9156,"1973":9157,"Ġsource":9158,"ĠLibrary":9159,")).":9160,"XÃ¡c":9161,"cu":9162,"pop":9163,"tiá»ģn":9164,"åı":9165,"Ġmá»ķ":9166,"Ġsigma":9167,"Ġknow":9168,"Ġpast":9169,"ĠMil":9170,"ĠÄĲá»Ŀi":9171,"Ġfinal":9172,"ĠSá»©c":9173,"ĠhoÃ¡n":9174,"ĠDao":9175,"ĠChronic":9176,"ĠGroup":9177,"Chá»§":9178,"ÄĳÆ°á»Ŀng":9179,"ront":9180,"Ġ1984":9181,"ĠThuá»Ļt":9182,"weights":9183,"ails":9184,"hyth":9185,"1956":9186,"Ġlanguage":9187,"Ġmeaning":9188,"Tuá»ĵng":9189,"ĠGreek":9190,"EN":9191,"net":9192,"pon":9193,"Ãĵ":9194,"ĠvÃ¡y":9195,"ĠchÆ°á»Ľc":9196,"ĠÄĲÃŃnh":9197,"ĠÄĲá»ĳc":9198,"ĠLuc":9199,"ĠSÃ¡ng":9200,"lege":9201,"ĠGI":9202,"Ġ57":9203,"Ġ49":9204,"ĠFed":9205,"Ġacross":9206,"Ġ1024":9207,"ĠYou":9208,"enced":9209,"unctions":9210,"Ġupdate":9211,"Ġ2024":9212,"ophen":9213,"ergy":9214,"Ġcombined":9215,"master":9216,"Ġsynth":9217,"BÆ°á»Ľc":9218,"Cl":9219,"DÃ¹":9220,"MO":9221,"gelu":9222,"jean":9223,"å®":9224,"Ġtua":9225,"ĠÄĳÃłng":9226,"Ġver":9227,"Ġlá»©a":9228,"Ġbillion":9229,"ĠchÆ°á»Ľng":9230,"Ġgáº¡t":9231,"Ġgá»ıi":9232,"ereas":9233,"ĠCÃ¹":9234,"ĠCá»ĵ":9235,"Ġaid":9236,"ĠHáº¡c":9237,"ĠBáº¥y":9238,"ĠThÃªm":9239,"ĠLina":9240,"ĠPe":9241,"Ġfuture":9242,"ĠSen":9243,"Ġhouse":9244,"Ġrati":9245,"length":9246,"ception":9247,"Ġ1951":9248,"Ġsurface":9249,"ĠNSAIDs":9250,"__()":9251,"Ġcontrast":9252,"Ġminutes":9253,"Ġ%-":9254,"Ġresearchers":9255,"Ġcuá»ĵng":9256,"transformer":9257,"Ġcontribute":9258,"Ġcurrently":9259,"ĠArchived":9260,"ĠValjean":9261,"Ġesophagitis":9262,"Ġfemales":9263,"ĠIndian":9264,"ĠUganda":9265,"Ġlifestyle":9266,"RS":9267,"ped":9268,"ptr":9269,"second":9270,"ĠHF":9271,"esia":9272,"ĠMis":9273,"ĠTháºŃp":9274,"ĠSince":9275,"ĠCháº¯c":9276,"idx":9277,"loy":9278,"ÄĲáº£ng":9279,"2020":9280,"Ġsurve":9281,"ixed":9282,"Ġactivation":9283,"Ġcreate":9284,"ĠServices":9285,"ĠJapanese":9286,"fen":9287,"åŃ":9288,"Ġtáº£o":9289,"Ġvocab":9290,"Ġbáº»":9291,"Ġbag":9292,"ĠchÃ¡nh":9293,"ĠtrÃ¡n":9294,"Ġtrá»Ļm":9295,"Ġdev":9296,"ĠTom":9297,"ĠrÆ°á»¡i":9298,"inol":9299,"ama":9300,"aran":9301,"Ġintegr":9302,"asis":9303,"ĠSáº£nh":9304,"eline":9305,"icted":9306,"ĠDef":9307,"ĠQuÃ¡n":9308,"ThiÃªn":9309,"sequence":9310,"Ġ99":9311,"NháºŃt":9312,"ĠThá»ĭt":9313,"Ġnhuá»ĩ":9314,"Ġidx":9315,"Ġsmaller":9316,"Ġheader":9317,"ĠManagement":9318,"Ġglobally":9319,"append":9320,"Ġnucleotide":9321,"().__":9322,"Ġhistor":9323,"Ġneuron":9324,"'t":9325,"Ab":9326,"ko":9327,"ls":9328,"wd":9329,"ĠkhiÃªu":9330,"ĠrÆ¡m":9331,"ino":9332,"ĠVitamin":9333,"ĠQuáº§n":9334,"ils":9335,"ĠRed":9336,"ThÃ¡i":9337,"monella":9338,"Ġcontext":9339,"Ġconsists":9340,"1976":9341,"Ġcorrect":9342,"Ġlarger":9343,"BÃ¹i":9344,"DR":9345,"Ná»Ĺi":9346,"cup":9347,"des":9348,"tÃŃnh":9349,"zing":9350,"ĠÃło":9351,"Ġib":9352,"Ġváº¡t":9353,"Ġváº«y":9354,"ĠbÆ°á»Ľm":9355,"Ġchickenpox":9356,"ĠrÃ¢u":9357,"Ġaudio":9358,"tible":9359,"ĠHep":9360,"ĠMun":9361,"ĠMÃºa":9362,"alphas":9363,"ĠÄĲan":9364,"ĠÄĲáº§m":9365,"ĠÄĲÃłm":9366,"ĠThÆ°a":9367,"Ġanaemia":9368,"Ġwarm":9369,"Ġtoa":9370,"ĠNguy":9371,"ĠDiá»ħm":9372,"á»Ńng":9373,"leukin":9374,"ilin":9375,"Ġyellow":9376,"Ġ33":9377,"ĠXÃ¢y":9378,"Ġproposed":9379,"Ġstre":9380,"illus":9381,"2010":9382,"Ġrecur":9383,"Ġreaction":9384,"Ġperipheral":9385,"ouk":9386,"ĠParameter":9387,"Ġrelative":9388,"Ġworse":9389,"key":9390,"ranial":9391,"ready":9392,"Ġfunctional":9393,"1969":9394,"Ġbenign":9395,"ilepsy":9396,"Ġfreqs":9397,"ĠPrognosis":9398,"Ġlogic":9399,"Ġshows":9400,"Ġphototherapy":9401,"Ġsanitation":9402,"Ġoptimizer":9403,"ĠAPI":9404,"Ġaccumulation":9405,"ĠPMID":9406,"Ġplaque":9407,"Ġbaby":9408,"Ġpreventing":9409,"Ġcystitis":9410,"Ġgastrointestinal":9411,"Ġintestine":9412,"Ġhygiene":9413,"ĠHedwig":9414,"67":9415,"CH":9416,"Sá»ĳ":9417,"¥c":9418,"Ġlab":9419,"Ġmá»ĵi":9420,"ĠNob":9421,"ĠCor":9422,"Ġthá»ģm":9423,"ĠxÃ³t":9424,"cháº³ng":9425,"ĠCholera":9426,"ĠAg":9427,"Ġgiá»¥c":9428,"Ġlá»Ŀ":9429,"tháº¿":9430,"eases":9431,"ĠInf":9432,"Ġthoáº£i":9433,"Ġwebsite":9434,"ipid":9435,"ĠMedical":9436,"Kiá»ĥm":9437,"come":9438,"sl":9439,"ä½":9440,"Ġtáº¥c":9441,"ĠcÃłn":9442,"Ġcyt":9443,"Ġchannels":9444,"Ġnov":9445,"ĠgÃºt":9446,"ĠNay":9447,"ĠHipp":9448,"ĠÄĲo":9449,"ĠÄĲoÃłi":9450,"ĠLÆ°á»¡ng":9451,"iton":9452,"Ġful":9453,"Ġface":9454,"Ġhom":9455,"ĠKÃªnh":9456,"ulating":9457,"ĠQuáº¥t":9458,"ĠIL":9459,"Ã¨re":9460,"ĠHoáº¡n":9461,"oto":9462,"ÄĲÃ³":9463,"ÄĲá»ģ":9464,"ĠWil":9465,"Ġuses":9466,"Ġrecover":9467,"Äĳá»ĥ":9468,"ĠStrept":9469,"Ġ1987":9470,"ĠghÃ©":9471,"Ġsubsequent":9472,"1978":9473,"Ġdifference":9474,"ĠMedicine":9475,"Æ¯á»":9476,"istry":9477,"Ġmaterial":9478,"Ġsuccessful":9479,"Ġcomposite":9480,"ĠDBMS":9481,"scale":9482,"63":9483,"Tiá»ĥu":9484,"dict":9485,"wick":9486,"Ġclean":9487,"Ġrobot":9488,"ĠCity":9489,"esh":9490,"chá»§":9491,"ĠBáº¥t":9492,"ĠQuáº£n":9493,"izations":9494,"Ġphá»¥ng":9495,"Ġbuff":9496,"ĠAsian":9497,"Háº£i":9498,"ION":9499,"diff":9500,"fu":9501,"vÃ¬":9502,"Ġtáº±m":9503,"ĠbÃ¹a":9504,"Ġmiddle":9505,"ĠcháºŃu":9506,"Ġsd":9507,"Ġshe":9508,"Ġsá»ıi":9509,"Ġnose":9510,"Ġkhinh":9511,"Ġrise":9512,"Ġquáº¡t":9513,"ĠHáº¡o":9514,"ĠBet":9515,"ĠBáº¯t":9516,"ĠBá»ĵng":9517,"ĠLo":9518,"Ġfill":9519,"rob":9520,"eles":9521,"ĠChÃłm":9522,"this":9523,"uls":9524,"Ġhair":9525,"tract":9526,"ÄĲÃ´i":9527,"ocardi":9528,"TrÃł":9529,"Trang":9530,"Chá»¯":9531,"riv":9532,"á»Ŀn":9533,"Ġ1802":9534,"ensin":9535,"2013":9536,"Ġinfect":9537,"Ġemp":9538,"Ġparas":9539,"Ġadoles":9540,"every":9541,"encies":9542,"Ġplays":9543,"Ġdevelops":9544,"Ġ1941":9545,"Ġsci":9546,"Quáº£n":9547,"Ġmales":9548,"ĠArmy":9549,"Ġdecreasing":9550,"Ġneeds":9551,"1991":9552,"Ġmetast":9553,"Ġimpaired":9554,"Ġprovides":9555,"Ġindicates":9556,"Ġhepat":9557,"Ġneurological":9558,"ARD":9559,"rabbe":9560,"projb":9561,"Ġfibrosis":9562,"continu":9563,"iotensin":9564,"Ġmutation":9565,"Ġimprovement":9566,"Ġspondylitis":9567,"HÃłn":9568,"NH":9569,"VáºŃt":9570,"ham":9571,"mia":9572,"multi":9573,"oqu":9574,"run":9575,"xb":9576,"ĠÆ¯":9577,"ĠÄĳÃ¨":9578,"Ġvon":9579,"Ġkhao":9580,"Ġkhá»ī":9581,"ĠCáºŃn":9582,"ĠBao":9583,"ĠBáº§u":9584,"istor":9585,"Ġdeep":9586,"Ġvá»¯a":9587,"presso":9588,"verse":9589,"600":9590,"={\\":9591,"LU":9592,"mat":9593,"ym":9594,"Ġáº¥u":9595,"ĠvÃ¡ch":9596,"Ġhá»Ļt":9597,"Ġháº¹":9598,"Ġháº¡m":9599,"Ġmá»Ļng":9600,"Ġtrinh":9601,"Ġpunk":9602,"ĠTÃł":9603,"Ġphiá»ģn":9604,"ĠrÃ³t":9605,"Ġauth":9606,"Ġxáº£o":9607,"Ġxua":9608,"ĠgiÃły":9609,"ĠMi":9610,"ĠThÃ´i":9611,"icago":9612,"ĠCha":9613,"ĠChicago":9614,"ĠGR":9615,"plit":9616,"Ġmostly":9617,"Ġclai":9618,"ource":9619,"1959":9620,"Ġestimate":9621,"Ġheav":9622,"ĠbÃ¹n":9623,"################":9624,"Ġextract":9625,"Tin":9626,"cy":9627,"gar":9628,"hf":9629,"ria":9630,"ÃĿ":9631,"Ġhá»ĳ":9632,"Ġmental":9633,"Ġpy":9634,"Ġnhá»©c":9635,"ĠTR":9636,"Ġxinh":9637,"ico":9638,"tional":9639,"thÃłnh":9640,"imb":9641,"ĠNhÄ©":9642,"Ġbeg":9643,"ThÆ°Æ¡ng":9644,"ÄĲÃ¡nh":9645,"Ġ1983":9646,"Ġxoa":9647,"Ġdifferences":9648,"Ġvaries":9649,"Ġattach":9650,"Ġradio":9651,"Há»į":9652,"grew":9653,"pho":9654,"rine":9655,"tÃ¡c":9656,"}{":9657,"âĪ":9658,"æĸ":9659,"áº¢":9660,"ĠchÄ©a":9661,"Ġchrom":9662,"Ġtru":9663,"ĠdÃ³":9664,"Ġddp":9665,"Ġkhiáº¿m":9666,"Ġráº±m":9667,"inate":9668,"Ġgiáº¥m":9669,"Ġgiving":9670,"ĠLes":9671,"Ġanalysis":9672,"ĠDá»¥c":9673,"omer":9674,"thyroidism":9675,"ĠKhá»ķng":9676,"...),":9677,"otypes":9678,"ĠUTI":9679,"ĠAntib":9680,"ĠOS":9681,"tinggrew":9682,"Ġá»ª":9683,"Ġscal":9684,"rench":9685,"2009":9686,"Ġovert":9687,"Ġthyroiditis":9688,"puter":9689,"ourished":9690,"Ġgreen":9691,"Ġterms":9692,"ĠGoyle":9693,"ĠcarcinÃ´m":9694,"Ġmutations":9695,"Ġadministered":9696,"Ġstomatitis":9697,"Ġvaricose":9698,"Ġbreastfeeding":9699,"Ġsusceptible":9700,"Ġdrinking":9701,"Ġradar":9702,"Ġcoronary":9703,"ĠJuly":9704,"Ġgolfer":9705,"Khoáº£ng":9706,"giá»":9707,"jects":9708,"Æ¯u":9709,"ĠcÃ¡p":9710,"Ġcáº¯p":9711,"Ġlá»¯":9712,"ĠbÃª":9713,"Ġdáº¡o":9714,"Ġdáº¥y":9715,"amol":9716,"ayer":9717,"aces":9718,"Ġ->":9719,"Ġimplement":9720,"ĠlÃ£m":9721,"ĠYáº¿u":9722,"ards":9723,"Ġuncon":9724,"ĠgÃ³t":9725,"1982":9726,"Ġ1885":9727,"cells":9728,"Ġstarted":9729,"Ġsamples":9730,"ĠNobel":9731,"fact":9732,"kernel":9733,"ritic":9734,"Ġtit":9735,"ĠÄĳÃ¨o":9736,"ĠbÃ¡i":9737,"Ġmuá»ĳng":9738,"Ġmaster":9739,"ĠchÃ©":9740,"ĠtrÃºt":9741,"Ġgiá»ģng":9742,"Ġao":9743,"ĠMÃ¢n":9744,"ĠTrue":9745,"ĠNgá»į":9746,"ĠDiffer":9747,"ĠPhÃ¡n":9748,"ĠKenn":9749,"ĠNhÃ¢m":9750,"Ġ47":9751,"Ġcomes":9752,"ĠFUL":9753,"rive":9754,"NhÃ³m":9755,"plicated":9756,"PhÃº":9757,"Ġbuild":9758,"QuáºŃn":9759,"âĢĿ,":9760,"Ġaccount":9761,"Ġherpes":9762,"--------------------------------------------------------------------------------------------------------------------------------":9763,"Ġkhuya":9764,"Ġpractice":9765,"ÃĤm":9766,"Ġprofessional":9767,"ĠFULRO":9768,"EE":9769,"ners":9770,"sel":9771,"Ãļ":9772,"ĠmÃ²":9773,"Ġdáº¯t":9774,"ĠrÆ°Æ¡ng":9775,"edy":9776,"aya":9777,"Thiáº¿t":9778,"ÄĲá»ĵ":9779,"rix":9780,"Ġincluded":9781,"Ġart":9782,"ropy":9783,"Ġespresso":9784,"Ġprevalent":9785,"Ġfocus":9786,"Error":9787,"BS":9788,"People":9789,"Ráº±ng":9790,"Sah":9791,"Treatment":9792,"náº¿u":9793,"zero":9794,"Â³":9795,"Ã¤":9796,"Ġáº¿ch":9797,"Ġcord":9798,"Ġthrom":9799,"Ġtháº¯p":9800,"Ġliter":9801,"Ġmeat":9802,"Ġtruáº¥t":9803,"Ġnp":9804,"ĠTáº¡":9805,"ĠngÆ°á»Ľc":9806,"ĠNÃ¹ng":9807,"ane":9808,"Ġrá»Ļn":9809,"Ġquáº¥t":9810,"ĠMáº¯m":9811,"ĠThai":9812,"ĠPic":9813,"Ġfast":9814,"ĠData":9815,"ections":9816,"ĠGolf":9817,"Ġ1910":9818,"ilation":9819,"ithel":9820,"ĠIoT":9821,"ĠRel":9822,"ĠRáº¡ch":9823,"Thyroid":9824,"Ġprolong":9825,"Ġalready":9826,"abs":9827,"Ġdie":9828,"ĠFrench":9829,"Ġwhereas":9830,"Ġotherwise":9831,"Ġshare":9832,"oxide":9833,"Ġallele":9834,"Ġtherapeutic":9835,"Ġdecreases":9836,"ĠPettinggrew":9837,"linear":9838,"1989":9839,"Ġprogressive":9840,"Ġpredominant":9841,"Ġperiods":9842,"hanouk":9843,"Ġmicros":9844,"Ġphoton":9845,"Ġsupplements":9846,"Ġreceptors":9847,"Ġmarrow":9848,"Ġnearly":9849,"Ġmetabolic":9850,"ĠHBV":9851,"ĠSihanouk":9852,"Ġgingivitis":9853,"ĠChildren":9854,"Ġratio":9855,"Saharan":9856,"Háº§u":9857,"TiÃªu":9858,"mor":9859,"ynam":9860,"Ġcry":9861,"ĠbÃ³n":9862,"ĠLew":9863,"Ġfunctions":9864,"ĠSur":9865,"ĠRos":9866,"Ġ450":9867,"Ġartic":9868,"Ġcontains":9869,"Ġstarting":9870,"']":9871,"Americ":9872,"Ca":9873,"Go":9874,"Má»įi":9875,"VÃ¹ng":9876,"kw":9877,"sá»ĳ":9878,"Ġviáº¿ng":9879,"ĠsÃ¡":9880,"Ġnáº¡o":9881,"Ġgam":9882,"ĠráºŃp":9883,"ĠCour":9884,"Ġxá»ĳp":9885,"ĠLatin":9886,"ĠDay":9887,"oment":9888,"Ġ88":9889,"Äĳá»ĳi":9890,"ologist":9891,"Ġgran":9892,"1979":9893,"azil":9894,"Ġpresentation":9895,"Ġpotentially":9896,"Ġhemoglobin":9897,"recting":9898,"ĠFrance":9899,"Ġaddress":9900,"âĪĴ":9901,"CM":9902,"Suy":9903,"Vua":9904,"dl":9905,"Ġáº¡t":9906,"Ġváº£":9907,"ĠhÅ©":9908,"Ġbit":9909,"Ġrá»ķ":9910,"ĠCu":9911,"Ġque":9912,"ĠVir":9913,"Ġxáº£":9914,"cho":9915,"ĠÄĲá»ķi":9916,"ĠBÃ©o":9917,"Ġfar":9918,"ĠSuy":9919,"icy":9920,"ĠChuyá»ĩn":9921,"ĠGai":9922,"uler":9923,"ĠkhoÃ¡":9924,"ĠFrank":9925,"Ġexec":9926,"Ġrepres":9927,"ĠTá»ķn":9928,"ledge":9929,"NghÄ©":9930,"Ġguitar":9931,"tribution":9932,"Ġnatri":9933,"Ne":9934,"So":9935,"SÃ¡ch":9936,"hyp":9937,"å¸":9938,"Ġvag":9939,"Ġborn":9940,"Ġmell":9941,"Ġsáº£nh":9942,"Ġdrain":9943,"ĠTá»ģ":9944,"ĠNiÃªn":9945,"ĠNxb":9946,"ĠrÃ¬":9947,"ĠCone":9948,"amide":9949,"Ġatr":9950,"ĠHAT":9951,"ĠÄĲÃ£":9952,"edema":9953,"ĠBá»ĳn":9954,"ĠThÃºy":9955,"ĠDurs":9956,"usions":9957,"threat":9958,"ĠRu":9959,"Trá»ĭnh":9960,"ĠEv":9961,"riev":9962,"Ġnoted":9963,"Ġscores":9964,"ĠÃĤn":9965,"accum":9966,"position":9967,"Ġdecline":9968,"resistant":9969,"ĠâŁ":9970,"Ġindependent":9971,"Ġsmo":9972,"Ġdetection":9973,"ausea":9974,"Ġguid":9975,"Ġindicated":9976,"Ġperiodon":9977,"Ġinjection":9978,"grads":9979,"Ġsynov":9980,"Ġyounger":9981,"specific":9982,"Ġlining":9983,"processes":9984,"Ġesophagus":9985,"Ġallergic":9986,"Ġcontaminated":9987,"ĠConein":9988,"ĠDursley":9989,"threatening":9990,"IP":9991,"Miá»ģn":9992,"ii":9993,"lig":9994,"Ġcá»Łi":9995,"Ġblues":9996,"Ġmid":9997,"Ġkernel":9998,"Ġpin":9999,"ĠTao":10000,"Ġrong":10001,"ĠxÃ¡o":10002,"ĠÄĲá»ĩ":10003,"ĠLÃ¡":10004,"ĠTriáº¿t":10005,"ĠPat":10006,"ĠPrim":10007,"Ġfin":10008,"Ġ1900":10009,"ĠStal":10010,"Ġops":10011,"Ġgradients":10012,"ĠCollege":10013,"ĠBrazil":10014,"ĠbÃ¬a":10015,"ĠSmith":10016,"ĠDigital":10017,"220":10018,"Báº£o":10019,"Virus":10020,"bá»Ļ":10021,"bar":10022,"fold":10023,"phi":10024,"rae":10025,"uette":10026,"ĠÄĳÃŃnh":10027,"Ġlá»ĵi":10028,"ĠhÃ´ng":10029,"Ġhect":10030,"Ġbá»Ŀi":10031,"Ġsáº£":10032,"Ġnháº§y":10033,"ĠTuáº¥t":10034,"Ġriá»ģng":10035,"ĠCÆ°":10036,"ĠMá»Ľi":10037,"ĠThÃ¹y":10038,"ĠTráº¯c":10039,"ĠPCR":10040,"ĠNgá»±":10041,"ĠDá»±a":10042,"omal":10043,"ĠRad":10044,"aptive":10045,"vert":10046,"ĠOper":10047,"Ġprec":10048,"Äĳáº§u":10049,"gricult":10050,"Ġ1943":10051,"ĠnhuáºŃn":10052,"awak":10053,"Ġurban":10054,"Ġdefinition":10055,"intermediate":10056,"Ġunderstanding":10057,"ĠMycobacterium":10058,"method":10059,"ĠStreptococcus":10060,"BÃ¡o":10061,"DÃ¢n":10062,"cÃ¡":10063,"tÆ°Æ¡ng":10064,"ĠsÆ°á»Ľng":10065,"Ġsáº¥m":10066,"Ġná»©t":10067,"Ġnature":10068,"Ġpor":10069,"ĠNÃªn":10070,"ĠVÃ´":10071,"ĠHáº¡t":10072,"...,":10073,"hich":10074,"ixel":10075,"Ġgram":10076,"Ġutil":10077,"Ġprograms":10078,"ĠAdv":10079,"Ġexpect":10080,"Ġadded":10081,"\"...":10082,"Háº¡":10083,"Im":10084,"Kinh":10085,"Most":10086,"TáºŃp":10087,"eak":10088,"iol":10089,"iques":10090,"zeros":10091,"Ġ@":10092,"Ġsitu":10093,"Ġkill":10094,"Ġnáº·n":10095,"Ġnode":10096,"Ġdoses":10097,"ĠgáºŃy":10098,"ention":10099,"ĠVang":10100,"ĠVÄ©":10101,"ĠxÄĥm":10102,"istics":10103,"ĠÄĲáº¡t":10104,"ĠThÃ¬n":10105,"asive":10106,"Ġfrac":10107,"ĠDes":10108,"Ġraised":10109,"ĠNhiá»ĩt":10110,"oper":10111,"ĠRev":10112,"ĠRav":10113,"ĠRuss":10114,"inea":10115,"ĠWales":10116,"Ġexpected":10117,"phth":10118,"Ġattributed":10119,"Ġbloodstream":10120,"Ġuns":10121,"Ġdeform":10122,"Ġrelieve":10123,"Ġtransfusion":10124,"partial":10125,"ertensive":10126,"Ġinterleukin":10127,"ĠDuá»ĩ":10128,"khaban":10129,"Ġdetected":10130,"ĠMark":10131,"Ġround":10132,"Ġobt":10133,"ported":10134,"Ġleprae":10135,"Ġswallow":10136,"Ġepileptic":10137,"ĠAzkhaban":10138,"Ġprovided":10139,"ĠÎ²":10140,"ergic":10141,"ĠkÃ¬a":10142,"Ġlasts":10143,"Ġchemotherapy":10144,"Ġlatent":10145,"Ġvaricella":10146,"Ġtrigg":10147,"roviral":10148,"Ġinfluenza":10149,"Ġdiscovered":10150,"Ġemergency":10151,"Ġdistinguish":10152,"Ġrifamp":10153,"American":10154,"Lá»Ŀi":10155,"SN":10156,"aise":10157,"ki":10158,"van":10159,"Ġá»ĵ":10160,"ĠÃ¡ch":10161,"Ġphá»Ļng":10162,"ĠcÃ³i":10163,"ĠÄĲÆ¡n":10164,"edes":10165,"ĠKar":10166,"ĠluÃ¢n":10167,"Ġ1938":10168,"Ġlá»¥t":10169,"Ġachieved":10170,"ĠSalmonella":10171,"LÃ²ng":10172,"['":10173,"iro":10174,"Ġsoci":10175,"Ġkiá»ĩu":10176,"Ġkiáº¿p":10177,"Ġpa":10178,"Ãªng":10179,"ĠTV":10180,"ĠNáºŃm":10181,"erb":10182,"ĠCong":10183,"ĠCáº£m":10184,"ena":10185,"isation":10186,"ĠMath":10187,"ĠLÃ¢u":10188,"ĠnghÃªnh":10189,"ĠNgÃłi":10190,"emy":10191,"ÄĲáº¥t":10192,"ĠFDA":10193,"istan":10194,"ĠInter":10195,"Ġ82":10196,"Ġgenome":10197,"tober":10198,"Ġadh":10199,"Ġ111":10200,"Ġapop":10201,"Ġduá»ĩ":10202,"tival":10203,"Ġnumbers":10204,"ĠToÃ¡n":10205,"Ġformation":10206,"Ġground":10207,"Ġhelpful":10208,"Ġ||":10209,"urses":10210,"Ġtakes":10211,"Stan":10212,"ĠSarawak":10213,"Gáº§n":10214,"Kiáº¿n":10215,"New":10216,"Tá»¥i":10217,"det":10218,"ping":10219,"top":10220,"which":10221,"Ġlá»Ļi":10222,"ĠMag":10223,"ares":10224,"audi":10225,"elta":10226,"ĠChris":10227,"Ġbegan":10228,"seud":10229,"ĠAlbert":10230,"ernorm":10231,"formation":10232,"Ġinitially":10233,"Ġminor":10234,"Ġ1939":10235,"gorithm":10236,"rieved":10237,"Bu":10238,"BÃ¢y":10239,"Báº¥y":10240,"NQ":10241,"Norm":10242,"cents":10243,"ml":10244,"įch":10245,"ĠÄĳÃły":10246,"ĠÄĳáºŃy":10247,"ĠÄĳáº·n":10248,"Ġláº·n":10249,"ĠhÃ£n":10250,"Ġnarrow":10251,"Ġpelv":10252,"ĠTÃ½":10253,"ining":10254,"ĠMod":10255,"Ã²e":10256,"ĠÄĲoan":10257,"ĠTráº¡ng":10258,"Ġholes":10259,"ĠDiet":10260,"ĠnÃ³c":10261,"umps":10262,"optim":10263,"stolic":10264,"ĠKhÃ¡c":10265,"romised":10266,"Ġexhi":10267,"ried":10268,"PhÃ²ng":10269,"Ġ'--":10270,"Ġdehydration":10271,"artment":10272,"iety":10273,"iane":10274,"Ġproducing":10275,"ĠchÃ³p":10276,"portion":10277,"Ġpartners":10278,"drug":10279,"Ġmethotrexate":10280,"Ġtermed":10281,"Ġmeasured":10282,"adding":10283,"Ġadvanced":10284,"orrh":10285,"Ġblockers":10286,"tibility":10287,"tibodies":10288,"Ġmarkers":10289,"Ġclubs":10290,"Malays":10291,"Ġadministration":10292,"Acute":10293,"Ġepisode":10294,"Ġcategories":10295,"Ġnodules":10296,"urisy":10297,"ĠPenins":10298,"osinophil":10299,"ĠChampions":10300,"enclaw":10301,"Ġprolonged":10302,"Ġmellitus":10303,"ĠRavenclaw":10304,"():":10305,"On":10306,"Tim":10307,"gent":10308,"liÃªn":10309,"ĠbÃ¡u":10310,"Ġhoáº¡":10311,"ĠRisk":10312,"Ġcover":10313,"Ġbuá»ĵng":10314,"aminophen":10315,"annel":10316,"QuÃ¡":10317,"ources":10318,"ĠProgram":10319,"ounds":10320,"pril":10321,"acetamol":10322,"where":10323,"At":10324,"IC":10325,"Ká»ĥ":10326,"MÃºa":10327,"Ninh":10328,"TF":10329,"huyá»ĩn":10330,"km":10331,"rang":10332,"ËĲ":10333,"æĿ":10334,"ðł":10335,"Ġáº£i":10336,"Ġtáº¡c":10337,"ĠcÆ°ng":10338,"Ġlá»ĳt":10339,"Ġbio":10340,"ĠmÃºi":10341,"ĠchÃ¡t":10342,"ĠsÆ°á»Łi":10343,"Ġker":10344,"Ġpall":10345,"Ġrib":10346,"enin":10347,"ĠVá»įng":10348,"ĠxoÃłi":10349,"chol":10350,"ĠMÃł":10351,"ĠTháº¥y":10352,"ĠSÃ¡t":10353,"ĠSup":10354,"ĠGPU":10355,"emor":10356,"ids":10357,"Ġbá»ĭt":10358,"lub":10359,"Ġcourses":10360,"ĠYáº¿n":10361,"Ġ08":10362,"Inf":10363,"ĠKhoÃ¡t":10364,"Ġleg":10365,"Ġ1936":10366,"Ġmusic":10367,"Giá»įng":10368,"ĠTimes":10369,"Ġmovement":10370,"Ġessential":10371,"Ġhecta":10372,"2000":10373,"Loáº¡i":10374,"VD":10375,"tensors":10376,"uel":10377,"},":10378,"ĠcÃºc":10379,"ĠÄĳiá»ģm":10380,"Ġváº·t":10381,"ĠlÆ°á»Ľt":10382,"Ġdig":10383,"ĠTaylor":10384,"Ġaz":10385,"Ġthá»«ng":10386,"ĠHá»Ĺ":10387,"ĠHand":10388,"ĠMao":10389,"ĠÄĲen":10390,"ĠBre":10391,"ĠPH":10392,"Ġgiá»Ł":10393,"ĠRoy":10394,"ifying":10395,"á»Ľc":10396,"Nhá»Ľ":10397,"GiÃ³":10398,"portun":10399,"Ġinvolving":10400,"Ġmuá»Ĺng":10401,"ocrates":10402,"ĠMaxwell":10403,"ĠJoseph":10404,"ĠGabriel":10405,"Hep":10406,"IU":10407,"cious":10408,"glob":10409,"pite":10410,"var":10411,"wte":10412,"write":10413,"ÄĤn":10414,"ĠÆ°":10415,"nguyÃªn":10416,"Ġcur":10417,"ĠvÃ©t":10418,"Ġláº¡y":10419,"ĠlÆ°á»£n":10420,"Ġbile":10421,"ĠmÄ©":10422,"Ġtrim":10423,"ĠnhÃ©t":10424,"ĠTex":10425,"Ġquick":10426,"ĠHa":10427,"ĠHCV":10428,"ĠxÃłi":10429,"ĠxÃ©o":10430,"ĠMÃ´i":10431,"ĠÄĲá»«ng":10432,"ators":10433,"ĠSec":10434,"ĠKÄ©":10435,"thay":10436,"unia":10437,"Ġyou":10438,"ĠIran":10439,"truction":10440,"Ġ2030":10441,"ThÃ´i":10442,"ĠUl":10443,"exual":10444,"aken":10445,"Ġabsor":10446,"Ġoccasionally":10447,"Ġdiffusion":10448,"Ġages":10449,"Ġepithel":10450,"Ġstrain":10451,"Ġconscious":10452,"Ġpolyp":10453,"Ġdespite":10454,"ĠArt":10455,"utrients":10456,"azole":10457,"ĠMarx":10458,"udied":10459,"eeze":10460,"Ġmaintain":10461,"Ġpsoriatic":10462,"Ġhuá»³nh":10463,"ĠPetunia":10464,"income":10465,"NghiÃªn":10466,"ĠGiá»¯a":10467,"ĠAcad":10468,"Ġpredis":10469,"Ġsexually":10470,"Ġlayernorm":10471,"heumatic":10472,"Ġlympho":10473,"Ġpancreas":10474,"Ġreceiving":10475,"Ġfilename":10476,"Ġcalcium":10477,"Ġtechnique":10478,"Ġlocated":10479,"Ġetc":10480,"infected":10481,"Ġeventually":10482,"Ġbreakdown":10483,"Ġtransplantation":10484,"ĠRetrieved":10485,"ĠPathophysiology":10486,"Ġaccurate":10487,"Ġclinically":10488,"ĠBauman":10489,"uberculosis":10490,"aturated":10491,"Ġrelationship":10492,"Ġgastritis":10493,"ĠCambridge":10494,"itonin":10495,"Pre":10496,"Quy":10497,"TQ":10498,"vari":10499,"yte":10500,"ĠgÆ°Æ¡m":10501,"ĠphÆ°á»£ng":10502,"ĠNÆ¡i":10503,"ĠCá»Ļt":10504,"Ġos":10505,"ĠBá»ĳi":10506,"ĠLá»Ŀi":10507,"ĠSu":10508,"Ġ1905":10509,"ĠNhiáº¿p":10510,"Truyá»ģn":10511,"Ġaccom":10512,"2019":10513,"acterial":10514,"mega":10515,"Ġearlier":10516,"hydro":10517,"Ġremoval":10518,"ĠKennedy":10519,"53":10520,"=\\":10521,"Huyá»ĩn":10522,"Nem":10523,"Pol":10524,"Qua":10525,"Res":10526,"VT":10527,"oing":10528,"rÆ°á»£u":10529,"áŀ":10530,"ĠcÃºp":10531,"ĠthiÃªu":10532,"Ġláº¡t":10533,"Ġheal":10534,"ĠchÃŃt":10535,"ĠTuring":10536,"ĠngÃło":10537,"ĠNá»ķi":10538,"Ġrh":10539,"ĠCell":10540,"ĠCastr":10541,"ĠquÃŃ":10542,"Ġvá»©":10543,"Ġxáº»":10544,"ĠTrÃ´ng":10545,"ĠKiá»ĩt":10546,"ĠNhÃ¬":10547,"ulates":10548,"ĠQuÃ¡ch":10549,"Ġdout":10550,"sts":10551,"ĠXÃ´i":10552,"quÃ¢n":10553,"Ġ900":10554,"lamed":10555,"Ġcompon":10556,"iotic":10557,"Ġsignal":10558,"à¸¡":10559,"1955":10560,"Ġ1935":10561,"ĠDiseases":10562,"Ġcreated":10563,"Báº±ng":10564,"Vi":10565,"ccl":10566,"ged":10567,"jo":10568,"tensor":10569,"Ġceliac":10570,"nhÃ¢n":10571,"ĠthÃ¬nh":10572,"Ġcháº¯p":10573,"Ġtrá»ı":10574,"Ġná»į":10575,"Ġnáº£n":10576,"Ġngáº¥t":10577,"ĠVI":10578,"ĠMore":10579,"arb":10580,"Ġlá»¡":10581,"ĠRau":10582,"ÄĲau":10583,"ĠFalse":10584,"1966":10585,"Ġexpression":10586,"ographic":10587,"Ġmá»īm":10588,"94":10589,"HA":10590,"Mai":10591,"Máº¡c":10592,"TO":10593,"While":10594,"fort":10595,"gáº§n":10596,"hold":10597,"rush":10598,"xiety":10599,"Ġá»©":10600,"Ġile":10601,"Ġbá»±":10602,"Ġbac":10603,"Ġburn":10604,"Ġbodies":10605,"Ġmá»ĳng":10606,"ĠnÃ¡u":10607,"Ġdá»ĳi":10608,"Ġpixel":10609,"Ġnhiáº¿p":10610,"ĠTy":10611,"Ġráº§u":10612,"ĠCrabbe":10613,"ĠVÆ°á»£ng":10614,"ĠHuyá»ĩn":10615,"ches":10616,"ĠMu":10617,"ĠThá»¥c":10618,"astic":10619,"ĠnghÃª":10620,"Ġtourn":10621,"elin":10622,"ĠDá»±c":10623,"idae":10624,"acin":10625,"ulatory":10626,"ĠÃįch":10627,"Ġstudied":10628,"Ġsystolic":10629,"Ġ66":10630,"Ġaccept":10631,"ogenic":10632,"Cháº¿":10633,"ĠOff":10634,"reased":10635,"arditis":10636,"Phim":10637,"evelopment":10638,"ancer":10639,"cond":10640,"Ġdiffic":10641,"Ġsuppress":10642,"Ġamounts":10643,"Ġbecoming":10644,"ĠâĨ":10645,"Ġmale":10646,"Ġneedle":10647,"adequate":10648,"ierre":10649,"Ġlegs":10650,"Config":10651,"ĠComplications":10652,"Ġimportance":10653,"Ġedema":10654,"losses":10655,"Ġcá»¡i":10656,"ataloader":10657,"Ġmuscles":10658,"Ġtempor":10659,"ĠApple":10660,"Ġrenal":10661,"reshape":10662,"('-":10663,"ometry":10664,"Ġmacroph":10665,"Ġbeginning":10666,"ttps":10667,"Ġacquired":10668,"squeeze":10669,"Ġclosely":10670,"ĠClassification":10671,"Ġadolescents":10672,"kwargs":10673,"Ġfraction":10674,"%;":10675,"gá»ĵm":10676,"Ġ^":10677,"Ġá»ĵn":10678,"Ġlá»Ļng":10679,"Ġbáº©n":10680,"Ġmes":10681,"Ġmic":10682,"ĠnÃłn":10683,"Ġnháº·t":10684,"ana":10685,"Ġráº¡ch":10686,"ÃŃp":10687,"Ġtá»³":10688,"ĠLav":10689,"ĠSÆ¡":10690,"ĠSab":10691,"ĠChiáº¿c":10692,"Ġloop":10693,"ĠNhi":10694,"Ġenh":10695,"try":10696,"ĠWeb":10697,"Ġ62":10698,"Cháº¥t":10699,"Ġ1942":10700,"Ġinside":10701,"ĠColor":10702,"Ġworking":10703,"Ġcontinued":10704,",}":10705,"NP":10706,"Sao":10707,"VáºŃy":10708,"total":10709,"Ġhit":10710,"Ġchá»įi":10711,"ĠdÄ©a":10712,"ĠgáºŃt":10713,"Ġpho":10714,"ĠClub":10715,"ĠquÄĥng":10716,"aries":10717,"ĠPop":10718,"ĠChuyá»ĥn":10719,"ĠId":10720,"tress":10721,"ÄĲi":10722,"ÄĲÃłn":10723,"ĠUáº©n":10724,"Ġ78":10725,"Ġ719":10726,"Ġemo":10727,"ught":10728,"syn":10729,"Ġinher":10730,"giáº£m":10731,"Ġinhibitor":10732,"Ġpolyme":10733,"ĠNeuro":10734,"Ġongoing":10735,"Ġelectro":10736,"Ġcopy":10737,"hythm":10738,"ĠCastries":10739,"120":10740,"93":10741,"Med":10742,"SÃ¡ng":10743,"cÃ´ng":10744,"hop":10745,"range":10746,"targ":10747,"Ġcamp":10748,"Ġmob":10749,"Ġgá»«":10750,"ĠTáº¯c":10751,"ĠCL":10752,"ĠCáºŃu":10753,"ĠTháºŃt":10754,"ĠChÃºc":10755,"thy":10756,"iations":10757,"---":10758,"ĠRT":10759,"apse":10760,"Ġ160":10761,"Ġrefers":10762,"ĠsuÃ½t":10763,"CC":10764,"Máº¥y":10765,"MRI":10766,"MARD":10767,"Taylor":10768,"When":10769,"bth":10770,"dep":10771,"khi":10772,"miá»ģn":10773,"risk":10774,"sen":10775,"}^{":10776,"Ġáº§m":10777,"Ġtet":10778,"Ġváº¥p":10779,"ĠhÃ¢m":10780,"Ġchen":10781,"Ġsáº·c":10782,"ĠtrÆ¡n":10783,"ĠkiÃªu":10784,"Ġnháº¯n":10785,"Ġgá»Ļp":10786,"ĠphÃ²":10787,"inations":10788,"Ġthá»įc":10789,"ĠMulti":10790,"ĠBl":10791,"ĠBá»ķ":10792,"ĠPak":10793,"aut":10794,"ĠSÃ³c":10795,"ĠSurgery":10796,"leen":10797,"ollen":10798,"Ġisch":10799,"âĢī":10800,"stage":10801,"ĠXe":10802,"trÆ°á»Ľc":10803,"Ġdisrup":10804,"epatic":10805,"lue":10806,"izumab":10807,"Ġcoma":10808,"ĠFour":10809,"Ġextern":10810,"Ġ71":10811,"ChÃº":10812,"ChÃ¹a":10813,"ChÃºa":10814,"andemic":10815,"ĠOut":10816,"Ġatopic":10817,"Ġemb":10818,"aches":10819,"othyroxine":10820,"certain":10821,"acco":10822,"Ġenergy":10823,"Ġimmunization":10824,"Ġconsistent":10825,"Ġupon":10826,"ycline":10827,"à¸²":10828,"Ġreflux":10829,"(\"--":10830,"Ġprediction":10831,"Ġvenous":10832,"Ġpotass":10833,"Ġvein":10834,"retroviral":10835,"control":10836,"Ġinputs":10837,"Ġfinding":10838,"offset":10839,"Ġtechniques":10840,"ĠUyÃªn":10841,"Ġexcre":10842,"ĠXVIII":10843,"Ġepisodes":10844,"Ġinternet":10845,"Ġsusceptibility":10846,"Ġorganisms":10847,"ĠCurlie":10848,"Ġnovel":10849,"Ġfully":10850,"Ġbegins":10851,"Ġthromb":10852,"Láº¥y":10853,"ians":10854,"virus":10855,"Ġing":10856,"Ġláº«y":10857,"ĠsÃ²":10858,"Ġtrue":10859,"ĠnhÃ´m":10860,"Ġquáº¥n":10861,"ests":10862,"alleng":10863,"ĠÄĲÃ¡i":10864,"ĠTháº¡c":10865,"ĠTrÃ¢n":10866,"ases":10867,"ĠPháº©m":10868,"olar":10869,"ĠXung":10870,"ota":10871,"Ġdistribution":10872,"uba":10873,"Pháº£n":10874,"ĠStudies":10875,"Ġcold":10876,"Ġsimply":10877,"700":10878,"Biáº¿t":10879,"Long":10880,"Line":10881,"báº±ng":10882,"kho":10883,"lr":10884,"rice":10885,"sw":10886,"ww":10887,"åľ":10888,"áº¨m":10889,"nháº¥t":10890,"Ġbá»«ng":10891,"Ġmáº©u":10892,"ĠnhÃ©":10893,"ĠnháºŃm":10894,"Ġphin":10895,"inst":10896,"Æ¡ng":10897,"ĠCáº¥u":10898,"ĠHá»ģ":10899,"Ġgives":10900,"ĠMáº¥y":10901,"ĠMÅ©i":10902,"ĠLÃ²":10903,"ĠDÄ©":10904,"ĠPha":10905,"ospor":10906,"eval":10907,"ĠXáº©m":10908,"ifer":10909,"ThÃ¢n":10910,"ellular":10911,"Ġ83":10912,"Ġ06":10913,"Ġunivers":10914,"Ġmedic":10915,"udley":10916,"Ġ1944":10917,"Ġoption":10918,"1977":10919,"Ġremove":10920,"ĠTuáº§n":10921,"Ġserv":10922,"wareness":10923,"info":10924,"ĠIgM":10925,"aigon":10926,"Many":10927,"ĠFrancis":10928,"ĠAcademy":10929,"([":10930,"HÆ¡n":10931,"TÃ¡c":10932,"ptions":10933,"Ġtau":10934,"Ġtuá»ĳt":10935,"Ġcá»į":10936,"ĠÄĳÃ¹ng":10937,"ĠbÃºa":10938,"ĠmÃ©o":10939,"Ġcheck":10940,"Ġsá»Ļ":10941,"ĠsáºŃp":10942,"Ġsud":10943,"Ġnap":10944,"ĠTÃ¡o":10945,"ĠNum":10946,"Ġthá»ı":10947,"orter":10948,"ĠBern":10949,"Ġfav":10950,"aign":10951,"ĠDar":10952,"emal":10953,"open":10954,"loáº¡i":10955,"igan":10956,"ĠKhÃ¡i":10957,"ĠXin":10958,"ÄĲá»ĭnh":10959,"Ġhá»ĩt":10960,"uctive":10961,"rie":10962,"ĠNghá»ģ":10963,"ĠphÃŃm":10964,"Ġfunctioning":10965,"ĠColumb":10966,"ĠHenri":10967,"ĠTime":10968,"Ġpeak":10969,"ĠsÃ´cÃ´":10970,"ĠNovember":10971,"Ġentire":10972,"ĠsÃ´cÃ´la":10973,"AO":10974,"Ag":10975,"CL":10976,"DNA":10977,"FT":10978,"Heart":10979,"bacco":10980,"greg":10981,"nal":10982,"uary":10983,"Î¼":10984,"å±":10985,"Ł³":10986,"ĠcÄĥm":10987,"Ġtháº¡o":10988,"Ġlá»§i":10989,"Ġseas":10990,"ĠtrÆ°á»£t":10991,"Ġnodes":10992,"Ġnausea":10993,"Ġgp":10994,"Ġphai":10995,"inct":10996,"ona":10997,"ĠgiÃ¡ng":10998,"Ġgiáº§y":10999,"ĠMang":11000,"ĠMend":11001,"ediatric":11002,"ĠBecause":11003,"ĠPGA":11004,"Ġfatty":11005,"icit":11006,"ĠChom":11007,"ĠAÎ²":11008,"ĠApril":11009,"omb":11010,"Ġlook":11011,"Ġconc":11012,"Ġconj":11013,"iltr":11014,"iridae":11015,"Ġyáº¿t":11016,"ĠGiÃ¡c":11017,"ĠRem":11018,"ĠRoi":11019,"ypical":11020,"ocl":11021,"ocoder":11022,"agen":11023,"Ġcand":11024,"ĠEth":11025,"ticular":11026,"Ġexists":11027,"Ġthá»§ng":11028,"á»ģu":11029,"Ġcellular":11030,"Ġcá»Ńu":11031,"Ġinfant":11032,"Ġinfarc":11033,"Ġ110":11034,"Ġneurop":11035,"Ġmodels":11036,"ude":11037,"ndon":11038,"Ġconstit":11039,"Ġdestruction":11040,"Ġintervention":11041,"Ġpoints":11042,"ĠMarch":11043,"Ġautoan":11044,"ĠAmericans":11045,"attn":11046,"Ġvalid":11047,"Ġsyndromes":11048,"Ġaccounts":11049,"ĠAccording":11050,"Ġextent":11051,"CDC":11052,"kyo":11053,"Ġgetting":11054,"copic":11055,"Æ¯T":11056,"Ġepiderm":11057,"Ġmarked":11058,"Ġcarrier":11059,"Ġinfluence":11060,"Ġgolfers":11061,"Ġprobably":11062,"Ġhyperthyroidism":11063,"ĠTHCS":11064,"Ġeconomic":11065,"Ġeye":11066,"Ġcirculation":11067,"ĠnitÆ¡":11068,"ĠGenetic":11069,"olytic":11070,"ĠBillboard":11071,"[:,":11072,"Ġpeptide":11073,"éĻ³":11074,"çİĭ":11075,"Ġcacbon":11076,"ĠFederation":11077,"field":11078,"viáº¿t":11079,"Ġham":11080,"Ġbá»ĵn":11081,"Ġcháº¡p":11082,"Ġnhá»Ł":11083,"ĠphÃ´i":11084,"ĠVol":11085,"ĠxÃ¡ch":11086,"ĠMáº¹":11087,"ĠBal":11088,"ĠBÆ°á»Ľc":11089,"ĠBBC":11090,"ĠSept":11091,"Ġtour":11092,"ĠChang":11093,"ematic":11094,"uter":11095,"ĠGiáº£m":11096,"ĠUr":11097,"atives":11098,"ĠEarly":11099,"uglas":11100,"Ġexact":11101,"allel":11102,"Ġáº¨m":11103,"ĠProtein":11104,"entific":11105,"ĠScience":11106,"ocyte":11107,"Ġschool":11108,"Ġaccompan":11109,"Bá»ĳn":11110,"Gá»ĳm":11111,"HF":11112,"HÃłng":11113,"cast":11114,"ville":11115,"Ġcyc":11116,"Ġváº¡i":11117,"ĠvÃ³c":11118,"Ġliá»ģm":11119,"ĠlÆ°Æ¡n":11120,"Ġbong":11121,"Ġbáº«y":11122,"ĠmÃ´ng":11123,"ĠchÃª":11124,"Ġchuyá»ģn":11125,"ĠsÃºp":11126,"ĠTá»ĳc":11127,"Ġráº§m":11128,"ĠBur":11129,"ĠTháº£o":11130,"ĠLÅ©ng":11131,"Ġoffer":11132,"ĠTrá»±c":11133,"Ġflex":11134,"ĠSecond":11135,"ungal":11136,"thá»±c":11137,"osp":11138,"Thiáº¿u":11139,"ĠTheory":11140,"ÄĲá»Ĺ":11141,"ĠngoÃ¡i":11142,"ĠEs":11143,"Ġdirec":11144,"anded":11145,"Ġ86":11146,"------------":11147,"Ġtransfer":11148,"ĠTokyo":11149,"à¸ģ":11150,"Ġáº¤t":11151,"ĠNhuáºŃn":11152,"Ġpatterns":11153,"Ġheavy":11154,"ĠTexas":11155,"87":11156,"mÃ¡y":11157,"rays":11158,"ĠvÃ²m":11159,"Ġgel":11160,"ĠCR":11161,"Ġaff":11162,"Ġxao":11163,"ĠÄĲÃªm":11164,"ĠPan":11165,"eli":11166,"ĠGh":11167,"thá»ĭt":11168,"Ġ1912":11169,"trung":11170,"ĠWal":11171,"Ġexcept":11172,"Ġ180":11173,"illance":11174,"grade":11175,"espite":11176,"ĠOctober":11177,"Ġcontinue":11178,"Ġsudden":11179,")),":11180,".[":11181,"AI":11182,"DÆ°á»£ng":11183,"EAN":11184,"ML":11185,"MÃ¬nh":11186,"Tensors":11187,"TENSOR":11188,"iological":11189,"ná»ķi":11190,"tent":11191,"xedema":11192,"zema":11193,"}+":11194,"çĶ":11195,"Ġáº£":11196,"Ġens":11197,"ĠthuyÃªn":11198,"ĠlÄĥm":11199,"Ġhor":11200,"Ġbung":11201,"Ġbones":11202,"Ġmyc":11203,"ĠmÆ°á»Ľt":11204,"ĠchiÃªm":11205,"ĠtrÃ²ng":11206,"Ġdataloader":11207,"ĠVas":11208,"ĠHam":11209,"checkpoint":11210,"Ġoil":11211,"ĠÄĲiÃªu":11212,"Ġinactiv":11213,"ĠLÃĢ":11214,"Ġanxiety":11215,"ĠPain":11216,"itz":11217,"reme":11218,"ĠSickle":11219,"ĠSocial":11220,"ĠSaigon":11221,"icin":11222,"ĠCháº¡p":11223,"ĠKle":11224,"ĠGá»ĵm":11225,"thier":11226,"iaz":11227,"Ġ1913":11228,"eta":11229,"opical":11230,"Ġ312":11231,"ĠKhiÃªm":11232,"Tháº¥y":11233,"Ġdisch":11234,"epon":11235,"Ġtá»Ńu":11236,"ÄĲáº¡o":11237,"aphy":11238,"Ġstem":11239,"Ġresistant":11240,"estro":11241,"Ġatoi":11242,"Ġspine":11243,"Ġsport":11244,"Ġspinal":11245,"Ġspleen":11246,"netic":11247,"Ġparkinson":11248,"luded":11249,"ffle":11250,"Ġuncommon":11251,"Ġoccup":11252,"Ġsomeone":11253,"Ġbetas":11254,"Ġaggress":11255,"param":11256,"oxin":11257,"Ġpersist":11258,"iciencies":11259,"ouraged":11260,"Ġopportun":11261,"Ġpopular":11262,"Ġindustr":11263,"Ġheld":11264,"azol":11265,"olved":11266,"eech":11267,"Ġleuk":11268,"1997":11269,"ĠPeters":11270,"Ġvariants":11271,"ĠLyndon":11272,"Ġ1937":11273,"Ġprevented":11274,"Ġhypoglycemic":11275,"ĠLeon":11276,"rophy":11277,"ĠÏĪ":11278,"ĠNoam":11279,"Ġabscess":11280,"Ġcalci":11281,"Ġstructures":11282,"ĠBanglad":11283,"ĠWestmor":11284,"Ġevaluation":11285,"oxicillin":11286,"Ġtrigger":11287,"Ġbabies":11288,"Ġinternational":11289,"åįĹ":11290,"Ġannually":11291,"Ġaltered":11292,"Ġbalance":11293,"ĠFilch":11294,"ĠDecember":11295,"Ġfederal":11296,"Ġneonatal":11297,"Ġprescribed":11298,"Ġtrauma":11299,"Ġfamilies":11300,"Ġpredominantly":11301,"Ġpelvic":11302,"ĠColorado":11303,"Ġexterna":11304,"Ġpotassium":11305,"ĠChomsky":11306,"TENSORS":11307,"ĠWestmoreland":11308,".).":11309,"DL":11310,"MT":11311,"UV":11312,"We":11313,"Xuáº¥t":11314,"ĠthÃ²":11315,"ĠTai":11316,"Ġngá»ı":11317,"ĠxÃ´":11318,"organ":11319,"Ġraise":11320,"ĠAut":11321,"imedia":11322,"uria":11323,"Ġngoáº¡n":11324,"api":11325,"Chiáº¿c":11326,"Ġreve":11327,"aving":11328,"orders":11329,"Ġnamed":11330,"1970":11331,")))":11332,"ounter":11333,"Ġláº»n":11334,"Ġmicrob":11335,"Ġallows":11336,"Giá»¯a":11337,"Ġerror":11338,"Khoa":11339,"Co":11340,"Cáº§n":11341,"Fred":11342,"GPT":11343,"Kiá»ģu":11344,"SÆ¡n":11345,"UN":11346,"Ã§":11347,"Î¿":11348,"Ġtanh":11349,"Ġtáº·c":11350,"nhiá»ģu":11351,"ĠthÃª":11352,"ĠvÄĥng":11353,"Ġland":11354,"Ġbá»ī":11355,"ĠmáºŃn":11356,"Ġmem":11357,"Ġchá»Ńi":11358,"ĠsÃło":11359,"Ġvá»ī":11360,"ĠHuyÃªn":11361,"chlor":11362,"ĠgiÃªng":11363,"ĠSÃ¹ng":11364,"ĠKÃ¬":11365,"ĠGlobal":11366,"ident":11367,"unt":11368,"ĠÄĳá»ģm":11369,"adic":11370,"ĠRam":11371,"ague":11372,"eard":11373,"Ġ1871":11374,"esteps":11375,"ensity":11376,"lash":11377,"Ġclus":11378,"Ġsystematic":11379,"oxid":11380,"Ġmethyl":11381,"Ġdescription":11382,"Ġ1884":11383,"Ġprocesses":11384,"cope":11385,"lococ":11386,"Ġsá»¥n":11387,"Ġsilic":11388,"Ġinference":11389,"ĠWikimedia":11390,"ĠGauthier":11391,"effective":11392,"ĠHippocrates":11393,"Ġauthor":11394,"Mem":11395,"VID":11396,"lÃłm":11397,"more":11398,"ued":11399,"áº¾":11400,"ĠthÃ¹y":11401,"Ġváº£y":11402,"Ġsáº«m":11403,"Ġnm":11404,"Ġpandemic":11405,"Ġpháº¿t":11406,"ĠCÃºm":11407,"ĠMá»¥":11408,"Ġfront":11409,"ĠSeveral":11410,"ailure":11411,"ĠKháº©u":11412,"This":11413,"Tranh":11414,"eare":11415,"ĠFer":11416,"akesp":11417,"oney":11418,"PhÃ¡p":11419,"Ġsaid":11420,"Giáº£m":11421,"Quang":11422,"ĠActiv":11423,"Ġzero":11424,"Ġallowed":11425,"ĠCOVID":11426,"Ġlargest":11427,"Ġsupported":11428,"Ġproperly":11429,"Linear":11430,"akespeare":11431,"Káº¿":11432,"MÆ°á»Ŀi":11433,"MÃ¡y":11434,"SÃ´ng":11435,"Sickle":11436,"Ung":11437,"brain":11438,"cial":11439,"dings":11440,"vel":11441,"xone":11442,"ħu":11443,"Ġcef":11444,"Ġcath":11445,"ĠÄĳáº£":11446,"ĠÄĳáº£n":11447,"ĠhÃ²":11448,"Ġmáº¡t":11449,"Ġpet":11450,"Ġnham":11451,"ĠNem":11452,"Ġrá»Ļ":11453,"ĠrÆ°á»Ľi":11454,"Ġquyáº¿n":11455,"ĠCÃ³c":11456,"ĠCPU":11457,"ĠCuba":11458,"ĠVAD":11459,"ĠHim":11460,"ĠHol":11461,"oral":11462,"aring":11463,"ĠBoth":11464,"ĠThan":11465,"ĠThÃŃch":11466,"ĠThose":11467,"Ġinadequate":11468,"ĠLee":11469,"ĠLeprosy":11470,"atosis":11471,"ĠTrá»«":11472,"Ġfetal":11473,"ĠSIV":11474,"Ġtoxin":11475,"Ġtowards":11476,"Ġgiá»ħu":11477,"ĠNhÃ£":11478,"acity":11479,"acerb":11480,"Ġejection":11481,"ums":11482,"ĠGiáº£":11483,"ĠXÃ©t":11484,"trá»«":11485,"Ġproportion":11486,"áº»m":11487,"Chronic":11488,"ĠOl":11489,"2017":11490,"prot":11491,"Ġprepar":11492,"Ġinfiltr":11493,"othyroidism":11494,"Ġoutcome":11495,"Ġscans":11496,"ectomy":11497,"pecto":11498,"okka":11499,"Ġdesigned":11500,"coma":11501,"Ġcenturies":11502,"Ġvalues":11503,"eningitis":11504,"Ġcomplication":11505,"1988":11506,"psi":11507,"inux":11508,"Ġcharacteristics":11509,"Ġhospitalization":11510,"ĠEngineering":11511,"Ġcultures":11512,"batches":11513,"Ġestrogen":11514,"Ġsensitive":11515,"Ġeros":11516,"Tuá»ķi":11517,"Ġneurons":11518,"Ġnerves":11519,"Ġworsen":11520,"Ġfemale":11521,"ocrine":11522,"Ġoxid":11523,"Ġfacial":11524,"Ġitching":11525,"Ġinfluenzae":11526,"Ġpreferred":11527,"compute":11528,"Ġgluten":11529,"Ġpolymerase":11530,"Ġsquamous":11531,"Ġconducted":11532,"ĠGregori":11533,"Ġregimen":11534,"Ġhousehold":11535,"Ġliterature":11536,"Ġexpectancy":11537,"Malaysia":11538,"AA":11539,"ICE":11540,"LÆ°u":11541,"Pl":11542,"raw":11543,"ĠvÆ°á»£ng":11544,"ĠmÃ©p":11545,"Ġdáº¡t":11546,"ĠHÃ´m":11547,"Ġ(-":11548,"ĠLily":11549,"ĠNgÃ£":11550,"Ġrap":11551,"ades":11552,"ÄĲiá»ĥm":11553,"ellig":11554,"Ġchuá»ĵng":11555,"ube":11556,"new":11557,"amps":11558,"othy":11559,"ĠDouglas":11560,"resp":11561,"ĠCenters":11562,"ĠCentral":11563,"Ġstructure":11564,"ĠSeptember":11565,"Dis":11566,"Láº¡i":11567,"MÃ´ng":11568,"Máº¡ng":11569,"Neville":11570,"cÃ¡i":11571,"¡å":11572,"Ġcáº³ng":11573,"ĠcÃ²i":11574,"ĠhÃŃt":11575,"ĠbÃ³i":11576,"ĠchÃµ":11577,"Ġsuff":11578,"Ġrá»Ľt":11579,"Ġrank":11580,"ĠCÃłng":11581,"ĠCos":11582,"ĠVÅ©ng":11583,"estival":11584,"ĠMá»ħ":11585,"arin":11586,"ĠÄĲáº¯k":11587,"ĠTrá»ĳng":11588,"ĠPers":11589,"Ġfeed":11590,"ĠSÃ¢m":11591,"aire":11592,"ĠChem":11593,"Ġthuá»Ł":11594,"osy":11595,"Ġdouble":11596,"lymp":11597,"ĠIU":11598,"ÄĲá»ĭa":11599,"Ġcome":11600,"Ġ68":11601,"Ġimm":11602,"ĠOlymp":11603,"iva":11604,"Ġsubt":11605,"Ġbiolog":11606,"Ġmeta":11607,"Ġdiscrete":11608,"Ġfewer":11609,"Ġ1788":11610,"ĠAppro":11611,"ĠCenter":11612,"Ġlearn":11613,"ĠBeh":11614,"Ġintroduction":11615,"Ġseparate":11616,"continuous":11617,"omentum":11618,"CA":11619,"De":11620,"EF":11621,"Láº§n":11622,"ba":11623,"body":11624,"iop":11625,"tely":11626,"ĠÃºt":11627,"Ġváº·n":11628,"ĠgÃ¢n":11629,"itting":11630,"asting":11631,"elic":11632,"Ġ1908":11633,"lot":11634,"ĠJack":11635,"rian":11636,"Ind":11637,"Ġplaying":11638,"Ġimproves":11639,"ashim":11640,"Ġ>=":11641,"Ġlocation":11642,"Ġpaper":11643,"Ġbroad":11644,"ĠCommons":11645,"Ġimprovements":11646,"Ġeasily":11647,"Ġapplied":11648,"CÃ¡nh":11649,"Dáº¡":11650,"HV":11651,"MÃ³n":11652,"NÃ³n":11653,"QÄĲ":11654,"Red":11655,"Sw":11656,"TW":11657,"VÃ¢n":11658,"cler":11659,"cour":11660,"lix":11661,"uz":11662,"wav":11663,"ÏĤ":11664,"ĠÄĳá»ĳn":11665,"Ġthá»ĳi":11666,"Ġbs":11667,"ĠmÃºc":11668,"Ġsac":11669,"ĠnÃºp":11670,"Ġneop":11671,"Ġnever":11672,"Ġdomes":11673,"ĠnhÃŃch":11674,"Ġge":11675,"Ġrig":11676,"Ġthá»Ľt":11677,"ĠHang":11678,"Ġxk":11679,"ĠxiÃªn":11680,"ĠMÃ¬":11681,"ĠMá»Ļng":11682,"aric":11683,"ĠÄĲiá»ĩu":11684,"ĠBiá»ĩt":11685,"ĠBá»©c":11686,"ĠBol":11687,"ĠBÃºt":11688,"ĠThiá»ĩt":11689,"ĠLor":11690,"Ġancient":11691,"ĠTráº¡i":11692,"iters":11693,"Ġfru":11694,"reactive":11695,"ĠSevere":11696,"Ġtool":11697,"Ġtooth":11698,"Ġtobacco":11699,"icap":11700,"á»ĩch":11701,"ĠKá»ĭch":11702,"Ã©rab":11703,"urb":11704,"Ġmá»³":11705,"Ġeosinophil":11706,"ithromycin":11707,"ĠKhÃ´i":11708,"ĠRáºŃp":11709,"ĠXÃ¡c":11710,"Ġprobs":11711,"agious":11712,"atients":11713,"TrÃ´ng":11714,"ĠFord":11715,"Ġexacerb":11716,"Ġresources":11717,"pháº§n":11718,"ermat":11719,"Ġwhose":11720,"Ġcareful":11721,"Ġ1427":11722,"KhÃ¢m":11723,"Ġrelig":11724,"ophy":11725,"Ġundergo":11726,"Ġdesired":11727,"calc":11728,"associated":11729,"Ġdram":11730,"epsis":11731,"ĠNSÆ¯T":11732,"ĠExpecto":11733,"Ġswollen":11734,"Ġvariable":11735,"ĠâĪĤ":11736,"Ġcareg":11737,"Ġprogresses":11738,"ĠMedications":11739,"Ġpoorly":11740,"ĠDiabetes":11741,"dpm":11742,"ĠOnce":11743,"Ġcomplement":11744,"ĠDPMs":11745,"Ġfilter":11746,"inflammation":11747,"Ġdiphtheriae":11748,"ituitary":11749,"Ġphysicians":11750,"Ġmetabolism":11751,"lastoma":11752,"Ġblind":11753,"Ġplaces":11754,"orbid":11755,"Ġenlargement":11756,"Ġtolerance":11757,"Ġdermatoph":11758,"é»İ":11759,"ĠMilitary":11760,"ĠMisÃ©rab":11761,"Ġguidance":11762,"audio":11763,"Ġconsciousness":11764,"Ġmedicines":11765,"ĠBangladesh":11766,"ashimoto":11767,"Ġdomestic":11768,"ĠMisÃ©rables":11769,"Tiáº¿n":11770,"mc":11771,"text":11772,"ĵng":11773,"ĠÄĳáº¥m":11774,"ĠhiÃªn":11775,"Ġhet":11776,"Ġmember":11777,"Ġchalleng":11778,"asso":11779,"ĠGreen":11780,"ify":11781,"Ġalen":11782,"Ġspeed":11783,"Ġclim":11784,"gener":11785,"Conv":11786,"Ġelectr":11787,"tokine":11788,"Ġallowing":11789,"Ġcytokine":11790,"nghÄ©a":11791,"FET":11792,"No":11793,"PA":11794,"SA":11795,"[-":11796,"tate":11797,"à»":11798,"Ĳng":11799,"ĠtÃ½":11800,"ĠÄĳáº½":11801,"ĠchiÃªng":11802,"Ġná»ĭnh":11803,"Ġnull":11804,"Ġden":11805,"Ġgin":11806,"ĠTá»ī":11807,"Ġrá»¥":11808,"Ġring":11809,"Ġroll":11810,"ĠCá»ĳi":11811,"Ġawareness":11812,"ĠHis":11813,"ĠHug":11814,"ĠHá»±u":11815,"ĠMary":11816,"ĠMiddle":11817,"Ġoanh":11818,"ĠBen":11819,"ĠBay":11820,"ĠBorn":11821,"ĠLi":11822,"ĠLiá»ħn":11823,"athi":11824,"Æ°á»Ľn":11825,"asia":11826,"ĠSum":11827,"ĠSÃ£i":11828,"ĠDáº¥u":11829,"ecting":11830,"economic":11831,"omics":11832,"ĠNhai":11833,"actions":11834,"ilities":11835,"ÄĲá»Ļi":11836,"Triá»ģu":11837,"ĠFin":11838,"Chuyá»ĩn":11839,"Ġpartial":11840,"aviv":11841,"Ġ170":11842,"poses":11843,"Ġinterfer":11844,"Ġthá»¥c":11845,"embed":11846,"Ġmode":11847,"rison":11848,"ĠGiá»Ŀ":11849,"Ġrevers":11850,"Ġextreme":11851,"context":11852,"ottom":11853,"ĠJanuary":11854,"Ġtraditional":11855,"advance":11856,"Ġdelivery":11857,"ĠPakistan":11858,"ĠDarwin":11859,"IM":11860,"Tiá»ģn":11861,"bá»ĭ":11862,"bility":11863,"lá»ĳi":11864,"wor":11865,"wood":11866,"ĠlÃ³ng":11867,"Ġcheckpo":11868,"Ġkept":11869,"ĠTuyá»ĥn":11870,"ĠTwo":11871,"Ġkhá»ĳ":11872,"ĠkhÃ©p":11873,"ĠNG":11874,"ĠNap":11875,"ĠrÃªn":11876,"ĠráºŃm":11877,"Ġrough":11878,"ĠCuá»ĳn":11879,"oring":11880,"Ġgive":11881,"Ġnghiá»ĩt":11882,"Ġwalk":11883,"ĠChá»©c":11884,"ĠAir":11885,"oli":11886,"local":11887,"ĠKhuyáº¿n":11888,"Ġsound":11889,"Cháº³ng":11890,"ĠAnton":11891,"available":11892,"ĠArgent":11893,"ĠMarc":11894,"Ġvariant":11895,"1980":11896,"Ġreference":11897,"Ġcompletely":11898,"Ġfeature":11899,"Ġattempt":11900,"Ġcampaign":11901,"350":11902,"Bá»ĵ":11903,"Blood":11904,"During":11905,"Ge":11906,"HÃ²a":11907,"NÄĲ":11908,"Rec":11909,"TNF":11910,"caus":11911,"eated":11912,"steroid":11913,"tá»īnh":11914,"¶Ĭ":11915,"ä»":11916,"ĠÂ":11917,"Ġ----------------------------------------------------------------":11918,"Ġtong":11919,"ĠthÃło":11920,"Ġventi":11921,"Ġláº©n":11922,"ĠchÃłi":11923,"ĠtrÃ¡":11924,"Ġdomin":11925,"Ġpadding":11926,"Ġgáº¥m":11927,"Ġgelu":11928,"Ġkháº¿":11929,"ĠphÆ°á»Ľc":11930,"ĠrÄĥm":11931,"amW":11932,"ĠVá»«a":11933,"ĠHÆ°á»Ľng":11934,"ĠÄĲÃ¡y":11935,"ĠThus":11936,"Ġant":11937,"Ġankylosing":11938,"ĠPR":11939,"Ġfused":11940,"reh":11941,"ĠDen":11942,"ĠGames":11943,"Ġlá»«ng":11944,"uns":11945,"uniform":11946,"Ġtiáº¿m":11947,"Ġyáº¿n":11948,"lox":11949,"Ġ320":11950,"ĠGianh":11951,"ÄĲÃ´ng":11952,"Ġalphas":11953,"occlusive":11954,"ĠWill":11955,"Ġ96":11956,"ureus":11957,"ublas":11958,"Ġsput":11959,"ronine":11960,"Ġdiabe":11961,"Ġdeficiencies":11962,"Ġdiagnose":11963,"cules":11964,"gene":11965,"ylori":11966,"Ġopi":11967,"Ġfolds":11968,"utrient":11969,"ulties":11970,"Ġpneumococcal":11971,"Ġlosses":11972,"Ġproduces":11973,"ĠTuá»ķi":11974,"Ġuric":11975,"Ġcorrel":11976,"1963":11977,"Ġfluor":11978,"Ġaccoun":11979,"ĠScot":11980,"Ġdiets":11981,"zyg":11982,"Ġextensive":11983,"Ġconfusion":11984,"Ġveget":11985,"thetic":11986,"ĠClinical":11987,"Ġexercises":11988,"Although":11989,"version":11990,"Ġpathway":11991,"Ġpathways":11992,"ĠASEAN":11993,"Ġlymphocytes":11994,"Ġskull":11995,"Ġdistinct":11996,"Ġreading":11997,"Ġfract":11998,"Ġattacks":11999,"Ġmucosal":12000,"ĠBrown":12001,"Ġangiotensin":12002,"Ġrecorded":12003,"Ġmonitoring":12004,"gnosed":12005,"Ġfecal":12006,"Ġcontracted":12007,"Ġpatches":12008,"Ġinduced":12009,"resholding":12010,"Ġwarmup":12011,"Ġstrength":12012,"Ġrecurrence":12013,"ĠChampionship":12014,"Ġvá»©t":12015,"Ġdifficulties":12016,"Ġmacrophages":12017,"targets":12018,"Ġinfarction":12019,"Ġdischarge":12020,"othyronine":12021,"Ġdramatic":12022,"List":12023,"Sm":12024,"rig":12025,"vard":12026,"worm":12027,"ĠÄĳÃ¹a":12028,"Ġhá»ĳt":12029,"Ġsá»Ŀ":12030,"Ġdá»Ĺ":12031,"ĠnhÄĥn":12032,"ani":12033,"ĠrÃ¡ch":12034,"ĠrÃ¹a":12035,"inp":12036,"ĠVan":12037,"ĠVá»£":12038,"ĠMÃ¹i":12039,"ĠKiá»ĥu":12040,"ĠGar":12041,"acchar":12042,"olipid":12043,"ilbert":12044,"Ġexit":12045,"Ġexception":12046,"Ġ61":12047,"Ġaction":12048,"á»ģnh":12049,"ĠAnn":12050,"phosph":12051,"athy":12052,"Ġsee":12053,"1993":12054,"Ġreverse":12055,"ĠSoft":12056,"Ġoptimization":12057,"ĠHFMD":12058,"Ġaccompanied":12059,"DuyÃªn":12060,"Gá»ıi":12061,"Pet":12062,"TÆ°á»Ľng":12063,"bro":12064,"cÃ¹ng":12065,"ken":12066,"lic":12067,"rng":12068,"sk":12069,"æķ":12070,"éŁ³":12071,"Ġcháº·ng":12072,"Ġnáº¿m":12073,"ĠdÃ©p":12074,"anth":12075,"Ġrá»§":12076,"ĠrÃłnh":12077,"inase":12078,"Ġtá»ĥ":12079,"Ġaureus":12080,"ĠHá»£i":12081,"chain":12082,"ĠLans":12083,"ĠTráº¡m":12084,"ĠPost":12085,"aud":12086,"ĠSáº¯c":12087,"ĠChÃ¡y":12088,"ĠGáº¡o":12089,"Ġ1915":12090,"entation":12091,"Ġformer":12092,"ĠRh":12093,"ĠFall":12094,"ologists":12095,"ĠAlbum":12096,"Ġ308":12097,"keting":12098,"eather":12099,"Ġfolk":12100,"lands":12101,"ĠGiá»ĳng":12102,"ĠâĪĪ":12103,"ebru":12104,"ĠÃĶn":12105,"ĠIBM":12106,"Ġdistance":12107,"Ġapproaches":12108,"Ġissue":12109,"Ġannual":12110,"ĠlÃµm":12111,"ĠVictoria":12112,"Ġstrategies":12113,"variance":12114,"ĠCLB":12115,"elihood":12116,"ĠPetersburg":12117,"Ġreveal":12118,"ebruary":12119,")]":12120,"?\".":12121,"Windows":12122,"aft":12123,"gu":12124,"nes":12125,"rick":12126,"}{\\":12127,"ĠÃ¡t":12128,"Ġváº¥t":12129,"Ġviá»ģn":12130,"Ġlá»Ł":12131,"ĠlÃ¬nh":12132,"ĠsÃłnh":12133,"Ġtráº¯c":12134,"Ġnhá»Ľt":12135,"ĠngáºŃy":12136,"ĠHá»ĵn":12137,"Ġgiun":12138,"isions":12139,"ĠMet":12140,"ĠBien":12141,"ĠLow":12142,"rofen":12143,"ĠIts":12144,"Ġ360":12145,"uprofen":12146,"Cháº©n":12147,"oston":12148,"heal":12149,"ordan":12150,"Intern":12151,"1960":12152,"1984":12153,"Ġconsider":12154,"Ġvisual":12155,"Ġcontinues":12156,"onald":12157,"Ġcalculate":12158,"gnostic":12159,"ĠPicasso":12160,"ynamic":12161,"instance":12162,"'.<":12163,"();":12164,".),":12165,"Ra":12166,"dm":12167,"ij":12168,"nourished":12169,"rest":12170,"take":12171,"xyc":12172,"Ġá»ī":12173,"ĠÃ´i":12174,"ĠthÃºng":12175,"ĠvÃ¢ng":12176,"Ġlr":12177,"Ġlanh":12178,"Ġlact":12179,"Ġlaw":12180,"Ġlives":12181,"ĠmÃ¡c":12182,"Ġmáº¯ng":12183,"Ġsociety":12184,"Ġnight":12185,"Ġdestro":12186,"Ġphá»ī":12187,"ĠNá»Ļn":12188,"ercur":12189,"enting":12190,"ĠVáº¯c":12191,"ĠHaw":12192,"atovirus":12193,"ĠTrÃ¡c":12194,"ĠTrÄĥm":12195,"ĠPierre":12196,"Ġfocal":12197,"ĠSÃ©c":12198,"ĠDudley":12199,"ĠKTQ":12200,"third":12201,"Ġ1906":12202,"),...":12203,"ĠIX":12204,"ĠKha":12205,"Ġasth":12206,"ĠRobot":12207,"ĠÃĬ":12208,"aped":12209,"atient":12210,"ears":12211,"Ġcomm":12212,"verty":12213,"Ġimages":12214,"NháºŃn":12215,"negative":12216,"totic":12217,"toxin":12218,"others":12219,"Ġuncertain":12220,"Ġaggreg":12221,"Ġtransf":12222,"Ġamoxicillin":12223,"Ġeps":12224,"Ġ[]":12225,"Ġpersistent":12226,"Ġtwice":12227,"Ġpoverty":12228,"spk":12229,"Ġlikelihood":12230,"Ġpredict":12231,"Ġbreed":12232,"Ġsinglestep":12233,"ĠGuidelines":12234,"ideline":12235,"Ġillnesses":12236,"Ġvisible":12237,"Ġcontributes":12238,"Malfoy":12239,"Ġsurvive":12240,"Ġreplaced":12241,"Ġpleurisy":12242,"Ġassessment":12243,"Ġhunger":12244,"Ġstimulation":12245,"Ġpapillary":12246,"Ġpsychological":12247,"Ġlevothyroxine":12248,"Ġmeasurement":12249,"Ġvoice":12250,"Ġplaques":12251,"affee":12252,"Ġoxide":12253,"Ġnewborns":12254,"llmc":12255,"Ġdocumented":12256,"Ġexperienced":12257,"Ġdelayed":12258,"Huáº¿":12259,"ĠPleik":12260,"Ġcarbohydrate":12261,"Ġintracranial":12262,"Ġbuffer":12263,"ocardial":12264,"Ġemploy":12265,"ĠLewy":12266,"Ġrifampicin":12267,"Ġrhin":12268,"ospital":12269,"loxacin":12270,"Ġsputum":12271,"ĠKTQS":12272,"Cá»Ńa":12273,"LP":12274,"Tam":12275,"itions":12276,"Ïģ":12277,"Ġcá»Ļ":12278,"ĠcÃ´i":12279,"ĠlÃ³c":12280,"Ġmorb":12281,"Ġsáº¥u":12282,"Ġgout":12283,"Ġrá»įi":12284,"ĠVR":12285,"ĠBá»Ļt":12286,"ĠBoston":12287,"ĠSil":12288,"ĠDep":12289,"ĠChrist":12290,"ĠAv":12291,"ĠGÃ³c":12292,"ĠGDP":12293,"Ġconv":12294,"ÄĲT":12295,"ÄĲá»Ŀi":12296,"1950":12297,"quan":12298,"ĠInv":12299,"2015":12300,"erald":12301,"tility":12302,"insky":12303,"Ġmaint":12304,"Ġcalo":12305,"ĠvÃµng":12306,"Ġhá»ķng":12307,"ĠbÆ¡m":12308,"Ġepidemics":12309,"=(":12310,"Báº¡n":12311,"DÆ°Æ¡ng":12312,"En":12313,"FE":12314,"GF":12315,"Men":12316,"Ná»Ļi":12317,"National":12318,"PR":12319,"ToÃłn":12320,"Vitamin":12321,"káº¿":12322,"mad":12323,"moid":12324,"oise":12325,"quá»ĳc":12326,"rm":12327,"sÆ°":12328,"uv":12329,"viÃªm":12330,"Äģ":12331,"æĪ":12332,"æŃ":12333,"Ġuáº¥t":12334,"Ġcá»įng":12335,"ĠcÆ°á»¡i":12336,"ĠÄĳá»ĳ":12337,"Ġhs":12338,"ĠhÃ©":12339,"Ġhapp":12340,"Ġsáº§m":12341,"Ġsáº¹o":12342,"Ġdark":12343,"Ġgom":12344,"ĠgÃ¡y":12345,"ĠTá»ĭnh":12346,"Ġngáº¡ch":12347,"Ġngáº©n":12348,"inv":12349,"ĠCogn":12350,"ĠMad":12351,"ĠMÃłu":12352,"ĠÄĲáº·t":12353,"ĠLung":12354,"ĠPal":12355,"ĠPres":12356,"ĠPsych":12357,"ĠSat":12358,"Ġtom":12359,"Ġtoday":12360,"icyl":12361,"ĠDut":12362,"ĠKoch":12363,"oded":12364,"ĠXÃŃ":12365,"ĠXIII":12366,"ThÆ°á»Ŀng":12367,"ĠJordan":12368,"aka":12369,"aking":12370,"Ġparalysis":12371,"Ġacids":12372,"Ġbasis":12373,"Ġglucagon":12374,"1999":12375,"Ġreports":12376,"Ġlayers":12377,"Ġvision":12378,"ompute":12379,"Ġissues":12380,"ĠBuá»ķi":12381,"ĠSpecial":12382,"Ġquickly":12383,"aphylococ":12384,"BÃ¡c":12385,"Gen":12386,"LT":12387,"Ná»ģn":12388,"Node":12389,"PE":12390,"lated":12391,"next":12392,"sampl":12393,"ui":12394,"zo":12395,"ĠtÃ²":12396,"ĠnhÅ©":12397,"ĠTáº¡ng":12398,"ĠNT":12399,"ĠNig":12400,"Ġrá»£":12401,"Ġreo":12402,"ĠCá»Ŀ":12403,"ĠBell":12404,"ĠLáº¥y":12405,"Ġfet":12406,"ĠCháº¥n":12407,"omain":12408,"ida":12409,"Ġisinstance":12410,"Ġkhoang":12411,"ĠRay":12412,"ephen":12413,"Ġprost":12414,"Trá»Ŀi":12415,"Ġ01":12416,"Ġaden":12417,"Ġ125":12418,"Ġunless":12419,"ĠArab":12420,"Ġnewly":12421,"Ġentry":12422,"roduction":12423,"Ġstarts":12424,"including":12425,"Ġargv":12426,"Ġderived":12427,"ĠArgentina":12428,".;":12429,"Dá»ĭch":12430,"GB":12431,"Rá»ĵi":12432,"RiÃªng":12433,"Several":12434,"_(":12435,"dá»ĭch":12436,"high":12437,"ih":12438,"ÃĹ":12439,"çį":12440,"è®":12441,"Ġide":12442,"Ġtá»ĭ":12443,"ĠcáºŃt":12444,"Ġcreat":12445,"ĠÄĳiáº¿m":12446,"ĠlÃºng":12447,"Ġhearing":12448,"Ġcháº£ng":12449,"ĠchÃ³i":12450,"Ġsá»ĩt":12451,"Ġschedule":12452,"ĠnÃ¡o":12453,"Ġnodule":12454,"Ġnutrients":12455,"Ġdáº·n":12456,"Ġpig":12457,"Ġpituitary":12458,"ĠTÃ¡":12459,"ĠTENSOR":12460,"ĠphÃ¨n":12461,"ĠNetwork":12462,"anl":12463,"onset":12464,"ĠCáº©n":12465,"ĠVá»±c":12466,"ĠHÃ¢n":12467,"ĠHospital":12468,"chron":12469,"Ġhá»ĥn":12470,"ĠMáº«n":12471,"arcoma":12472,"ĠÄĲÆ°Æ¡ng":12473,"ĠBÃ¹a":12474,"ĠThiá»ģn":12475,"ĠLos":12476,"ĠLÃ´i":12477,"ĠLá»Ĺi":12478,"itre":12479,"itwick":12480,"Ġwte":12481,"iá»ĥng":12482,"ĠDevelopment":12483,"ĠDespite":12484,"ĠKHÃĶNG":12485,"ĠKosy":12486,"thiÃªn":12487,"idal":12488,"idney":12489,"Ġsá»ĳc":12490,"Ġconvention":12491,"Ġconjugated":12492,"acting":12493,"ulmonary":12494,"Ġeight":12495,"ĠGiÃłng":12496,"ĠXÆ°á»Łng":12497,"tra":12498,"Tho":12499,"ĠHooch":12500,"otoxic":12501,"hips":12502,"Ġrespec":12503,"ChÃłng":12504,"Cholera":12505,"Ġnote":12506,"ubation":12507,"Ġcavity":12508,"Ġrectum":12509,"Ġrehydration":12510,"Ġwash":12511,"ĠNghiá»ĩp":12512,"Ġantigens":12513,"Ġshot":12514,"Ġoverweight":12515,"disc":12516,"Ġformed":12517,"Ġuptake":12518,"Ġdraw":12519,"ĠGeneral":12520,"Ġpoison":12521,"spinal":12522,"Ġroi":12523,"Ġbiom":12524,"giáº£n":12525,"axis":12526,"Ġdiscuss":12527,"ĠCollec":12528,"Ġpatron":12529,"Ġzoster":12530,"Ġhá»ķn":12531,"ĠGeorges":12532,"Ġreceived":12533,"Ġcircum":12534,"mediated":12535,"ĠIslam":12536,"Ġarteries":12537,"Ġvessel":12538,"Ġisolation":12539,"Ġeczema":12540,"Ġfungi":12541,"ĠAmong":12542,"Ġlargely":12543,"Ġobserv":12544,"Ġslowly":12545,"Ġpathogens":12546,"Ġstrongly":12547,"Ġliqu":12548,"Ġlatter":12549,"Ġworsening":12550,"ĠFlitwick":12551,"Ġunderstood":12552,"Ġpreventive":12553,"Ġweakness":12554,"chemical":12555,"ĠInfection":12556,"ĠErnie":12557,"çļĦ":12558,"Ġconcentration":12559,"SPEC":12560,"Ġhistorical":12561,"diffusion":12562,"æĸĩ":12563,"ĠAntibiotics":12564,"Ġunconjugated":12565,"ĠDifferential":12566,"Ġportion":12567,"Ġemotional":12568,"Ġautoantibodies":12569,"ercury":12570,"Ġasthma":12571,"Ġtransfusions":12572,"ĠKosygin":12573,"Há»ıi":12574,"Le":12575,"RE":12576,"Sáº£n":12577,"ÃĬ":12578,"ĠÆ¯u":12579,"á»¦":12580,"ĠvÃ¡":12581,"ĠvÃºt":12582,"ĠvÃ¹i":12583,"Ġlá»¥y":12584,"Ġnháº¥p":12585,"Ġgá»įt":12586,"ĠTer":12587,"ĠTáº¥m":12588,"Ġvá»Ŀ":12589,"ĠHop":12590,"Ġxiáº¿t":12591,"ĠBio":12592,"ĠLÃ¡ng":12593,"ĠSam":12594,"Ġwrit":12595,"Ġhop":12596,"ĠDáº§u":12597,"ĠDÃ²ng":12598,"ĠCháº£":12599,"Ġyour":12600,"ĠGiÃ³":12601,"ÄĲá»Ļ":12602,"ÄĲoáº¡n":12603,"ĠJim":12604,"ĠlÃ£i":12605,"Ġspin":12606,"Ġ{}":12607,",...)":12608,"Ġmonth":12609,"Ġtá»ĩp":12610,"Ġefforts":12611,"Ġmarket":12612,"Ġxá»īu":12613,"Ġkáº½m":12614,"Ġarticle":12615,"86":12616,"Lá»¥c":12617,"One":12618,"Tai":12619,"VÆ°Æ¡ng":12620,"XÃ©t":12621,"cm":12622,"fr":12623,"hel":12624,"lÃŃnh":12625,"mÃł":12626,"mann":12627,"æ¨":12628,"ç´":12629,"Ġhim":12630,"ĠhÃºy":12631,"Ġmá»Ńa":12632,"Ġmove":12633,"Ġsá»§i":12634,"ĠtrÃ³i":12635,"Ġkinase":12636,"Ġnetwork":12637,"ĠTan":12638,"Ġnguyá»ģn":12639,"Ġpháº¥t":12640,"ĠNáº¡i":12641,"inine":12642,"ĠCá»§":12643,"orge":12644,"orie":12645,"ĠLáº¡nh":12646,"ĠLife":12647,"Ġchoice":12648,"rough":12649,"Ġhoáº¡n":12650,"Ġ\"...":12651,"ading":12652,"ĠHouse":12653,"Ġdiss":12654,"erson":12655,"TrÄĥm":12656,"phÃ¢n":12657,"Ġgenotype":12658,"Ġ02":12659,"Ġrecompute":12660,"Ġá»Ķ":12661,"Äĳá»ĵng":12662,"Ġ1775":12663,"encing":12664,"Ġplan":12665,"Ġplant":12666,"ĠAlf":12667,"Ġrepeat":12668,"Ġsignals":12669,"Ġdifferential":12670,"Ġxui":12671,"aham":12672,"Ġ1888":12673,"Ġgrowing":12674,"Ġcarried":12675,"Ġequal":12676,"ĠStrateg":12677,"Ġrapidly":12678,"ĠCá»©u":12679,"ĠPython":12680,"ĠDominique":12681,"Ġknowledge":12682,"ĠChristian":12683,"DÃ¹ng":12684,"May":12685,"Tá»±":12686,"dale":12687,"fit":12688,"pts":12689,"rd":12690,"Ä«":12691,"áº¦":12692,"Ġtáº©y":12693,"Ġcá»įc":12694,"Ġbáº¿":12695,"ĠbÃº":12696,"Ġchá»ĳc":12697,"Ġdat":12698,"Ġdominant":12699,"Ġngai":12700,"inters":12701,"ĠCre":12702,"cháº¥t":12703,"ĠMond":12704,"ĠMass":12705,"ĠÄĲau":12706,"icter":12707,"ĠNghe":12708,"Ġ1909":12709,"ĠGiáº¥y":12710,"itiz":12711,"Nguá»ĵn":12712,"ĠFebruary":12713,"Ġ69":12714,"illa":12715,"Ġ81":12716,"Ġ1952":12717,"ĠHuáº¥n":12718,"Ġfollows":12719,"Ġpartly":12720,"tificial":12721,"ĠHarvard":12722,"ĠSimilar":12723,"Ġmolecular":12724,"asteur":12725,"84":12726,"MN":12727,"Muá»ĳn":12728,"OE":12729,"Per":12730,"Song":12731,"UC":12732,"Wood":12733,"bing":12734,"bytes":12735,"cpy":12736,"np":12737,"nis":12738,"vá»ģ":12739,"ya":12740,"}\")":12741,"ç¿":12742,"Ġcode":12743,"ĠÄĳam":12744,"ĠÄĳiáº¿u":12745,"Ġvocal":12746,"ĠlÃ¡o":12747,"ĠmIU":12748,"ĠcháºŃt":12749,"Ġswe":12750,"ĠtrÄ©":12751,"Ġkáº¹t":12752,"Ġdri":12753,"Ġdental":12754,"Ġgá»¥c":12755,"inely":12756,"erob":12757,"ĠCE":12758,"ĠCÃ¡n":12759,"amen":12760,"Æ°á»£m":12761,"Ġagricult":12762,"tip":12763,"ĠHiá»ĥu":12764,"Ġxq":12765,"ĠMá»Ł":12766,"ĠMá»©c":12767,"alis":12768,"ĠBel":12769,"ĠThá»Ľi":12770,"Ġinternal":12771,"ĠTruman":12772,"itin":12773,"Ġfing":12774,"Ġfarm":12775,"rospinal":12776,"ĠSÃ¡u":12777,"Ġwant":12778,"Ġways":12779,"ĠNgu":12780,"ĠDÄ©nh":12781,"lets":12782,"ĠGerman":12783,"Ġlá»£p":12784,"usitis":12785,"iaxone":12786,"Ġ1919":12787,"ĠQuáº£":12788,"oplasm":12789,"...;":12790,"ĠGiÃłu":12791,"triaxone":12792,"ocortic":12793,"luenz":12794,"Ġkhuá»·":12795,"ĠElec":12796,"Ġcommer":12797,"see":12798,"sey":12799,"ĠFran":12800,"extract":12801,"Ġusual":12802,"Ġresolve":12803,"Ġ94":12804,"gnancy":12805,"Ġá»ľ":12806,"Ġwhom":12807,"lasia":12808,"Ġinflamed":12809,"Ġcartil":12810,"Ġarth":12811,"Ġantiretroviral":12812,"Ġcontagious":12813,"Ġmedia":12814,"Ġcausative":12815,"merta":12816,"ĠUnder":12817,"ĠUnlike":12818,"astolic":12819,"Ġrepeated":12820,"ameth":12821,"Ġretin":12822,"generation":12823,"Ġranges":12824,"Ġmeninges":12825,"orning":12826,"Ġshoulder":12827,"Ġindirect":12828,"Ġseverely":12829,"ference":12830,"ĠAmericas":12831,"256":12832,"Ġngá»§i":12833,"ĠQuÃ½nh":12834,"Ġclassifier":12835,"Ġspreading":12836,"Ġspecificity":12837,"Ġidentifying":12838,"arria":12839,"cinÃ´m":12840,"ĠCarl":12841,"Ġhospitals":12842,"Ġhemorrh":12843,"mmet":12844,"Ġcapacity":12845,"ephritis":12846,"ĠÏķ":12847,"Ġcontributing":12848,"Ġroutinely":12849,"ĠTHPT":12850,"asalazine":12851,"sumi":12852,"ogenesis":12853,"Ġcerebrospinal":12854,"Ġrequiring":12855,"infection":12856,"ISION":12857,"ECISION":12858,"Ġmovements":12859,"Ġblister":12860,"iliary":12861,"qkvw":12862,"singlestep":12863,"Ġnutritional":12864,"Ġmolecules":12865,"Ġregarding":12866,"Ġfeces":12867,"ĠEpilepsy":12868,"Ġdoctors":12869,"Ġextremely":12870,"ĠBetween":12871,"ĠUTIs":12872,"ĠRosmerta":12873,"Ġobtained":12874,"Ġapoptotic":12875,"Ġelectroly":12876,"MARDs":12877,"controlled":12878,"Ġhorse":12879,"Ġbiologics":12880,"Ġblindness":12881,"orbidities":12882,"Ġcheckpoints":12883,"steroidal":12884,"Ġtongue":12885,"Ġtomography":12886,"sampling":12887,"Ġkhuá»·u":12888,"BÃłn":12889,"Cáº£i":12890,"Micro":12891,"SI":12892,"TÃ³m":12893,"World":12894,"ez":12895,"light":12896,"ras":12897,"sub":12898,"ye":12899,"zu":12900,"Ġcá»ĵng":12901,"ĠchÃ³c":12902,"Ġtrack":12903,"Ġgá»Ľm":12904,"onom":12905,"ĠquyÃªn":12906,"ĠCá»ĳc":12907,"ĠCad":12908,"ĠViral":12909,"ĠHT":12910,"ĠHuÃ¢n":12911,"ested":12912,"ĠMont":12913,"arp":12914,"ĠSun":12915,"Ġwr":12916,"ĠKhÃ¡m":12917,"Ġ67":12918,"oge":12919,"Ġ1800":12920,"ipment":12921,"Ġ1400":12922,"Ġentropy":12923,"ĠThoÃ¡t":12924,"Ġsubstanti":12925,"ĠAlexandre":12926,"groups":12927,"ocytosis":12928,".}":12929,"Dáº¥u":12930,"El":12931,"HB":12932,"Hiá»ĩu":12933,"SV":12934,"Tinh":12935,"YÃªn":12936,"ball":12937,"cá»§a":12938,"mes":12939,"otic":12940,"ride":12941,"zon":12942,"¥é":12943,"Åį":12944,"æ²":12945,"æĹ":12946,"çī":12947,"Ġ]":12948,"Ġ~":12949,"Ġcity":12950,"nháº¡c":12951,"ĠvÃ©":12952,"Ġváº¡c":12953,"ĠláºŃn":12954,"Ġhuyá»ĩt":12955,"Ġsáº£i":12956,"Ġkali":12957,"Ġperm":12958,"Ġpack":12959,"Ġnhung":12960,"ĠTor":12961,"Ġnga":12962,"inting":12963,"ĠCab":12964,"Ġvá»±ng":12965,"chy":12966,"Ġolig":12967,"ĠÄĲá»©ng":12968,"ĠThá»¥":12969,"ĠLem":12970,"ĠLinux":12971,"asks":12972,"Ġfish":12973,"rovers":12974,"ĠSkin":12975,"ĠNgung":12976,"ĠChá»ķi":12977,"emen":12978,"thal":12979,"Ġ1928":12980,"Tháº¡ch":12981,"ersin":12982,"ĠÃī":12983,"ocaine":12984,"ĠUáº¥t":12985,"ĠWat":12986,"TrÃ¡nh":12987,"ables":12988,"ĠEnd":12989,"hould":12990,"tices":12991,"Ġluá»ĵn":12992,"ĠJon":12993,"Ġtrá»£n":12994,"Ġview":12995,"Ġ920":12996,"Ġspk":12997,"Ġ04":12998,"ĠNghiÃªm":12999,"Ġarch":13000,"Ġcontrovers":13001,"1885":13002,"Ġformat":13003,"1971":13004,"Ġbasic":13005,"1998":13006,"ĠHuynh":13007,"Ġ1883":13008,"Ġdefinitive":13009,"Ġrecently":13010,"ĠSystems":13011,"ĠBerkel":13012,"Ġsettings":13013,"ĠPublic":13014,"ĠMechan":13015,"çļĩ":13016,"ĠLucien":13017,"Ġibuprofen":13018,"Ġgamma":13019,"ĠStaley":13020,"George":13021,"aphylococcus":13022,"ĠBerkeley":13023,"AB":13024,"How":13025,"TuyÃªn":13026,"ipro":13027,"mol":13028,"Ãĥ":13029,"á»ª":13030,"Ġtable":13031,"nhÆ°ng":13032,"Ġtháº£n":13033,"ĠbÃŃt":13034,"Ġmá»ĭt":13035,"Ġnháº¥c":13036,"Ġgáº¥u":13037,"ĠTT":13038,"ĠTay":13039,"Ġquá»³":13040,"ĠHuman":13041,"ĠMati":13042,"ĠBul":13043,"ĠLev":13044,"itt":13045,"ĠSol":13046,"ĠKol":13047,"Ġloa":13048,"enter":13049,"ĠNháºŃp":13050,"acent":13051,"Ġyet":13052,"ĠRob":13053,"ÄĲa":13054,"ÄĲÆ°a":13055,"oct":13056,"ĠUp":13057,"ĠEven":13058,"Ġ89":13059,"inton":13060,"Äĳáº¡i":13061,"Ġfair":13062,"ĠChuáº©n":13063,"ublic":13064,"ĠCompan":13065,"Ġproviding":13066,"Ġ1867":13067,"ermanent":13068,";...":13069,"Báº¯t":13070,"CI":13071,"HÃłnh":13072,"MÃł":13073,"MÃ¬":13074,"Psoriasis":13075,"Xin":13076,"biÃªn":13077,"bound":13078,"cutaneous":13079,"ei":13080,"oeconomic":13081,"pm":13082,"qdm":13083,"stim":13084,"tol":13085,"uan":13086,"xic":13087,"yond":13088,"Î½":13089,"è¶Ĭ":13090,"á»Ĩ":13091,"ĠtÃ²ng":13092,"Ġtá»§i":13093,"Ġtháº¹n":13094,"Ġváº¡":13095,"ĠvÃŃa":13096,"Ġláº©m":13097,"Ġliáº¿ng":13098,"Ġlá»Ńng":13099,"Ġháº¥t":13100,"ĠhÃ¨n":13101,"Ġmist":13102,"Ġsores":13103,"Ġtry":13104,"Ġkung":13105,"Ġná»©c":13106,"Ġdiá»ĩu":13107,"Ġdáº¡n":13108,"Ġdate":13109,"Ġduct":13110,"ĠpH":13111,"Ġpp":13112,"Ġpadded":13113,"Ġpylori":13114,"ĠnhÃ´":13115,"Ġgain":13116,"ĠTÆ¡":13117,"Ġkhá»įt":13118,"ĠngÃ³ng":13119,"ĠNUM":13120,"Ġrul":13121,"ĠCVD":13122,"entical":13123,"ĠHal":13124,"ĠHashimoto":13125,"estive":13126,"ĠxÆ°á»Ŀng":13127,"chi":13128,"ĠÄĲÃ©c":13129,"ĠBá»īnh":13130,"ĠThiÃªm":13131,"ĠThail":13132,"itable":13133,"asion":13134,"Ġfer":13135,"Ġfig":13136,"Ġfasting":13137,"rep":13138,"ĠSÃ¡n":13139,"ĠSpr":13140,"Ġwood":13141,"ĠNgÃłnh":13142,"ĠChiáº¿u":13143,"left":13144,"ĠGá»Ĺ":13145,"usc":13146,"Ġloan":13147,"Ġlobe":13148,"Ġ1926":13149,"ĠNhiá»ħm":13150,"urally":13151,"Ġconver":13152,"Ġconsequence":13153,"olok":13154,"ĠKhrush":13155,"Ġfore":13156,"Ġbeyond":13157,"ĠRá»ĭa":13158,"Ġpromin":13159,"endritic":13160,"agic":13161,"lup":13162,"Ġones":13163,"abbers":13164,"quences":13165,"Ġincome":13166,"Ġreserv":13167,"Ġpriv":13168,"ĠJunction":13169,"Ġ108":13170,"Ġgenotypes":13171,"Ġspect":13172,"gnon":13173,"avio":13174,"Ġelements":13175,"Ġunable":13176,"Ġneural":13177,"isms":13178,"Ġassist":13179,"Ġcomputing":13180,"Ġcompreh":13181,"ĠPark":13182,"Ġmanif":13183,"Ġshock":13184,"Ġintensive":13185,"cerative":13186,"lammatory":13187,"Ġcoli":13188,"parameter":13189,"oxy":13190,"Ġpolys":13191,"ylaxis":13192,"Ġhypothesis":13193,"Ġprevents":13194,"Ġcorrelated":13195,"Ġmodules":13196,"attprojw":13197,"Ġinhal":13198,"incip":13199,"ĠDien":13200,"Ġdamaged":13201,"ĠMcNam":13202,"Another":13203,"Ġhormones":13204,"Ġindicator":13205,"Ġbreeds":13206,"iddens":13207,"Ġshortness":13208,"Ġflare":13209,"Ġglobulin":13210,"Alzheimer":13211,"Ġeffusion":13212,"Ġfibr":13213,"Ġnucleus":13214,"Ġradiotherapy":13215,"Ġlasting":13216,"Ġmembran":13217,"Ġtends":13218,"Ġpancreatic":13219,"fcw":13220,"fcprojw":13221,"Ġoriginated":13222,"Ġdrops":13223,"kinesia":13224,"coeff":13225,"Ġvarying":13226,"Ġpromote":13227,"agoong":13228,"Ġirritant":13229,"Ġconnective":13230,"Ġsclerosis":13231,"à¹ī":13232,"Ġprofessionals":13233,"Ġcystic":13234,"ĠOften":13235,"Ġsteroids":13236,"Ġdetectable":13237,"Ġconcerns":13238,"Ġbinding":13239,"Ġdoctor":13240,"ĠMarius":13241,"ĠTechnical":13242,"ĠGRDP":13243,"Ġchromosome":13244,"Ġperiodontal":13245,"ĠHaem":13246,"Polo":13247,"Ġtournament":13248,"Ġ----------------------------------------------------------------------------":13249,"Pettigrew":13250,"ĠLansdale":13251,"çįħ":13252,"luenza":13253,"Ġcartilage":13254,"ĠMatignon":13255,"Ġmistaken":13256,"ĠThailand":13257,"ĠMcNamara":13258,"150":13259,"DT":13260,"HI":13261,"Is":13262,"Má»¥":13263,"OD":13264,"Op":13265,"`,":13266,"ĠÄĳáº«m":13267,"Ġtháº¡c":13268,"Ġlá»¥i":13269,"ĠhÆ°u":13270,"ĠhÃ²m":13271,"Ġbá»ĵng":13272,"ĠnÃŃn":13273,"ĠnhÃ¡t":13274,"ĠnhÃ¡y":13275,"Ġngáº¡n":13276,"ĠrÃ´":13277,"ĠrÃ¢m":13278,"ÃŃu":13279,"Ġaway":13280,"ĠxÃ¹":13281,"ĠÄĲÃ¡ng":13282,"ĠBiá»ĩn":13283,"ĠThÃŃ":13284,"Ġinstr":13285,"ĠChá»ĭ":13286,"ilt":13287,"ĠID":13288,"ĠKhÃŃ":13289,"ĠUse":13290,"ogan":13291,"Ġ73":13292,"ĠOOP":13293,"oseola":13294,"Ġparallel":13295,"Ġmanage":13296,"ophage":13297,"Ġdescent":13298,"ĠArth":13299,"ĠOnly":13300,"ĠVaccine":13301,"Ġstrategy":13302,"Dá»¯":13303,"EX":13304,"GÃ²":13305,"HÆ°Æ¡ng":13306,"KÃªnh":13307,"PCR":13308,"Vá»ĭnh":13309,"dd":13310,"full":13311,"jective":13312,"nÃ´m":13313,"pat":13314,"tu":13315,"yan":13316,"yto":13317,"éĽ":13318,"Ġthá»ĳn":13319,"Ġvul":13320,"Ġváº¯n":13321,"Ġbá»ķng":13322,"Ġkind":13323,"Ġnáº¥p":13324,"ĠnÃ´m":13325,"ĠdÃ£i":13326,"Ġpower":13327,"Ġpump":13328,"ĠnháºŃu":13329,"ĠkhÄĥng":13330,"onucle":13331,"ĠCÃ©":13332,"ĠCult":13333,"Ġquáº§y":13334,"ĠMÃ£o":13335,"ĠMOS":13336,"ĠÄĲÃª":13337,"ĠLear":13338,"augh":13339,"thel":13340,"eves":13341,"Ġforce":13342,"ĠRNN":13343,"ĠXII":13344,"Thay":13345,"Ġalloc":13346,"Chuyá»ĥn":13347,"ChÃ¡u":13348,"ibri":13349,"PháºŃn":13350,"Ġ175":13351,"urns":13352,"Ġeffectively":13353,"Ġmaxim":13354,"awa":13355,"_{\\":13356,"ĠComputer":13357,"Ġ1887":13358,"ĠGeometry":13359,"Giá»Ľi":13360,"Ġmarker":13361,"ĠMalaya":13362,"ĠValue":13363,"ĠMyan":13364,"å¸Ŀ":13365,"ĠOpera":13366,"ĠâĨĴ":13367,"ĠMendel":13368,"erobic":13369,"Aut":13370,"HC":13371,"HÃłm":13372,"mÃłu":13373,"tx":13374,"vÄĥn":13375,"Ġlic":13376,"Ġká»ĩ":13377,"ĠTw":13378,"ĠrÃªu":13379,"ĠThá»©c":13380,"Æ°Æ¡u":13381,"ĠPac":13382,"asw":13383,"ĠDeath":13384,"ĠPhÃ¡i":13385,"ĠKá»µ":13386,"ĠkhoÃ¡n":13387,"Ġkhoáº£nh":13388,"agn":13389,"ĠEach":13390,"áº³m":13391,"Ġ128":13392,"Khai":13393,"Ġ166":13394,"Ġwhole":13395,"GiÃ¡":13396,"Ġdecl":13397,"Ġformal":13398,"ĠProject":13399,"1994":13400,"ĠTherefore":13401,"Ġcapsid":13402,"Ġ1789":13403,"ĠLavender":13404,"ĠBernard":13405,"ĠHawai":13406,"!...":13407,",\"":13408,",).":13409,".\".":13410,":.":13411,"Ap":13412,"Cá»©":13413,"Chi":13414,"DNN":13415,"Non":13416,"Tá»īnh":13417,"báº¯t":13418,"bilirubin":13419,"din":13420,"fur":13421,"first":13422,"gyp":13423,"gate":13424,"gency":13425,"ht":13426,"lan":13427,"mark":13428,"mitted":13429,"sd":13430,"taylor":13431,"Îµ":13432,"ãĤ":13433,"å¯":13434,"å¼":13435,"æµ":13436,"áºł":13437,"Ġcat":13438,"Ġcrop":13439,"Ġcats":13440,"Ġthong":13441,"Ġthyro":13442,"ĠvÆ¡":13443,"Ġlith":13444,"Ġbá»į":13445,"Ġmath":13446,"Ġmothers":13447,"Ġsepsis":13448,"Ġtremor":13449,"ĠnÃ¡ch":13450,"ĠnÃµ":13451,"Ġná»¡":13452,"Ġná»©a":13453,"Ġdict":13454,"Ġpermanent":13455,"Ġkhan":13456,"ĠngÃ¡n":13457,"ĠNÃł":13458,"onists":13459,"ĠCase":13460,"ĠCoss":13461,"amph":13462,"ĠViá»ĩp":13463,"ĠHiÃªn":13464,"ĠHans":13465,"chÆ°a":13466,"child":13467,"ĠMá»ĳi":13468,"ĠMÃ¨n":13469,"alazine":13470,"Ġom":13471,"ĠÄĲáº¡m":13472,"ĠBP":13473,"ĠBrain":13474,"Ġank":13475,"ĠPsoriasis":13476,"rolog":13477,"ĠDean":13478,"ĠChÃ¡u":13479,"omatitis":13480,"Ġgiá»ı":13481,"Ġ\".":13482,"Ġ1932":13483,"Ġ1922":13484,"ĠNháº±m":13485,"etts":13486,"ĠQuá»³":13487,"odef":13488,"opo":13489,"ĠRen":13490,"ĠXá»Ń":13491,"cephal":13492,"ocomp":13493,"ocarditis":13494,"appro":13495,"aplastic":13496,"Ngoáº¡i":13497,"izure":13498,"Ġdiure":13499,"ellasw":13500,"ands":13501,"phÆ°Æ¡ng":13502,"pháº£n":13503,"Ġiter":13504,"2018":13505,"2023":13506,"nea":13507,"Ġcá»¥t":13508,"ĠAlan":13509,"lamy":13510,"Ġcompar":13511,"Ġoccurrence":13512,"Infec":13513,"Ġrepair":13514,"Ġconstip":13515,"Ġpains":13516,"Ġinvasive":13517,"Ġposterior":13518,"Ġmalnourished":13519,"acquired":13520,"Ġbiologic":13521,"1996":13522,"Ġchanged":13523,"ĠScabbers":13524,"Ġdescribe":13525,"Ġheadaches":13526,"ĠÎ±":13527,"Ġ1880":13528,"ieval":13529,"Ġdairy":13530,"Ġflares":13531,"normally":13532,"Ġintra":13533,"Ġ1868":13534,"Ġhospitalized":13535,"dims":13536,"Ġexpensive":13537,"mathrm":13538,"Ġmucus":13539,"ĠÏĢ":13540,"classifier":13541,"Ġclearance":13542,"Ġsaliva":13543,"Ġdisturb":13544,"Ġsinuses":13545,"Ġprobiotics":13546,"Ġroute":13547,"Ġequally":13548,"Ġavoiding":13549,"ĠBooks":13550,"scratch":13551,"Ġlocalized":13552,"Ġclothing":13553,"Ġâī¤":13554,"Ġaspiration":13555,"Ġchloride":13556,"Hypothyroidism":13557,"Parameter":13558,"Ġrandomized":13559,"Ġtokenizer":13560,"Ġconcern":13561,"Ġsecretion":13562,"correcting":13563,"Ġharmful":13564,"ĠCSF":13565,"ĠÄĳá»Ŀn":13566,"Ġsheep":13567,"Ġscientific":13568,"oquinol":13569,"Ġswallowing":13570,"ĠMathematic":13571,"Ġexhibit":13572,"Hepatitis":13573,"Ġburning":13574,"ĠSabah":13575,"Ġcycle":13576,"Ġparkinsonism":13577,"ĠOlympic":13578,"course":13579,"ĠPleiku":13580,"Ġpatronum":13581,"arriage":13582,"aviolet":13583,"ĠnÃµn":13584,"ĠCossack":13585,"ellaswag":13586,"Ġconstipation":13587,"'re":13588,"OT":13589,"SE":13590,"Script":13591,"Tiáº¿p":13592,"báº£n":13593,"hai":13594,"sm":13595,"sáº½":13596,"á»Ĳ":13597,"ĠvÃ¡ng":13598,"Ġbáº§y":13599,"Ġmeal":13600,"Ġket":13601,"Ġnáº¡i":13602,"ĠnÃłnh":13603,"ĠnÆ°á»Ľu":13604,"Ġron":13605,"Ġráº©y":13606,"ĠrÃ¨m":13607,"esting":13608,"ĠMÃ£n":13609,"ĠLáº¯k":13610,"ĠSáº¯p":13611,"ĠPhot":13612,"emann":13613,"lov":13614,"ĠWater":13615,"ĠEcon":13616,"Ġstatis":13617,"ĠFrom":13618,"Ġ91":13619,"place":13620,"PhÃ¡t":13621,"Ġ121":13622,"Ġhuynh":13623,"Ġplat":13624,"ĠHaiti":13625,"Ġsubject":13626,"ĠNews":13627,"Ġsecurity":13628,"ĠLuáºŃn":13629,"ĠCarter":13630,"liest":13631,"aneously":13632,"ĠWithout":13633,"onnaise":13634,"ĠIgG":13635,"ĠAlexander":13636,"iopia":13637,"After":13638,"Cá»ĳm":13639,"Mar":13640,"TÃ¢n":13641,"VÆ°á»Ŀn":13642,"YÃªu":13643,"há»ĩ":13644,"iu":13645,"module":13646,"not":13647,"rus":13648,"rati":13649,"tÆ°":13650,"tÃłi":13651,"Î¹":13652,"ĠÐ":13653,"Ġáº¯t":13654,"Ġà¸":13655,"ĠcÆ°a":13656,"Ġcháº»":13657,"Ġsed":13658,"Ġsap":13659,"Ġnai":13660,"Ġnáº¥y":13661,"ĠdÄĥm":13662,"Ġdnorm":13663,"Ġgas":13664,"ĠTÃ¡i":13665,"ĠTuyá»ģn":13666,"ĠpháºŃt":13667,"ĠphÃ¨o":13668,"áº¥ng":13669,"ĠrÅ©":13670,"Ġrub":13671,"onance":13672,"ĠxÃ¡t":13673,"orum":13674,"ĠMT":13675,"ĠMex":13676,"ĠÄĲI":13677,"ĠBá»ī":13678,"ĠThuá»Ļc":13679,"ĠThÃ´n":13680,"ato":13681,"ĠSá»©":13682,"ĠSom":13683,"ĠSQL":13684,"Ġwide":13685,"ĠPhnÃ´m":13686,"omyc":13687,"ĠGS":13688,"thá»ĳng":13689,"iative":13690,"Ġlost":13691,"olon":13692,"odon":13693,"oplasma":13694,"adel":13695,"tration":13696,"ĠHoáº·c":13697,"ĠEduc":13698,"hoe":13699,"Ġmayonnaise":13700,"Ġstrept":13701,"ĠsoÃ¡i":13702,"Ġresid":13703,"ĠAndr":13704,"ries":13705,"phá»Ł":13706,"phÃ¡t":13707,"Nháº¥t":13708,"Nhiá»ĩt":13709,"ĠYersin":13710,"asty":13711,"Ġgháº»":13712,"Ġremaining":13713,"Ġdepth":13714,"}}\\":13715,"à¸§":13716,"à¸°":13717,"ĠCommun":13718,"Ġdiscrim":13719,"Ġexperim":13720,"ĠÎ»":13721,"Ġlimit":13722,"ĠCardi":13723,"ASA":13724,"ivalent":13725,"iota":13726,"ĠArchive":13727,"Ġmatter":13728,"Ġrecognition":13729,"mathbb":13730,"Ġsolutions":13731,"Ġconnection":13732,"å¤§":13733,"abilitation":13734,"Ġbaguette":13735,"Ġrecovery":13736,"depth":13737,"(),":13738,"bot":13739,"ny":13740,"oor":13741,"vati":13742,"ĠcÃ¡m":13743,"ĠÄĳáº¯m":13744,"ĠvÆ°á»Ľng":13745,"Ġhttps":13746,"ĠnÃ©":13747,"ĠTest":13748,"ĠComm":13749,"amily":13750,"ĠViet":13751,"especially":13752,"ĠMáº¥t":13753,"ĠLá»ĳi":13754,"ĠPasteur":13755,"Ġfalse":13756,"ĠKiáº¿m":13757,"usually":13758,"ĠQue":13759,"ĠIr":13760,"Ġord":13761,"itial":13762,"ĠFre":13763,"ĠFried":13764,"Ġ84":13765,"kins":13766,"1024":13767,"conv":13768,"Ġagre":13769,"ĠArist":13770,"140":13771,"Ġearliest":13772,"Ġ240":13773,"ĠGiá»įng":13774,"Ġgeneration":13775,"Ġadvant":13776,"Ġprotect":13777,"return":13778,"Ġactually":13779,"Ġbehind":13780,"Ġcannab":13781,"ĠARN":13782,"ayerNorm":13783,"ĠOffice":13784,"elligence":13785,"1000":13786,"Cá»Ļng":13787,"Ev":13788,"Free":13789,"Hen":13790,"Hang":13791,"Lenin":13792,"OH":13793,"Pneum":13794,"QH":13795,"TH":13796,"VP":13797,"XÃ³t":13798,"ait":13799,"bÃªn":13800,"bfloat":13801,"bladder":13802,"cÅ©ng":13803,"del":13804,"fg":13805,"há»¯u":13806,"habilitation":13807,"lá»±c":13808,"mix":13809,"nel":13810,"vÃło":13811,"vá»ĳn":13812,"å°":13813,"æŀ":13814,"èĥ":13815,"ĠÆ¡":13816,"Ġign":13817,"á»ĺ":13818,"ĠcÃ²":13819,"ĠvÃ¡c":13820,"ĠvÅ©ng":13821,"ĠliÃªng":13822,"ĠlÃ¹n":13823,"ĠhÃŃ":13824,"Ġbáº§n":13825,"Ġmixed":13826,"Ġchá»Ľ":13827,"Ġster":13828,"Ġná»ı":13829,"ĠnáºŃm":13830,"Ġnuclear":13831,"Ġdilation":13832,"Ġdinp":13833,"Ġdendritic":13834,"ĠnhÃº":13835,"ĠnhÃºc":13836,"ĠNations":13837,"ĠNÃĵ":13838,"Ġran":13839,"inating":13840,"ĠCare":13841,"ĠHinh":13842,"ĠHáº¡n":13843,"ĠHerm":13844,"chronic":13845,"ĠMÃły":13846,"ĠÄĲÆ¯á»":13847,"Ġinability":13848,"ĠLau":13849,"ĠLÃ©":13850,"Ġfc":13851,"Ġwin":13852,"ĠDA":13853,"ĠDem":13854,"imumab":13855,"osi":13856,"osomal":13857,"oscler":13858,"ĠNhiá»ĩm":13859,"olysis":13860,"Ġcáº£o":13861,"Ġ316":13862,"ThÃªm":13863,"itidis":13864,"TrÄĥng":13865,"Trá»«":13866,"ĠEvidence":13867,"ĠEgyp":13868,"Ġdiastolic":13869,"therapy":13870,"Ġresume":13871,"Chung":13872,"Ġimplicated":13873,"Ġ1832":13874,"ensus":13875,"Ġgenus":13876,"Ġparents":13877,"mond":13878,"Ġadmission":13879,"Ġabnormally":13880,"Ġelement":13881,"Ġ1792":13882,"Ġcompeti":13883,"Ġmanaged":13884,"Ġouter":13885,"Ġintended":13886,"uncture":13887,"ĠĠĠĠĠĠĠĠĠĠĠĠĠĠĠĠĠĠĠĠĠĠĠĠĠĠĠ":13888,"Ġseq":13889,"Ġagonists":13890,"Ġreliable":13891,"tivity":13892,"Ġimmunodef":13893,"Ġsurf":13894,"Ġsubun":13895,"Ġmallet":13896,"ĠArgs":13897,"Ġinduce":13898,"Ġpouch":13899,"Ġuv":13900,"ytosis":13901,"comfort":13902,"Ġappeti":13903,"Ġserve":13904,"diagnosed":13905,"Ġcenter":13906,"Ġidentical":13907,"Ġbenz":13908,"257":13909,"Ġbiological":13910,"ĠForce":13911,"Ġclassic":13912,"Ġswim":13913,"floatX":13914,"Ġbelief":13915,"ĠVietnamese":13916,"Ġtubercul":13917,"ĠGraves":13918,"Ġinjections":13919,"Ġorganizations":13920,"ebri":13921,"^{-":13922,"Ġdetermining":13923,"Ġrunning":13924,"ĠGoat":13925,"Ġhemat":13926,"Ġreplication":13927,"liomas":13928,"Ġpathology":13929,"astric":13930,"Ġ1787":13931,"Ġglands":13932,"ceptions":13933,"ĠArchives":13934,"Ġvaso":13935,"Ġstructural":13936,"Ġextra":13937,"Ġbrought":13938,"Ġevaluate":13939,"According":13940,"Ġsupportive":13941,"Ġventricle":13942,"ophilus":13943,"Ġissued":13944,"Ġvirion":13945,"ĠStanley":13946,"Ġpathogenesis":13947,"ĠTransmission":13948,"Tá»ķn":13949,"flows":13950,"inny":13951,"Ġenzymes":13952,"Ġobstructive":13953,"Ġgranul":13954,"Ġvaginal":13955,"Ġatrial":13956,"ĠâŁ©":13957,"Ġsituations":13958,"ĠPeninsular":13959,"rangle":13960,"æĿİ":13961,"Ġpallid":13962,"Ġsignaling":13963,"Ġcandid":13964,"ĠKlebs":13965,"Ġcatheter":13966,"ĠCosette":13967,"Ġsubtypes":13968,"Ġcaregivers":13969,"Ġdramatically":13970,"broad":13971,"Ġbiomark":13972,"ĠAlfred":13973,"Ġcomprehensive":13974,"ratio":13975,"Ġappetite":13976,"Cong":13977,"EG":13978,"La":13979,"Sc":13980,"Sang":13981,"Syn":13982,"TÃłi":13983,"Torch":13984,"uages":13985,"ufact":13986,"Ġbáº¡t":13987,"Ġbáº©y":13988,"Ġdáº³ng":13989,"Ġdiáº¿p":13990,"Ġngáº§n":13991,"ĠrÃ©":13992,"ĠCÃ¢n":13993,"ĠMas":13994,"Ġomega":13995,"ĠBonn":13996,"ĠLÃłnh":13997,"ĠShe":13998,"ĠSá»£i":13999,"ĠSá»ĳt":14000,"ĠAedes":14001,"Ġ1916":14002,"actic":14003,"eton":14004,"uts":14005,"utation":14006,"Thá»§":14007,"Thá»§y":14008,"Ġalgorithm":14009,"lution":14010,"NgÃ´n":14011,"Ġdiv":14012,"ĠJoh":14013,"Chá»ĭ":14014,"Ġ1870":14015,"Ġ03":14016,"achus":14017,"ords":14018,"issing":14019,"ourage":14020,"Ġpersonal":14021,"ĠPeru":14022,"ĠCompany":14023,")=":14024,"CÄĥn":14025,"Caf":14026,"Ghi":14027,"Gene":14028,"Háº¡t":14029,"IB":14030,"SD":14031,"dot":14032,"nÃ³i":14033,"should":14034,"tosis":14035,"vua":14036,"¡n":14037,"ä¹":14038,"ä¾":14039,"Ġð":14040,"Ġ).":14041,"Ġá»ĳp":14042,"ĺ®":14043,"Ġcer":14044,"Ġcame":14045,"ĠhÃ³c":14046,"Ġcháº¯t":14047,"Ġsá»ı":14048,"ĠnÃ£y":14049,"Ġpad":14050,"Ġnhe":14051,"ĠgÆ°á»£ng":14052,"Ġgáº§y":14053,"ĠTop":14054,"ĠĠĠĠĠĠ":14055,"ĠNorm":14056,"ĠNik":14057,"ĠrÃ¬a":14058,"erence":14059,"ĠCá»±":14060,"ĠVá»¹":14061,"ĠxÃºi":14062,"ĠMÃ£i":14063,"ĠÄĲuÃ´i":14064,"ĠÄĲá»īnh":14065,"ĠBab":14066,"ĠTrá»©":14067,"ĠTrai":14068,"ĠTrÃ¡nh":14069,"ĠSá»Ńu":14070,"Ġ230":14071,"ĠKÃ©p":14072,"Ġ1901":14073,"ĠNhÆ°á»£ng":14074,"âĢ²":14075,"stack":14076,"...\".":14077,"TháºŃp":14078,"ÄĲÃºng":14079,"Nguy":14080,"ĠFol":14081,"Ġincor":14082,"Ġchiáº¿ng":14083,"Cháº£":14084,"Ġthoi":14085,"aki":14086,"protein":14087,"Ġparacetamol":14088,"Ġtimesteps":14089,"actory":14090,"Phá»¥":14091,"ÄĳÃ´i":14092,"Ġ1777":14093,"ĠStaphylococcus":14094,"entist":14095,"tenance":14096,"ĠMalacc":14097,"ĠKhoan":14098,"Quá»¹":14099,"Ġinteraction":14100,"ĠbÃ©n":14101,"Ġgenetics":14102,"format":14103,"Ġ605":14104,"shift":14105,"uffle":14106,"ĠAdmin":14107,"Ġdescriptions":14108,"ipping":14109,"Ġidentification":14110,"ĠEdwin":14111,"ĠÏī":14112,"Ġtechnology":14113,"Ġstimulate":14114,"Ġpromo":14115,"Ġprogramming":14116,"ĠAngeles":14117,"Vietnamese":14118,"Ġaccuracy":14119,"æľĿ":14120,"STM":14121,"Ġacetyl":14122,"Ġuniversal":14123,"ĠNumber":14124,"respond":14125,"ĠBorneo":14126,"ĠScotland":14127,"accharide":14128,"ĠAndrÃ©":14129,"Buá»ĵn":14130,"Early":14131,"ME":14132,"equ":14133,"hiá»ĩn":14134,"split":14135,"tay":14136,"Ġtháº³m":14137,"Ġháº¯c":14138,"Ġbá»«a":14139,"Ġchain":14140,"Ġchá»ĵn":14141,"Ġdáº§m":14142,"Ġkhiáº¿u":14143,"Ġrid":14144,"ĠCoun":14145,"ĠVis":14146,"ĠHÃ£ng":14147,"ora":14148,"ĠBá»ı":14149,"ĠLÅ©":14150,"Ġfund":14151,"Ġfaster":14152,"elements":14153,"ĠDiá»ĩt":14154,"ĠGard":14155,"lycer":14156,"ĠReg":14157,"ThÃ¬":14158,"ĠÃįt":14159,"ĠEuler":14160,"Ġstd":14161,"Ġstream":14162,"seed":14163,"ĠJa":14164,"ChÆ°a":14165,"Ġ92":14166,"Ġshorter":14167,"Ġworks":14168,"Ġdecades":14169,"Ġinterval":14170,"ailed":14171,"ĠAspir":14172,"inking":14173,"ĠBrune":14174,"ĠAngel":14175,"ĠService":14176,"Ġfocused":14177,"Ġsurveillance":14178,"Ġdevices":14179,"Ġsuccessfully":14180,"ĠLoa":14181,"imbus":14182,"ĠBrunei":14183,"'):":14184,"Ep":14185,"FP":14186,"Float":14187,"GT":14188,"Ging":14189,"KHÃĶNG":14190,"LÃ¢m":14191,"PAR":14192,"Percy":14193,"Sá»ĳt":14194,"XÃ£":14195,"floxacin":14196,"hand":14197,"kal":14198,"momentum":14199,"non":14200,"oque":14201,"uthern":14202,"viral":14203,"xÃ´i":14204,"}=":14205,"¢C":14206,"èģ":14207,"Ġud":14208,"Ġáº¿m":14209,"ĠÆł":14210,"ĠtÃºm":14211,"nghi":14212,"ĠcÃºt":14213,"Ġhar":14214,"ĠhÆ°Æ¡u":14215,"Ġbed":14216,"Ġbul":14217,"Ġbil":14218,"Ġml":14219,"Ġmice":14220,"Ġmix":14221,"Ġmokka":14222,"Ġtrá»į":14223,"Ġtrepon":14224,"Ġnccl":14225,"Ġdx":14226,"ĠTiá»ģu":14227,"ĠTuyáº¿n":14228,"ĠTask":14229,"Ġphag":14230,"ĠNutrition":14231,"ĠNimbus":14232,"Ġrum":14233,"ĠCÃ¡m":14234,"aments":14235,"enth":14236,"Ġaphth":14237,"tid":14238,"ĠVer":14239,"ĠHD":14240,"ĠHHV":14241,"ĠMÆ¡":14242,"ĠLE":14243,"Ġanat":14244,"ĠTrÃ¹ng":14245,"ĠTrots":14246,"ĠPT":14247,"ĠPas":14248,"ĠPÃªnh":14249,"ĠPenn":14250,"ĠPediatric":14251,"ĠPatients":14252,"reland":14253,"ĠSá»ĳng":14254,"ĠSap":14255,"Ġwrap":14256,"icia":14257,"ĠChiá»ģu":14258,"ĠCháº½":14259,"ĠChá»įn":14260,"ecay":14261,"imab":14262,"Ġcondom":14263,"acted":14264,"Ġeti":14265,"Ġeat":14266,"uments":14267,"ĠIreland":14268,"ĠKhiá»ĥn":14269,"tral":14270,"otes":14271,"Ġdistress":14272,"Ġprol":14273,"Ġprov":14274,"ÄĲá»©ng":14275,"Ġalve":14276,"ociations":14277,"izz":14278,"Ġsouthern":14279,"quad":14280,"Ġincubation":14281,"Ġexisting":14282,"oga":14283,"oreign":14284,"Ġ106":14285,"Chá»įn":14286,"Ġimbal":14287,"Ġatrophy":14288,"anson":14289,"Ġthous":14290,"Ġadren":14291,"Ġadaptive":14292,"Ġprecur":14293,"Ġabd":14294,"PháºŃt":14295,"ivil":14296,"ÄĳoÃłn":14297,"Ġarr":14298,"Ġantitoxin":14299,"Ġunaw":14300,"Ġuniform":14301,"Ġ146":14302,"Ġ1407":14303,"ancre":14304,"Ġcompounds":14305,"ifications":14306,"ectable":14307,"Ġxá»Ńng":14308,"ateral":14309,"maa":14310,"Ġdiffuse":14311,"lergen":14312,"Ġtransport":14313,"Ġlowest":14314,"posure":14315,"Ġgoitre":14316,"Ġghen":14317,"Ġpolitical":14318,"Ġfail":14319,"ietic":14320,"ĠArthritis":14321,"Ġdepos":14322,"Ġurination":14323,"Ġendocrine":14324,"speed":14325,"1957":14326,"numpy":14327,"Ġ236":14328,"NSND":14329,"1990":14330,"ĠAdults":14331,"Ġswing":14332,"Ġmineral":14333,"ĠAcid":14334,"Ġguideline":14335,"Ġlimbs":14336,"Ġzinc":14337,"oglycemia":14338,"Ġoldest":14339,"airs":14340,"ĠPregnancy":14341,"Ġ1861":14342,"Ġ1862":14343,"Ġ1864":14344,"appear":14345,"Ġexpand":14346,"erozyg":14347,"Ġhydroxy":14348,"Ġmilder":14349,"Ġmyxedema":14350,"Ġmyocardial":14351,"ĠIsan":14352,"âĢĬčĊ":14353,"Ġinstance":14354,"Ġultraviolet":14355,"ĠEliane":14356,"ictionary":14357,"Ġenterica":14358,"Ġpsychiatric":14359,"Ġpractices":14360,"activations":14361,"Ġsulfasalazine":14362,"Ġsubstance":14363,"Ġsubstances":14364,"Ġgingival":14365,"inputs":14366,"expm":14367,"Ġmaternal":14368,"Ġcirculating":14369,"modifying":14370,"nghá»ĩ":14371,"Ġpenal":14372,"ĠHbS":14373,"ĠPathet":14374,"ĠGauss":14375,"ĠPublishing":14376,"squared":14377,"Ġteeth":14378,"Ġbehavioral":14379,"Ġconcentr":14380,"ĠMarie":14381,"ĠDaniel":14382,"linearity":14383,"ĠHATT":14384,"Ġsmoke":14385,"Ġtriggered":14386,"Ġkeratin":14387,"Ġmicron":14388,"Ġinherited":14389,"Ġischemic":14390,"Ġservices":14391,"ĠEthiopia":14392,"Ġaggressive":14393,"Ġceftriaxone":14394,"ĠApproximately":14395,"Ġelectrical":14396,"works":14397,"Ġventilation":14398,"ĠSoftware":14399,"Ġfetus":14400,"æ¨¡å":14401,"ĠCadogan":14402,"ibrio":14403,"ĠÄĲÆ¯á»¢C":14404,"osclerosis":14405,"ebrile":14406,"broadcast":14407,"Liá»ĩt":14408,"Má»ĳi":14409,"Sá»©c":14410,"bu":14411,"há»£p":14412,"lt":14413,"tual":14414,"zan":14415,"}(":14416,"Çİ":14417,"á»ľ":14418,"Ġtasks":14419,"ĠcÆ°á»Ľc":14420,"ĠlÃ²a":14421,"Ġnhá»£t":14422,"ĠTáº£o":14423,"error":14424,"Ġthá»ĵ":14425,"chen":14426,"oration":14427,"Ġ((":14428,"ĠÄĲáº¥u":14429,"ĠThao":14430,"ĠTháºŃn":14431,"ĠLove":14432,"ĠDer":14433,"ĠChia":14434,"omatic":14435,"usiness":14436,"Ġ1918":14437,"ulus":14438,"TrÃŃ":14439,"Ġprincip":14440,"ĠOs":14441,"á»ħu":14442,"Ġbá»ıng":14443,"Ġadop":14444,"Ġ1500":14445,"Ġ1774":14446,"Ġnumerous":14447,"arium":14448,"124":14449,"Giáº¥y":14450,"array":14451,"Ġláº»o":14452,"Ġrequirements":14453,"ĠHydro":14454,"Ġcritical":14455,"Ġpercentage":14456,"Ġplacebo":14457,"ĠPyTorch":14458,"Ġclimate":14459,"ĠArthur":14460,"Cá»ĳ":14461,"Gáº·p":14462,"HÆ°á»Ľng":14463,"IL":14464,"Máº¥t":14465,"Táº¥m":14466,"Tuyáº¿n":14467,"cÃ¡ch":14468,"fe":14469,"hÃłnh":14470,"há»Ļi":14471,"oon":14472,"pad":14473,"riti":14474,"sulf":14475,"ç¥":14476,"é¢":14477,"á»ļ":14478,"ĠcÃ¹":14479,"Ġthal":14480,"Ġvung":14481,"ĠbÆ°ng":14482,"Ġbox":14483,"ĠmiÃªn":14484,"Ġsolv":14485,"ĠtrÆ¡":14486,"ĠdÆ¡i":14487,"ĠnhÃŃ":14488,"Ġnhang":14489,"ĠTod":14490,"Ġpháº«n":14491,"analysis":14492,"ĠrÃł":14493,"ĠCá»ĳng":14494,"ĠVáº¡c":14495,"ĠHall":14496,"ĠHind":14497,"change":14498,"ĠgiÄĥng":14499,"ĠMÃ¢y":14500,"ĠMáº¡t":14501,"alm":14502,"arth":14503,"Ġod":14504,"á»±ng":14505,"ĠÄĲoáº¡n":14506,"ĠÄĲá»Ŀn":14507,"ĠBlues":14508,"Ġinser":14509,"ĠLáº½":14510,"ĠLag":14511,"ĠLá»Ĺ":14512,"ĠTráº£i":14513,"astern":14514,"Ġngháº¹n":14515,"elong":14516,"ĠDat":14517,"ĠDáºŃn":14518,"ĠAub":14519,"ĠKap":14520,"Ġthui":14521,"idi":14522,"Ġ1924":14523,"enty":14524,"oding":14525,").<":14526,"ĠRF":14527,"Thá»ĥ":14528,"TrÃ²":14529,"TrÆ°Æ¡ng":14530,"hov":14531,"Ġtuá»·":14532,"ĠFestival":14533,"Ãµm":14534,"Ġparent":14535,"serv":14536,"Ġ1600":14537,"Ġseek":14538,"Ġago":14539,"Ġimmunoglob":14540,"parent":14541,"icians":14542,"Ġinterf":14543,"bean":14544,"acques":14545,"clip":14546,"Ġ1934":14547,"kyist":14548,"Ġ1863":14549,"Ġpassed":14550,"Ġ1895":14551,"ĠMichel":14552,"Ġaccumulate":14553,"Ġgreatest":14554,"1883":14555,"Ġglycogen":14556,"ĠPhysical":14557,"ĠlÃµng":14558,"Ġsurvey":14559,"VTC":14560,"Ġcomponent":14561,"å±±":14562,"ĠHugo":14563,"Ġcontroversial":14564,"ĠMexico":14565,"ĠTrotskyist":14566,"Out":14567,"bour":14568,"main":14569,"Ġcall":14570,"Ġluá»ĳng":14571,"Ġbá»±c":14572,"ĠmáºŃp":14573,"ĠmáºŃu":14574,"ĠkÃŃ":14575,"Ġnine":14576,"Ġplu":14577,"Ġgets":14578,"Ġngá»ĳc":14579,"Ġthems":14580,"ĠMah":14581,"itter":14582,"Ġtouch":14583,"elves":14584,"ĠDon":14585,"ĠDel":14586,"ĠDonald":14587,"Ġraw":14588,"ĠGol":14589,"Ã©e":14590,"osyl":14591,"Ġever":14592,"trum":14593,"otle":14594,"Ġprompt":14595,"ĠUs":14596,"Tráº»":14597,"Ġcoup":14598,"tically":14599,"Ġ79":14600,"ĠOk":14601,"acker":14602,"athan":14603,"timately":14604,"Ġnames":14605,
[...]
